{
  "version": "1.0",
  "truncation": null,
  "padding": null,
  "added_tokens": [
    {
      "id": 0,
      "content": "<pad>",
      "single_word": false,
      "lstrip": false,
      "rstrip": false,
      "normalized": false,
      "special": true
    },
    {
      "id": 1,
      "content": "<s>",
      "single_word": false,
      "lstrip": false,
      "rstrip": false,
      "normalized": false,
      "special": true
    },
    {
      "id": 2,
      "content": "</s>",
      "single_word": false,
      "lstrip": false,
      "rstrip": false,
      "normalized": false,
      "special": true
    },
    {
      "id": 3,
      "content": "<unk>",
      "single_word": false,
      "lstrip": false,
      "rstrip": false,
      "normalized": false,
      "special": true
    },
    {
      "id": 4,
      "content": "<mask>",
      "single_word": false,
      "lstrip": false,
      "rstrip": false,
      "normalized": false,
      "special": true
    }
  ],
  "normalizer": {
    "type": "Sequence",
    "normalizers": [
      {
        "type": "Lowercase"
      }
    ]
  },
  "pre_tokenizer": {
    "type": "ByteLevel",
    "add_prefix_space": true,
    "trim_offsets": true,
    "use_regex": true
  },
  "post_processor": null,
  "decoder": {
    "type": "ByteLevel",
    "add_prefix_space": true,
    "trim_offsets": true,
    "use_regex": true
  },
  "model": {
    "type": "BPE",
    "dropout": null,
    "unk_token": null,
    "continuing_subword_prefix": null,
    "end_of_word_suffix": null,
    "fuse_unk": false,
    "byte_fallback": false,
    "ignore_merges": false,
    "vocab": {
      "<pad>": 0,
      "<s>": 1,
      "</s>": 2,
      "<unk>": 3,
      "<mask>": 4,
      "!": 5,
      "\"": 6,
      "#": 7,
      "$": 8,
      "%": 9,
      "&": 10,
      "'": 11,
      "(": 12,
      ")": 13,
      "*": 14,
      "+": 15,
      ",": 16,
      "-": 17,
      ".": 18,
      "/": 19,
      "0": 20,
      "1": 21,
      "2": 22,
      "3": 23,
      "4": 24,
      "5": 25,
      "6": 26,
      "7": 27,
      "8": 28,
      "9": 29,
      ":": 30,
      ";": 31,
      "<": 32,
      "=": 33,
      ">": 34,
      "?": 35,
      "@": 36,
      "A": 37,
      "B": 38,
      "C": 39,
      "D": 40,
      "E": 41,
      "F": 42,
      "G": 43,
      "H": 44,
      "I": 45,
      "J": 46,
      "K": 47,
      "L": 48,
      "M": 49,
      "N": 50,
      "O": 51,
      "P": 52,
      "Q": 53,
      "R": 54,
      "S": 55,
      "T": 56,
      "U": 57,
      "V": 58,
      "W": 59,
      "X": 60,
      "Y": 61,
      "Z": 62,
      "[": 63,
      "\\": 64,
      "]": 65,
      "^": 66,
      "_": 67,
      "`": 68,
      "a": 69,
      "b": 70,
      "c": 71,
      "d": 72,
      "e": 73,
      "f": 74,
      "g": 75,
      "h": 76,
      "i": 77,
      "j": 78,
      "k": 79,
      "l": 80,
      "m": 81,
      "n": 82,
      "o": 83,
      "p": 84,
      "q": 85,
      "r": 86,
      "s": 87,
      "t": 88,
      "u": 89,
      "v": 90,
      "w": 91,
      "x": 92,
      "y": 93,
      "z": 94,
      "{": 95,
      "|": 96,
      "}": 97,
      "~": 98,
      "¡": 99,
      "¢": 100,
      "£": 101,
      "¤": 102,
      "¥": 103,
      "¦": 104,
      "§": 105,
      "¨": 106,
      "©": 107,
      "ª": 108,
      "«": 109,
      "¬": 110,
      "®": 111,
      "¯": 112,
      "°": 113,
      "±": 114,
      "²": 115,
      "³": 116,
      "´": 117,
      "µ": 118,
      "¶": 119,
      "·": 120,
      "¸": 121,
      "¹": 122,
      "º": 123,
      "»": 124,
      "¼": 125,
      "½": 126,
      "¾": 127,
      "¿": 128,
      "À": 129,
      "Á": 130,
      "Â": 131,
      "Ã": 132,
      "Ä": 133,
      "Å": 134,
      "Æ": 135,
      "Ç": 136,
      "È": 137,
      "É": 138,
      "Ê": 139,
      "Ë": 140,
      "Ì": 141,
      "Í": 142,
      "Î": 143,
      "Ï": 144,
      "Ð": 145,
      "Ñ": 146,
      "Ò": 147,
      "Ó": 148,
      "Ô": 149,
      "Õ": 150,
      "Ö": 151,
      "×": 152,
      "Ø": 153,
      "Ù": 154,
      "Ú": 155,
      "Û": 156,
      "Ü": 157,
      "Ý": 158,
      "Þ": 159,
      "ß": 160,
      "à": 161,
      "á": 162,
      "â": 163,
      "ã": 164,
      "ä": 165,
      "å": 166,
      "æ": 167,
      "ç": 168,
      "è": 169,
      "é": 170,
      "ê": 171,
      "ë": 172,
      "ì": 173,
      "í": 174,
      "î": 175,
      "ï": 176,
      "ð": 177,
      "ñ": 178,
      "ò": 179,
      "ó": 180,
      "ô": 181,
      "õ": 182,
      "ö": 183,
      "÷": 184,
      "ø": 185,
      "ù": 186,
      "ú": 187,
      "û": 188,
      "ü": 189,
      "ý": 190,
      "þ": 191,
      "ÿ": 192,
      "Ā": 193,
      "ā": 194,
      "Ă": 195,
      "ă": 196,
      "Ą": 197,
      "ą": 198,
      "Ć": 199,
      "ć": 200,
      "Ĉ": 201,
      "ĉ": 202,
      "Ċ": 203,
      "ċ": 204,
      "Č": 205,
      "č": 206,
      "Ď": 207,
      "ď": 208,
      "Đ": 209,
      "đ": 210,
      "Ē": 211,
      "ē": 212,
      "Ĕ": 213,
      "ĕ": 214,
      "Ė": 215,
      "ė": 216,
      "Ę": 217,
      "ę": 218,
      "Ě": 219,
      "ě": 220,
      "Ĝ": 221,
      "ĝ": 222,
      "Ğ": 223,
      "ğ": 224,
      "Ġ": 225,
      "ġ": 226,
      "Ģ": 227,
      "ģ": 228,
      "Ĥ": 229,
      "ĥ": 230,
      "Ħ": 231,
      "ħ": 232,
      "Ĩ": 233,
      "ĩ": 234,
      "Ī": 235,
      "ī": 236,
      "Ĭ": 237,
      "ĭ": 238,
      "Į": 239,
      "į": 240,
      "İ": 241,
      "ı": 242,
      "Ĳ": 243,
      "ĳ": 244,
      "Ĵ": 245,
      "ĵ": 246,
      "Ķ": 247,
      "ķ": 248,
      "ĸ": 249,
      "Ĺ": 250,
      "ĺ": 251,
      "Ļ": 252,
      "ļ": 253,
      "Ľ": 254,
      "ľ": 255,
      "Ŀ": 256,
      "ŀ": 257,
      "Ł": 258,
      "ł": 259,
      "Ń": 260,
      "čĊ": 261,
      "in": 262,
      "re": 263,
      "te": 264,
      "on": 265,
      "ti": 266,
      "ing": 267,
      "er": 268,
      "Ġs": 269,
      "es": 270,
      "Ġc": 271,
      "ed": 272,
      "en": 273,
      "Ġd": 274,
      "al": 275,
      "Ġp": 276,
      "Ġa": 277,
      "Ġre": 278,
      "ra": 279,
      "or": 280,
      "tion": 281,
      "un": 282,
      "le": 283,
      "is": 284,
      "ly": 285,
      "ar": 286,
      "Ġm": 287,
      "Ġin": 288,
      "ta": 289,
      "ro": 290,
      "la": 291,
      "Ġf": 292,
      "li": 293,
      "Ġe": 294,
      "Ġun": 295,
      "ted": 296,
      "om": 297,
      "Ġt": 298,
      "ri": 299,
      "Ġb": 300,
      "an": 301,
      "lo": 302,
      "us": 303,
      "Ġo": 304,
      "ts": 305,
      "Ġw": 306,
      "ting": 307,
      "ec": 308,
      "ic": 309,
      "Ġcon": 310,
      "ve": 311,
      "ble": 312,
      "Ġh": 313,
      "it": 314,
      "ation": 315,
      "ver": 316,
      "ul": 317,
      "si": 318,
      "ce": 319,
      "ter": 320,
      "ent": 321,
      "ch": 322,
      "as": 323,
      "Ġg": 324,
      "ess": 325,
      "Ġde": 326,
      "ate": 327,
      "iz": 328,
      "Ġn": 329,
      "ur": 330,
      "mp": 331,
      "Ġi": 332,
      "Ġdis": 333,
      "Ġex": 334,
      "res": 335,
      "Ġsu": 336,
      "ol": 337,
      "qu": 338,
      "ers": 339,
      "pp": 340,
      "at": 341,
      "il": 342,
      "de": 343,
      "ut": 344,
      "ck": 345,
      "st": 346,
      "Ġcom": 347,
      "able": 348,
      "ig": 349,
      "red": 350,
      "ad": 351,
      "Ġpro": 352,
      "et": 353,
      "Ġv": 354,
      "Ġen": 355,
      "ran": 356,
      "ally": 357,
      "ct": 358,
      "el": 359,
      "up": 360,
      "id": 361,
      "tic": 362,
      "ty": 363,
      "'s": 364,
      "po": 365,
      "ff": 366,
      "tive": 367,
      "ten": 368,
      "se": 369,
      "ity": 370,
      "ag": 371,
      "tions": 372,
      "od": 373,
      "ous": 374,
      "Ġst": 375,
      "am": 376,
      "bi": 377,
      "Ġrec": 378,
      "men": 379,
      "tes": 380,
      "ow": 381,
      "th": 382,
      "Ġsp": 383,
      "ated": 384,
      "Ġcomp": 385,
      "orm": 386,
      "Ġsub": 387,
      "ment": 388,
      "Ġco": 389,
      "fi": 390,
      "aliz": 391,
      "Ġad": 392,
      "ci": 393,
      "Ġdi": 394,
      "Ġover": 395,
      "ru": 396,
      "Ġpre": 397,
      "bo": 398,
      "Ġac": 399,
      "led": 400,
      "ds": 401,
      "Ġsh": 402,
      "Ġch": 403,
      "ap": 404,
      "Ġth": 405,
      "Ġres": 406,
      "ling": 407,
      "Ġan": 408,
      "per": 409,
      "um": 410,
      "tim": 411,
      "ding": 412,
      "lin": 413,
      "tra": 414,
      "bili": 415,
      "der": 416,
      "Ġj": 417,
      "Ġrep": 418,
      "ful": 419,
      "ates": 420,
      "Ġimp": 421,
      "ula": 422,
      "est": 423,
      "Ġdec": 424,
      "Ġse": 425,
      "Ġlo": 426,
      "Ġas": 427,
      "tan": 428,
      "ge": 429,
      "ded": 430,
      "gh": 431,
      "vi": 432,
      "Ġte": 433,
      "Ġwe": 434,
      "ness": 435,
      "Ġpo": 436,
      "ors": 437,
      "ke": 438,
      "ren": 439,
      "ating": 440,
      "Ġal": 441,
      "bility": 442,
      "ac": 443,
      "Ġla": 444,
      "Ġinter": 445,
      "Ġtran": 446,
      "ir": 447,
      "ations": 448,
      "im": 449,
      "Ġqu": 450,
      "sion": 451,
      "du": 452,
      "min": 453,
      "Ġli": 454,
      "ish": 455,
      "ew": 456,
      "ram": 457,
      "Ġexp": 458,
      "com": 459,
      "form": 460,
      "con": 461,
      "ip": 462,
      "Ġmul": 463,
      "bly": 464,
      "Ġapp": 465,
      "ou": 466,
      "Ġtrans": 467,
      "oun": 468,
      "Ġle": 469,
      "tiv": 470,
      "ack": 471,
      "lu": 472,
      "table": 473,
      "di": 474,
      "lic": 475,
      "ok": 476,
      "Ġsc": 477,
      "ces": 478,
      "Ġaut": 479,
      "Ġob": 480,
      "less": 481,
      "tu": 482,
      "Ġins": 483,
      "fy": 484,
      "Ġmis": 485,
      "os": 486,
      "ard": 487,
      "Ġfa": 488,
      "ma": 489,
      "ys": 490,
      "ion": 491,
      "mb": 492,
      "op": 493,
      "Ġar": 494,
      "Ġper": 495,
      "Ġinf": 496,
      "ced": 497,
      "iti": 498,
      "Ġne": 499,
      "ction": 500,
      "gg": 501,
      "ot": 502,
      "Ġup": 503,
      "les": 504,
      "Ġmulti": 505,
      "mo": 506,
      "ry": 507,
      "ron": 508,
      "Ġhe": 509,
      "ves": 510,
      "Ġdes": 511,
      "Ġwh": 512,
      "low": 513,
      "ll": 514,
      "ph": 515,
      "sed": 516,
      "Ġro": 517,
      "ork": 518,
      "igh": 519,
      "pen": 520,
      "tain": 521,
      "Ġbe": 522,
      "Ġpa": 523,
      "Ġab": 524,
      "Ġat": 525,
      "Ġref": 526,
      "ari": 527,
      "Ġme": 528,
      "ign": 529,
      "ak": 530,
      "ure": 531,
      "ance": 532,
      "ments": 533,
      "fic": 534,
      "ses": 535,
      "ven": 536,
      "Ġweb": 537,
      "jec": 538,
      "cri": 539,
      "gra": 540,
      "tor": 541,
      "tri": 542,
      "Ġtra": 543,
      "Ġsta": 544,
      "no": 545,
      "our": 546,
      "ence": 547,
      "own": 548,
      "ved": 549,
      "Ġpar": 550,
      "Ġcons": 551,
      "oc": 552,
      "Ġra": 553,
      "Ġmo": 554,
      "ach": 555,
      "val": 556,
      "int": 557,
      "Ġcol": 558,
      "tation": 559,
      "row": 560,
      "bu": 561,
      "log": 562,
      "Ġconf": 563,
      "pa": 564,
      "ine": 565,
      "ary": 566,
      "las": 567,
      "sive": 568,
      "pt": 569,
      "und": 570,
      "mm": 571,
      "sing": 572,
      "Ġl": 573,
      "enti": 574,
      "Ġda": 575,
      "Ġma": 576,
      "Ġuns": 577,
      "Ġout": 578,
      "stru": 579,
      "fied": 580,
      "ore": 581,
      "Ġta": 582,
      "Ġso": 583,
      "Ġreg": 584,
      "ular": 585,
      "Ġno": 586,
      "cess": 587,
      "ls": 588,
      "mis": 589,
      "ving": 590,
      "ant": 591,
      "ters": 592,
      "ght": 593,
      "yn": 594,
      "Ġinte": 595,
      "ously": 596,
      "Ġass": 597,
      "eren": 598,
      "pec": 599,
      "als": 600,
      "Ġbo": 601,
      "are": 602,
      "gu": 603,
      "ub": 604,
      "vis": 605,
      "Ġk": 606,
      "Ġor": 607,
      "Ġinc": 608,
      "Ġdef": 609,
      "line": 610,
      "app": 611,
      "ability": 612,
      "Ġr": 613,
      "Ġdisc": 614,
      "tively": 615,
      "pro": 616,
      "rac": 617,
      "atch": 618,
      "one": 619,
      "eri": 620,
      "Ġpla": 621,
      "and": 622,
      "ized": 623,
      "age": 624,
      "ite": 625,
      "ark": 626,
      "Ġmod": 627,
      "ical": 628,
      "Ġcomm": 629,
      "cing": 630,
      "ud": 631,
      "ree": 632,
      "ings": 633,
      "Ġfor": 634,
      "Ġgra": 635,
      "he": 636,
      "va": 637,
      "ality": 638,
      "Ġmin": 639,
      "Ġacc": 640,
      "cy": 641,
      "og": 642,
      "ins": 643,
      "Ġcor": 644,
      "Ġind": 645,
      "Ġund": 646,
      "load": 647,
      "ust": 648,
      "cep": 649,
      "cted": 650,
      "vol": 651,
      "Ġsw": 652,
      "end": 653,
      "all": 654,
      "ise": 655,
      "comp": 656,
      "ab": 657,
      "ges": 658,
      "mi": 659,
      "ms": 660,
      "Ġu": 661,
      "ined": 662,
      "ord": 663,
      "ay": 664,
      "amp": 665,
      "ged": 666,
      "pi": 667,
      "tin": 668,
      "ort": 669,
      "Ġunder": 670,
      "Ġdep": 671,
      "tically": 672,
      "ties": 673,
      "Ġph": 674,
      "Ġtri": 675,
      "ically": 676,
      "view": 677,
      "cal": 678,
      "lus": 679,
      "lan": 680,
      "vers": 681,
      "ently": 682,
      "ize": 683,
      "Ġvi": 684,
      "Ġthe": 685,
      "ies": 686,
      "ks": 687,
      "king": 688,
      "ning": 689,
      "out": 690,
      "Ġman": 691,
      "lock": 692,
      "ash": 693,
      "Ġnon": 694,
      "Ġspec": 695,
      "ep": 696,
      "ned": 697,
      "tro": 698,
      "zed": 699,
      "edi": 700,
      "ener": 701,
      "eness": 702,
      "Ġaff": 703,
      "ration": 704,
      "lect": 705,
      "Ġfe": 706,
      "Ġback": 707,
      "Ġwork": 708,
      "Ġenc": 709,
      "ffic": 710,
      "ser": 711,
      "tly": 712,
      "Ġy": 713,
      "Ġke": 714,
      "ind": 715,
      "Ġpri": 716,
      "ist": 717,
      "Ġmic": 718,
      "Ġfi": 719,
      "Ġconc": 720,
      "Ġhy": 721,
      "Ġsubs": 722,
      "alized": 723,
      "fully": 724,
      "Ġdata": 725,
      "ber": 726,
      "gi": 727,
      "mon": 728,
      "sh": 729,
      "Ġsur": 730,
      "Ġred": 731,
      "art": 732,
      "Ġequ": 733,
      "Ġunf": 734,
      "pped": 735,
      "ath": 736,
      "ator": 737,
      "cts": 738,
      "Ġtim": 739,
      "read": 740,
      "rate": 741,
      "Ġfin": 742,
      "Ġsupp": 743,
      "Ġmicro": 744,
      "ative": 745,
      "nec": 746,
      "to": 747,
      "uts": 748,
      "Ġus": 749,
      "Ġsa": 750,
      "Ġste": 751,
      "ens": 752,
      "Ġpres": 753,
      "Ġuni": 754,
      "fies": 755,
      "alize": 756,
      "ably": 757,
      "ered": 758,
      "mit": 759,
      "rin": 760,
      "ue": 761,
      "ze": 762,
      "Ġes": 763,
      "Ġver": 764,
      "teri": 765,
      "Ġpers": 766,
      "Ġaw": 767,
      "tional": 768,
      "Ġemp": 769,
      "Ġop": 770,
      "ched": 771,
      "ase": 772,
      "ization": 773,
      "ha": 774,
      "me": 775,
      "Ġri": 776,
      "ering": 777,
      "Ġsyn": 778,
      "Ġdo": 779,
      "Ġdown": 780,
      "Ġform": 781,
      "termin": 782,
      "Ġdiff": 783,
      "cting": 784,
      "ex": 785,
      "ging": 786,
      "ked": 787,
      "lish": 788,
      "over": 789,
      "ures": 790,
      "ying": 791,
      "reg": 792,
      "ream": 793,
      "Ġsm": 794,
      "loc": 795,
      "fying": 796,
      "act": 797,
      "pon": 798,
      "ured": 799,
      "vic": 800,
      "vid": 801,
      "Ġinv": 802,
      "ric": 803,
      "ities": 804,
      "Ġspeci": 805,
      "be": 806,
      "des": 807,
      "ns": 808,
      "pe": 809,
      "rup": 810,
      "Ġti": 811,
      "Ġcal": 812,
      "Ġrela": 813,
      "Ġwa": 814,
      "Ġge": 815,
      "pping": 816,
      "Ġvis": 817,
      "tribu": 818,
      "ring": 819,
      "ute": 820,
      "Ġent": 821,
      "Ġrein": 822,
      "raw": 823,
      "lex": 824,
      "ards": 825,
      "Ġemb": 826,
      "Ġunp": 827,
      "ith": 828,
      "Ġdisp": 829,
      "ell": 830,
      "ain": 831,
      "for": 832,
      "ps": 833,
      "ss": 834,
      "ons": 835,
      "Ġren": 836,
      "Ġfla": 837,
      "ome": 838,
      "Ġgu": 839,
      "Ġgener": 840,
      "izes": 841,
      "uring": 842,
      "Ġrecon": 843,
      "Ġcoun": 844,
      "book": 845,
      "fication": 846,
      "av": 847,
      "go": 848,
      "ive": 849,
      "net": 850,
      "tered": 851,
      "titu": 852,
      "Ġsi": 853,
      "Ġrest": 854,
      "rable": 855,
      "Ġinde": 856,
      "Ġfo": 857,
      "Ġty": 858,
      "Ġopen": 859,
      "ass": 860,
      "Ġdeli": 861,
      "ress": 862,
      "posi": 863,
      "alization": 864,
      "sions": 865,
      "Ġappro": 866,
      "tivity": 867,
      "Ġkey": 868,
      "co": 869,
      "ft": 870,
      "med": 871,
      "mark": 872,
      "run": 873,
      "Ġclo": 874,
      "Ġcap": 875,
      "Ġam": 876,
      "rated": 877,
      "ars": 878,
      "Ġbu": 879,
      "Ġoc": 880,
      "ick": 881,
      "sig": 882,
      "old": 883,
      "ctor": 884,
      "Ġrecom": 885,
      "Ġrepro": 886,
      "Ġmultip": 887,
      "graph": 888,
      "cer": 889,
      "ctive": 890,
      "ctions": 891,
      "gram": 892,
      "hen": 893,
      "ien": 894,
      "man": 895,
      "ni": 896,
      "now": 897,
      "Ġpy": 898,
      "arch": 899,
      "lation": 900,
      "Ġtw": 901,
      "Ġoff": 902,
      "Ġcontra": 903,
      "sible": 904,
      "tern": 905,
      "ast": 906,
      "izing": 907,
      "Ġsuper": 908,
      "Ġsumm": 909,
      "iled": 910,
      "ame": 911,
      "au": 912,
      "rus": 913,
      "tors": 914,
      "ual": 915,
      "zation": 916,
      "Ġon": 917,
      "Ġer": 918,
      "test": 919,
      "ingly": 920,
      "Ġsli": 921,
      "Ġsec": 922,
      "Ġcle": 923,
      "Ġpred": 924,
      "unction": 925,
      "isten": 926,
      "lay": 927,
      "lated": 928,
      "Ġunw": 929,
      "omin": 930,
      "Ġto": 931,
      "Ġbre": 932,
      "uses": 933,
      "Ġwin": 934,
      "Ġwor": 935,
      "ational": 936,
      "cei": 937,
      "ately": 938,
      "Ġite": 939,
      "qui": 940,
      "ators": 941,
      "ill": 942,
      "Ġeng": 943,
      "tics": 944,
      "cies": 945,
      "Ġanal": 946,
      "tand": 947,
      "lassi": 948,
      "Ġhyper": 949,
      "'t": 950,
      "den": 951,
      "ere": 952,
      "ger": 953,
      "jo": 954,
      "ne": 955,
      "uta": 956,
      "work": 957,
      "xt": 958,
      "Ġsk": 959,
      "Ġcy": 960,
      "Ġmon": 961,
      "Ġfore": 962,
      "use": 963,
      "Ġouts": 964,
      "ics": 965,
      "tering": 966,
      "ases": 967,
      "urs": 968,
      "Ġir": 969,
      "iling": 970,
      "Ġval": 971,
      "Ġstri": 972,
      "umer": 973,
      "Ġlog": 974,
      "Ġtech": 975,
      "rame": 976,
      "linear": 977,
      "process": 978,
      "hi": 979,
      "ho": 980,
      "ial": 981,
      "js": 982,
      "lli": 983,
      "of": 984,
      "ump": 985,
      "xim": 986,
      "Ġx": 987,
      "Ġran": 988,
      "Ġten": 989,
      "tis": 990,
      "Ġden": 991,
      "Ġdest": 992,
      "Ġau": 993,
      "rates": 994,
      "aring": 995,
      "Ġinten": 996,
      "tate": 997,
      "Ġbro": 998,
      "loy": 999,
      "used": 1000,
      "Ġwar": 1001,
      "Ġconver": 1002,
      "Ġho": 1003,
      "Ġhar": 1004,
      "ased": 1005,
      "Ġim": 1006,
      "Ġextra": 1007,
      "Ġvari": 1008,
      "ther": 1009,
      "alizing": 1010,
      "alizes": 1011,
      "Ġchar": 1012,
      "time": 1013,
      "ulate": 1014,
      "Ġtemp": 1015,
      "ound": 1016,
      "Ġocc": 1017,
      "ee": 1018,
      "flow": 1019,
      "ix": 1020,
      "ler": 1021,
      "vo": 1022,
      "vable": 1023,
      "zes": 1024,
      "Ġis": 1025,
      "Ġru": 1026,
      "ining": 1027,
      "ines": 1028,
      "Ġsen": 1029,
      "Ġsus": 1030,
      "Ġsign": 1031,
      "Ġcli": 1032,
      "Ġdig": 1033,
      "ory": 1034,
      "Ġincon": 1035,
      "tations": 1036,
      "Ġunm": 1037,
      "Ġgo": 1038,
      "mpli": 1039,
      "igu": 1040,
      "tical": 1041,
      "ulated": 1042,
      "Ġexplo": 1043,
      "Ġhead": 1044,
      "ight": 1045,
      "crib": 1046,
      "struct": 1047,
      "volu": 1048,
      "down": 1049,
      "gan": 1050,
      "hor": 1051,
      "pre": 1052,
      "sc": 1053,
      "ues": 1054,
      "ward": 1055,
      "zing": 1056,
      "Ġsy": 1057,
      "Ġser": 1058,
      "Ġcod": 1059,
      "ents": 1060,
      "Ġpen": 1061,
      "ised": 1062,
      "Ġmat": 1063,
      "tated": 1064,
      "Ġele": 1065,
      "Ġunb": 1066,
      "Ġoper": 1067,
      "eck": 1068,
      "ches": 1069,
      "Ġgro": 1070,
      "urren": 1071,
      "semb": 1072,
      "Ġdecom": 1073,
      "tives": 1074,
      "Ġautom": 1075,
      "yste": 1076,
      "ions": 1077,
      "sively": 1078,
      "20": 1079,
      "its": 1080,
      "ified": 1081,
      "lling": 1082,
      "mer": 1083,
      "ner": 1084,
      "tur": 1085,
      "ong": 1086,
      "edu": 1087,
      "ene": 1088,
      "Ġagg": 1089,
      "Ġreb": 1090,
      "rating": 1091,
      "Ġmor": 1092,
      "Ġiniti": 1093,
      "tability": 1094,
      "Ġfil": 1095,
      "anti": 1096,
      "Ġid": 1097,
      "Ġdiss": 1098,
      "Ġdiscon": 1099,
      "Ġprodu": 1100,
      "pos": 1101,
      "point": 1102,
      "mented": 1103,
      "Ġspe": 1104,
      "box": 1105,
      "Ġjo": 1106,
      "Ġpop": 1107,
      "irc": 1108,
      "Ġneg": 1109,
      "Ġunders": 1110,
      "Ġdifferen": 1111,
      "++": 1112,
      "back": 1113,
      "ea": 1114,
      "hip": 1115,
      "ie": 1116,
      "olog": 1117,
      "tle": 1118,
      "uri": 1119,
      "Ġz": 1120,
      "ints": 1121,
      "iness": 1122,
      "ones": 1123,
      "Ġspo": 1124,
      "Ġcl": 1125,
      "Ġcirc": 1126,
      "Ġag": 1127,
      "Ġresi": 1128,
      "Ġread": 1129,
      "Ġremo": 1130,
      "rations": 1131,
      "oring": 1132,
      "istic": 1133,
      "rop": 1134,
      "laim": 1135,
      "Ġful": 1136,
      "Ġelect": 1137,
      "Ġunc": 1138,
      "ang": 1139,
      "ances": 1140,
      "Ġopp": 1141,
      "Ġhand": 1142,
      "Ġnew": 1143,
      "Ġexc": 1144,
      "Ġexper": 1145,
      "que": 1146,
      "ild": 1147,
      "Ġprof": 1148,
      "Ġprop": 1149,
      "eld": 1150,
      "Ġdire": 1151,
      "Ġpref": 1152,
      "Ġacqu": 1153,
      "ulation": 1154,
      "Ġloc": 1155,
      "Ġups": 1156,
      "pend": 1157,
      "Ġabs": 1158,
      "Ġatten": 1159,
      "Ġcolla": 1160,
      "Ġview": 1161,
      "cen": 1162,
      "fe": 1163,
      "gor": 1164,
      "ming": 1165,
      "ris": 1166,
      "sp": 1167,
      "ued": 1168,
      "ugh": 1169,
      "Ġtes": 1170,
      "rehen": 1171,
      "ony": 1172,
      "Ġset": 1173,
      "Ġrele": 1174,
      "arn": 1175,
      "Ġint": 1176,
      "Ġinno": 1177,
      "tab": 1178,
      "Ġflo": 1179,
      "Ġunre": 1180,
      "ans": 1181,
      "using": 1182,
      "Ġwi": 1183,
      "ching": 1184,
      "char": 1185,
      "chan": 1186,
      "chron": 1187,
      "Ġill": 1188,
      "resh": 1189,
      "etric": 1190,
      "rance": 1191,
      "ages": 1192,
      "Ġstra": 1193,
      "Ġcompe": 1194,
      "Ġdiag": 1195,
      "Ġsho": 1196,
      "Ġrespon": 1197,
      "ulating": 1198,
      "iring": 1199,
      "ished": 1200,
      "Ġobjec": 1201,
      "Ġobser": 1202,
      "Ġinstan": 1203,
      "Ġpartic": 1204,
      "ustom": 1205,
      "Ġoptim": 1206,
      "Ġpredic": 1207,
      "dic": 1208,
      "ited": 1209,
      "map": 1210,
      "uted": 1211,
      "ually": 1212,
      "wri": 1213,
      "ware": 1214,
      "Ġlin": 1215,
      "ret": 1216,
      "ond": 1217,
      "tify": 1218,
      "ery": 1219,
      "Ġsim": 1220,
      "Ġstand": 1221,
      "Ġca": 1222,
      "Ġcre": 1223,
      "Ġcra": 1224,
      "Ġcri": 1225,
      "Ġcry": 1226,
      "Ġpur": 1227,
      "Ġreas": 1228,
      "tionally": 1229,
      "ists": 1230,
      "Ġmar": 1231,
      "tage": 1232,
      "late": 1233,
      "lates": 1234,
      "Ġeli": 1235,
      "Ġunin": 1236,
      "Ġtou": 1237,
      "rid": 1238,
      "lop": 1239,
      "Ġconte": 1240,
      "Ġha": 1241,
      "Ġhi": 1242,
      "Ġimm": 1243,
      "Ġdisapp": 1244,
      "Ġexten": 1245,
      "ressed": 1246,
      "Ġsuc": 1247,
      "cking": 1248,
      "Ġprogram": 1249,
      "elf": 1250,
      "typ": 1251,
      "Ġadap": 1252,
      "Ġang": 1253,
      "ulates": 1254,
      "Ġseg": 1255,
      "Ġquanti": 1256,
      "Ġauto": 1257,
      "Ġarch": 1258,
      "Ġdesign": 1259,
      "Ġwhere": 1260,
      "Ġmain": 1261,
      "Ġplay": 1262,
      "Ġmoder": 1263,
      "Ġcorre": 1264,
      "ati": 1265,
      "by": 1266,
      "do": 1267,
      "ets": 1268,
      "if": 1269,
      "ili": 1270,
      "ient": 1271,
      "ious": 1272,
      "ify": 1273,
      "len": 1274,
      "ograph": 1275,
      "py": 1276,
      "reci": 1277,
      "Ġcustom": 1278,
      "ened": 1279,
      "Ġple": 1280,
      "Ġprac": 1281,
      "Ġreac": 1282,
      "orted": 1283,
      "Ġmas": 1284,
      "Ġmag": 1285,
      "Ġinform": 1286,
      "tably": 1287,
      "lable": 1288,
      "lace": 1289,
      "Ġfree": 1290,
      "Ġunt": 1291,
      "Ġuncon": 1292,
      "Ġtre": 1293,
      "Ġby": 1294,
      "Ġbra": 1295,
      "Ġhel": 1296,
      "Ġhash": 1297,
      "sider": 1298,
      "ceed": 1299,
      "asing": 1300,
      "Ġgam": 1301,
      "Ġdem": 1302,
      "rest": 1303,
      "ils": 1304,
      "def": 1305,
      "dered": 1306,
      "cked": 1307,
      "stal": 1308,
      "eth": 1309,
      "Ġvo": 1310,
      "ups": 1311,
      "thes": 1312,
      "board": 1313,
      "Ġcha": 1314,
      "Ġche": 1315,
      "Ġteam": 1316,
      "Ġpoly": 1317,
      "Ġlan": 1318,
      "Ġobli": 1319,
      "gged": 1320,
      "crip": 1321,
      "ception": 1322,
      "vice": 1323,
      "Ġbreak": 1324,
      "bs": 1325,
      "hes": 1326,
      "ily": 1327,
      "ql": 1328,
      "vation": 1329,
      "we": 1330,
      "Ġur": 1331,
      "tig": 1332,
      "tified": 1333,
      "Ġsch": 1334,
      "Ġseri": 1335,
      "esi": 1336,
      "Ġdou": 1337,
      "Ġprin": 1338,
      "Ġaf": 1339,
      "Ġreli": 1340,
      "Ġreform": 1341,
      "orts": 1342,
      "tioned": 1343,
      "unic": 1344,
      "Ġine": 1345,
      "Ġinstru": 1346,
      "lating": 1347,
      "Ġfol": 1348,
      "lity": 1349,
      "Ġeff": 1350,
      "Ġbin": 1351,
      "ecu": 1352,
      "Ġcontin": 1353,
      "Ġconnec": 1354,
      "Ġhard": 1355,
      "aten": 1356,
      "ressing": 1357,
      "iles": 1358,
      "illing": 1359,
      "elling": 1360,
      "pose": 1361,
      "posed": 1362,
      "Ġsto": 1363,
      "Ġstru": 1364,
      "thon": 1365,
      "Ġcompu": 1366,
      "Ġcomple": 1367,
      "Ġadver": 1368,
      "Ġdiver": 1369,
      "Ġcheck": 1370,
      "lines": 1371,
      "Ġdeco": 1372,
      "tance": 1373,
      "Ġpost": 1374,
      "comm": 1375,
      "dire": 1376,
      "Ġmem": 1377,
      "Ġcolle": 1378,
      "erence": 1379,
      "vision": 1380,
      "Ġdiscre": 1381,
      "Ġminim": 1382,
      "Ġindic": 1383,
      "Ġflat": 1384,
      "Ġaudi": 1385,
      "Ġcrypt": 1386,
      "64": 1387,
      "ade": 1388,
      "ava": 1389,
      "lled": 1390,
      "leness": 1391,
      "ners": 1392,
      "ots": 1393,
      "ose": 1394,
      "oci": 1395,
      "pu": 1396,
      "so": 1397,
      "yed": 1398,
      "Ġing": 1399,
      "Ġter": 1400,
      "Ġlu": 1401,
      "ref": 1402,
      "tial": 1403,
      "Ġsti": 1404,
      "Ġsyste": 1405,
      "Ġcer": 1406,
      "Ġcul": 1407,
      "Ġdu": 1408,
      "Ġdraw": 1409,
      "aled": 1410,
      "Ġpe": 1411,
      "Ġpas": 1412,
      "Ġpub": 1413,
      "Ġast": 1414,
      "Ġrever": 1415,
      "Ġrema": 1416,
      "tioning": 1417,
      "let": 1418,
      "ising": 1419,
      "isted": 1420,
      "Ġmer": 1421,
      "Ġmedi": 1422,
      "Ġinver": 1423,
      "Ġindu": 1424,
      "Ġinves": 1425,
      "tating": 1426,
      "tates": 1427,
      "roll": 1428,
      "Ġune": 1429,
      "rie": 1430,
      "right": 1431,
      "Ġbi": 1432,
      "Ġbla": 1433,
      "Ġwid": 1434,
      "Ġconst": 1435,
      "Ġconten": 1436,
      "velop": 1437,
      "Ġhum": 1438,
      "itting": 1439,
      "Ġglo": 1440,
      "Ġdele": 1441,
      "izer": 1442,
      "Ġnet": 1443,
      "Ġnorm": 1444,
      "Ġexe": 1445,
      "ression": 1446,
      "illed": 1447,
      "Ġenter": 1448,
      "eless": 1449,
      "polog": 1450,
      "aging": 1451,
      "mend": 1452,
      "mentation": 1453,
      "Ġcode": 1454,
      "fier": 1455,
      "Ġadv": 1456,
      "Ġadmin": 1457,
      "Ġrespec": 1458,
      "bilities": 1459,
      "Ġrepres": 1460,
      "Ġsee": 1461,
      "tant": 1462,
      "Ġalle": 1463,
      "ishing": 1464,
      "oura": 1465,
      "lication": 1466,
      "Ġauthor": 1467,
      "ture": 1468,
      "matic": 1469,
      "ops": 1470,
      "tained": 1471,
      "Ġatta": 1472,
      "aking": 1473,
      "fications": 1474,
      "cript": 1475,
      "Ġparal": 1476,
      "Ġmode": 1477,
      "Ġorgan": 1478,
      "Ġincre": 1479,
      "ordin": 1480,
      "monst": 1481,
      "Ġtimes": 1482,
      "Ġtyp": 1483,
      "nowled": 1484,
      "Ġanaly": 1485,
      "Ġdestru": 1486,
      "volution": 1487,
      "'ll": 1488,
      "ats": 1489,
      "ared": 1490,
      "bles": 1491,
      "db": 1492,
      "dd": 1493,
      "dom": 1494,
      "get": 1495,
      "gth": 1496,
      "hed": 1497,
      "list": 1498,
      "oth": 1499,
      "spec": 1500,
      "uation": 1501,
      "xes": 1502,
      "Ġtermin": 1503,
      "rer": 1504,
      "rew": 1505,
      "Ġsin": 1506,
      "Ġsil": 1507,
      "Ġsty": 1508,
      "Ġce": 1509,
      "Ġcar": 1510,
      "Ġcro": 1511,
      "Ġcent": 1512,
      "ening": 1513,
      "ented": 1514,
      "ends": 1515,
      "ency": 1516,
      "Ġderi": 1517,
      "aling": 1518,
      "Ġpi": 1519,
      "Ġpow": 1520,
      "rator": 1521,
      "order": 1522,
      "lying": 1523,
      "Ġmid": 1524,
      "Ġmark": 1525,
      "Ġintro": 1526,
      "tas": 1527,
      "lations": 1528,
      "Ġfre": 1529,
      "Ġfun": 1530,
      "Ġfas": 1531,
      "Ġfunction": 1532,
      "lid": 1533,
      "lied": 1534,
      "Ġear": 1535,
      "Ġunde": 1536,
      "Ġunex": 1537,
      "Ġtal": 1538,
      "Ġbur": 1539,
      "Ġblock": 1540,
      "ands": 1541,
      "lot": 1542,
      "tingu": 1543,
      "ect": 1544,
      "ector": 1545,
      "Ġconven": 1546,
      "Ġcontro": 1547,
      "vel": 1548,
      "Ġhapp": 1549,
      "ult": 1550,
      "ural": 1551,
      "Ġdistribu": 1552,
      "restim": 1553,
      "ature": 1554,
      "Ġcomb": 1555,
      "ety": 1556,
      "Ġend": 1557,
      "Ġenumer": 1558,
      "range": 1559,
      "els": 1560,
      "sets": 1561,
      "Ġshow": 1562,
      "Ġchan": 1563,
      "aps": 1564,
      "Ġany": 1565,
      "Ġanno": 1566,
      "dings": 1567,
      "ulations": 1568,
      "Ġdecre": 1569,
      "Ġsepa": 1570,
      "Ġposi": 1571,
      "acy": 1572,
      "Ġintern": 1573,
      "Ġinterpre": 1574,
      "Ġqual": 1575,
      "forms": 1576,
      "ought": 1577,
      "licit": 1578,
      "oken": 1579,
      "lessly": 1580,
      "Ġargu": 1581,
      "Ġinflu": 1582,
      "Ġbeha": 1583,
      "Ġpara": 1584,
      "aries": 1585,
      "pace": 1586,
      "lass": 1587,
      "ential": 1588,
      "Ġregular": 1589,
      "mission": 1590,
      "Ġrun": 1591,
      "atched": 1592,
      "Ġthere": 1593,
      "Ġperson": 1594,
      "position": 1595,
      "sign": 1596,
      "Ġvalid": 1597,
      "Ġbroad": 1598,
      "Ġimag": 1599,
      "Ġidenti": 1600,
      "cu": 1601,
      "cap": 1602,
      "fac": 1603,
      "fact": 1604,
      "gs": 1605,
      "gin": 1606,
      "gence": 1607,
      "han": 1608,
      "ired": 1609,
      "kes": 1610,
      "ken": 1611,
      "ld": 1612,
      "nam": 1613,
      "off": 1614,
      "pers": 1615,
      "uff": 1616,
      "voc": 1617,
      "wise": 1618,
      "yc": 1619,
      "tible": 1620,
      "erable": 1621,
      "Ġsol": 1622,
      "Ġsome": 1623,
      "Ġci": 1624,
      "Ġcan": 1625,
      "Ġdra": 1626,
      "Ġdri": 1627,
      "Ġdedu": 1628,
      "Ġpack": 1629,
      "Ġpass": 1630,
      "Ġap": 1631,
      "Ġreal": 1632,
      "Ġrequ": 1633,
      "arity": 1634,
      "arge": 1635,
      "arded": 1636,
      "Ġfra": 1637,
      "Ġfan": 1638,
      "Ġfam": 1639,
      "Ġflu": 1640,
      "lie": 1641,
      "ligh": 1642,
      "Ġem": 1643,
      "Ġever": 1644,
      "Ġtro": 1645,
      "Ġblin": 1646,
      "Ġow": 1647,
      "Ġwind": 1648,
      "ection": 1649,
      "Ġconj": 1650,
      "Ġcondu": 1651,
      "Ġcontain": 1652,
      "Ġhigh": 1653,
      "uld": 1654,
      "sibility": 1655,
      "chie": 1656,
      "Ġgen": 1657,
      "Ġdete": 1658,
      "Ġdeta": 1659,
      "Ġdemo": 1660,
      "Ġdeep": 1661,
      "Ġdetermin": 1662,
      "Ġnul": 1663,
      "Ġig": 1664,
      "Ġsuff": 1665,
      "aded": 1666,
      "Ġvs": 1667,
      "Ġvol": 1668,
      "Ġvector": 1669,
      "Ġenti": 1670,
      "rant": 1671,
      "ides": 1672,
      "tened": 1673,
      "sem": 1674,
      "sely": 1675,
      "sequ": 1676,
      "aged": 1677,
      "ods": 1678,
      "Ġstream": 1679,
      "Ġcompla": 1680,
      "mental": 1681,
      "Ġadj": 1682,
      "cip": 1683,
      "cious": 1684,
      "Ġdial": 1685,
      "Ġprec": 1686,
      "Ġaccomp": 1687,
      "Ġshort": 1688,
      "Ġjava": 1689,
      "Ġrepa": 1690,
      "Ġimple": 1691,
      "Ġimpro": 1692,
      "Ġlow": 1693,
      "tang": 1694,
      "Ġtele": 1695,
      "Ġweigh": 1696,
      "Ġpos": 1697,
      "Ġalloc": 1698,
      "Ġtransi": 1699,
      "Ġquick": 1700,
      "Ġexpon": 1701,
      "Ġtransp": 1702,
      "Ġtransform": 1703,
      "luded": 1704,
      "Ġscra": 1705,
      "Ġfactor": 1706,
      "mati": 1707,
      "Ġperm": 1708,
      "Ġneigh": 1709,
      "ryp": 1710,
      "arily": 1711,
      "nolog": 1712,
      "ached": 1713,
      "valid": 1714,
      "Ġmaxim": 1715,
      "antly": 1716,
      "Ġintegra": 1717,
      "Ġorig": 1718,
      "Ġcommunic": 1719,
      "Ġswe": 1720,
      "Ġredis": 1721,
      "Ġtime": 1722,
      "Ġuser": 1723,
      "Ġcalc": 1724,
      "Ġtool": 1725,
      "Ġcyber": 1726,
      "hibi": 1727,
      "Ġdecomp": 1728,
      "Ġdifferenti": 1729,
      "Ġexperi": 1730,
      "onym": 1731,
      "Ġadminis": 1732,
      "Ġparalle": 1733,
      "'d": 1734,
      "'ve": 1735,
      "32": 1736,
      "af": 1737,
      "aw": 1738,
      "ave": 1739,
      "ays": 1740,
      "bb": 1741,
      "cent": 1742,
      "cas": 1743,
      "da": 1744,
      "day": 1745,
      "em": 1746,
      "gro": 1747,
      "ible": 1748,
      "mic": 1749,
      "na": 1750,
      "nn": 1751,
      "ote": 1752,
      "ode": 1753,
      "ored": 1754,
      "pad": 1755,
      "rint": 1756,
      "set": 1757,
      "uting": 1758,
      "vent": 1759,
      "vari": 1760,
      "xed": 1761,
      "Ġ1": 1762,
      "Ġve": 1763,
      "Ġlinear": 1764,
      "inted": 1765,
      "rec": 1766,
      "onom": 1767,
      "tifying": 1768,
      "Ġsmo": 1769,
      "Ġslow": 1770,
      "Ġcur": 1771,
      "Ġcare": 1772,
      "ending": 1773,
      "ences": 1774,
      "Ġdup": 1775,
      "Ġpl": 1776,
      "Ġpor": 1777,
      "Ġpun": 1778,
      "Ġabo": 1779,
      "Ġret": 1780,
      "ray": 1781,
      "rably": 1782,
      "une": 1783,
      "isting": 1784,
      "Ġintri": 1785,
      "Ġflow": 1786,
      "lies": 1787,
      "Ġuncom": 1788,
      "Ġtur": 1789,
      "Ġtoken": 1790,
      "Ġbit": 1791,
      "Ġbene": 1792,
      "anced": 1793,
      "Ġwon": 1794,
      "Ġwas": 1795,
      "Ġwith": 1796,
      "ected": 1797,
      "ecting": 1798,
      "ice": 1799,
      "Ġcontri": 1800,
      "Ġconstru": 1801,
      "vered": 1802,
      "Ġhor": 1803,
      "Ġhom": 1804,
      "itor": 1805,
      "side": 1806,
      "essed": 1807,
      "Ġdev": 1808,
      "Ġdemonst": 1809,
      "Ġnav": 1810,
      "Ġnumer": 1811,
      "Ġie": 1812,
      "Ġdisag": 1813,
      "Ġdisrup": 1814,
      "resses": 1815,
      "ressive": 1816,
      "respon": 1817,
      "ills": 1818,
      "uth": 1819,
      "cks": 1820,
      "Ġprojec": 1821,
      "etri": 1822,
      "Ġvir": 1823,
      "Ġens": 1824,
      "ctu": 1825,
      "ided": 1826,
      "ident": 1827,
      "points": 1828,
      "oding": 1829,
      "odes": 1830,
      "Ġrecal": 1831,
      "menting": 1832,
      "Ġovers": 1833,
      "Ġacce": 1834,
      "Ġcho": 1835,
      "Ġthan": 1836,
      "Ġresol": 1837,
      "Ġann": 1838,
      "Ġanim": 1839,
      "umb": 1840,
      "ums": 1841,
      "lined": 1842,
      "Ġjus": 1843,
      "Ġjud": 1844,
      "ulator": 1845,
      "Ġsequ": 1846,
      "Ġtext": 1847,
      "Ġlay": 1848,
      "irs": 1849,
      "Ġquad": 1850,
      "Ġlib": 1851,
      "contro": 1852,
      "Ġappe": 1853,
      "Ġtransf": 1854,
      "tiveness": 1855,
      "oked": 1856,
      "Ġscal": 1857,
      "Ġfav": 1858,
      "Ġneed": 1859,
      "gging": 1860,
      "Ġwho": 1861,
      "Ġrobo": 1862,
      "taining": 1863,
      "Ġpay": 1864,
      "Ġmeta": 1865,
      "Ġmean": 1866,
      "Ġmeas": 1867,
      "crimin": 1868,
      "ours": 1869,
      "Ġconsul": 1870,
      "ocu": 1871,
      "Ġmotiv": 1872,
      "aching": 1873,
      "valu": 1874,
      "Ġtas": 1875,
      "Ġinterac": 1876,
      "Ġaccum": 1877,
      "ogn": 1878,
      "loads": 1879,
      "loading": 1880,
      "Ġswit": 1881,
      "ables": 1882,
      "Ġuti": 1883,
      "Ġtriang": 1884,
      "cale": 1885,
      "Ġmanip": 1886,
      "Ġprior": 1887,
      "Ġhypo": 1888,
      "Ġsurp": 1889,
      "Ġequi": 1890,
      "Ġsatis": 1891,
      "mitted": 1892,
      "Ġestim": 1893,
      "Ġpersu": 1894,
      "Ġemploy": 1895,
      "Ġsynchron": 1896,
      "Ġvisu": 1897,
      "books": 1898,
      "Ġclean": 1899,
      "Ġharmon": 1900,
      "Ġspeed": 1901,
      "tablish": 1902,
      "Ġillus": 1903,
      "Ġangular": 1904,
      "Ġhelp": 1905,
      "Ġcharac": 1906,
      "Ġdoub": 1907,
      "Ġinvestig": 1908,
      "Ġrepresen": 1909,
      "Ġorigin": 1910,
      "bit": 1911,
      "bel": 1912,
      "bod": 1913,
      "cers": 1914,
      "ctively": 1915,
      "cast": 1916,
      "ders": 1917,
      "fit": 1918,
      "ib": 1919,
      "iting": 1920,
      "ide": 1921,
      "ially": 1922,
      "ker": 1923,
      "kit": 1924,
      "oting": 1925,
      "ror": 1926,
      "uing": 1927,
      "wor": 1928,
      "wards": 1929,
      "xtu": 1930,
      "Ġq": 1931,
      "Ġed": 1932,
      "Ġul": 1933,
      "Ġut": 1934,
      "ink": 1935,
      "inter": 1936,
      "tious": 1937,
      "tigu": 1938,
      "tifies": 1939,
      "ert": 1940,
      "Ġsle": 1941,
      "Ġsci": 1942,
      "Ġsigh": 1943,
      "ession": 1944,
      "Ġcas": 1945,
      "Ġcate": 1946,
      "Ġcau": 1947,
      "Ġclassi": 1948,
      "Ġdw": 1949,
      "Ġded": 1950,
      "Ġdream": 1951,
      "Ġdomin": 1952,
      "alities": 1953,
      "Ġpic": 1954,
      "Ġpron": 1955,
      "Ġaver": 1956,
      "Ġack": 1957,
      "Ġampli": 1958,
      "Ġapolog": 1959,
      "Ġachie": 1960,
      "Ġrese": 1961,
      "Ġretra": 1962,
      "Ġredu": 1963,
      "Ġretri": 1964,
      "Ġrevis": 1965,
      "Ġrevolution": 1966,
      "orn": 1967,
      "orting": 1968,
      "orrow": 1969,
      "ung": 1970,
      "lected": 1971,
      "arted": 1972,
      "arts": 1973,
      "arding": 1974,
      "Ġmen": 1975,
      "Ġmal": 1976,
      "Ġinh": 1977,
      "Ġinac": 1978,
      "Ġinjec": 1979,
      "Ġinex": 1980,
      "Ġinvalid": 1981,
      "tative": 1982,
      "Ġfram": 1983,
      "Ġel": 1984,
      "Ġela": 1985,
      "Ġeig": 1986,
      "Ġeffic": 1987,
      "Ġtun": 1988,
      "rive": 1989,
      "Ġbl": 1990,
      "Ġbrow": 1991,
      "Ġoffic": 1992,
      "Ġosc": 1993,
      "Ġwal": 1994,
      "Ġwri": 1995,
      "Ġwan": 1996,
      "ects": 1997,
      "Ġcong": 1998,
      "Ġconv": 1999,
      "Ġconce": 2000,
      "Ġcongra": 2001,
      "Ġhon": 2002,
      "Ġhous": 2003,
      "Ġhack": 2004,
      "Ġhop": 2005,
      "sibly": 2006,
      "Ġgre": 2007,
      "Ġdee": 2008,
      "Ġdebu": 2009,
      "izations": 2010,
      "Ġnar": 2011,
      "Ġide": 2012,
      "Ġdistin": 2013,
      "Ġdiscrimin": 2014,
      "Ġexam": 2015,
      "Ġexci": 2016,
      "pper": 2017,
      "atal": 2018,
      "cker": 2019,
      "stream": 2020,
      "ades": 2021,
      "Ġprob": 2022,
      "Ġprog": 2023,
      "Ġprocess": 2024,
      "Ġenvi": 2025,
      "rand": 2026,
      "ctly": 2027,
      "poses": 2028,
      "tening": 2029,
      "owed": 2030,
      "Ġcompa": 2031,
      "Ġcomprehen": 2032,
      "Ġadd": 2033,
      "Ġadmi": 2034,
      "cili": 2035,
      "Ġoverc": 2036,
      "Ġactiv": 2037,
      "Ġaccess": 2038,
      "Ġchat": 2039,
      "Ġchip": 2040,
      "Ġthread": 2041,
      "fulness": 2042,
      "Ġdece": 2043,
      "Ġdecla": 2044,
      "Ġalign": 2045,
      "Ġaltern": 2046,
      "Ġque": 2047,
      "Ġquar": 2048,
      "coming": 2049,
      "Ġappreci": 2050,
      "ount": 2051,
      "Ġlet": 2052,
      "lude": 2053,
      "divid": 2054,
      "licated": 2055,
      "oking": 2056,
      "lessness": 2057,
      "Ġperform": 2058,
      "ront": 2059,
      "Ġhere": 2060,
      "tains": 2061,
      "Ġparam": 2062,
      "Ġabst": 2063,
      "Ġrefresh": 2064,
      "cribe": 2065,
      "buil": 2066,
      "Ġconfid": 2067,
      "Ġtake": 2068,
      "Ġsof": 2069,
      "Ġsoli": 2070,
      "Ġassoci": 2071,
      "ubs": 2072,
      "Ġorien": 2073,
      "Ġdefin": 2074,
      "atching": 2075,
      "atches": 2076,
      "here": 2077,
      "Ġcorrespon": 2078,
      "Ġindis": 2079,
      "loaded": 2080,
      "comple": 2081,
      "ample": 2082,
      "Ġphp": 2083,
      "Ġsubstitu": 2084,
      "gible": 2085,
      "ship": 2086,
      "Ġsmart": 2087,
      "force": 2088,
      "Ġreconstru": 2089,
      "Ġindex": 2090,
      "Ġapproxim": 2091,
      "code": 2092,
      "Ġengine": 2093,
      "rameteri": 2094,
      "Ġrandom": 2095,
      "Ġiso": 2096,
      "cribed": 2097,
      "200": 2098,
      "Ġaggreg": 2099,
      "Ġdiscontin": 2100,
      "ological": 2101,
      "Ġcollabo": 2102,
      "Ġinnov": 2103,
      "Ġparticip": 2104,
      "Ġcontemp": 2105,
      "Ġafter": 2106,
      "Ġquali": 2107,
      "Ġevery": 2108,
      "Ġadministra": 2109,
      "Ġnavig": 2110,
      "Ġacceler": 2111,
      "Ġillustra": 2112,
      "Ġacknowled": 2113,
      "Ġoscil": 2114,
      "'re": 2115,
      "ace": 2116,
      "atively": 2117,
      "bre": 2118,
      "cli": 2119,
      "ctable": 2120,
      "date": 2121,
      "fs": 2122,
      "function": 2123,
      "gent": 2124,
      "gate": 2125,
      "hel": 2126,
      "ied": 2127,
      "ilo": 2128,
      "ml": 2129,
      "oper": 2130,
      "put": 2131,
      "ral": 2132,
      "rust": 2133,
      "utes": 2134,
      "udi": 2135,
      "vc": 2136,
      "vity": 2137,
      "xi": 2138,
      "zz": 2139,
      "Ġ.": 2140,
      "Ġit": 2141,
      "Ġedu": 2142,
      "inc": 2143,
      "ination": 2144,
      "tely": 2145,
      "onic": 2146,
      "tice": 2147,
      "Ġsing": 2148,
      "Ġsla": 2149,
      "Ġsqu": 2150,
      "Ġstim": 2151,
      "estion": 2152,
      "esign": 2153,
      "Ġcu": 2154,
      "Ġcance": 2155,
      "Ġcrow": 2156,
      "Ġcraw": 2157,
      "ench": 2158,
      "ense": 2159,
      "Ġdb": 2160,
      "Ġdon": 2161,
      "Ġpal": 2162,
      "Ġpul": 2163,
      "Ġplu": 2164,
      "Ġpath": 2165,
      "Ġama": 2166,
      "Ġrear": 2167,
      "Ġremin": 2168,
      "Ġreview": 2169,
      "Ġreloc": 2170,
      "Ġrejo": 2171,
      "Ġrewri": 2172,
      "rative": 2173,
      "orre": 2174,
      "unds": 2175,
      "unded": 2176,
      "lection": 2177,
      "ises": 2178,
      "istically": 2179,
      "arly": 2180,
      "arning": 2181,
      "Ġment": 2182,
      "Ġmess": 2183,
      "Ġmate": 2184,
      "Ġmac": 2185,
      "Ġmuta": 2186,
      "Ġmix": 2187,
      "Ġinj": 2188,
      "Ġinvol": 2189,
      "tac": 2190,
      "rough": 2191,
      "Ġfli": 2192,
      "Ġfri": 2193,
      "Ġflex": 2194,
      "lized": 2195,
      "Ġelli": 2196,
      "Ġemer": 2197,
      "Ġevalu": 2198,
      "Ġunle": 2199,
      "Ġtot": 2200,
      "Ġtrun": 2201,
      "ries": 2202,
      "Ġblo": 2203,
      "Ġbus": 2204,
      "Ġbig": 2205,
      "Ġbet": 2206,
      "usion": 2207,
      "Ġwo": 2208,
      "Ġwra": 2209,
      "Ġword": 2210,
      "Ġconve": 2211,
      "Ġconfi": 2212,
      "Ġcondi": 2213,
      "Ġconcep": 2214,
      "Ġconcei": 2215,
      "Ġconsider": 2216,
      "Ġhas": 2217,
      "Ġhesi": 2218,
      "Ġgent": 2219,
      "Ġget": 2220,
      "Ġdel": 2221,
      "Ġdeal": 2222,
      "Ġdevelop": 2223,
      "Ġnomin": 2224,
      "mped": 2225,
      "mple": 2226,
      "Ġdissi": 2227,
      "Ġdistra": 2228,
      "Ġdistingu": 2229,
      "Ġexer": 2230,
      "Ġexce": 2231,
      "Ġexecu": 2232,
      "Ġsugg": 2233,
      "oled": 2234,
      "qual": 2235,
      "cket": 2236,
      "stall": 2237,
      "ading": 2238,
      "Ġprote": 2239,
      "Ġproto": 2240,
      "Ġende": 2241,
      "Ġenjo": 2242,
      "ells": 2243,
      "type": 2244,
      "posing": 2245,
      "ager": 2246,
      "oded": 2247,
      "Ġrecru": 2248,
      "Ġrecip": 2249,
      "mension": 2250,
      "ows": 2251,
      "thy": 2252,
      "Ġcompli": 2253,
      "Ġcompan": 2254,
      "Ġsubjec": 2255,
      "mentary": 2256,
      "Ġcover": 2257,
      "fiers": 2258,
      "fiable": 2259,
      "Ġaddi": 2260,
      "Ġadvis": 2261,
      "ciously": 2262,
      "Ġoverw": 2263,
      "Ġoverla": 2264,
      "bound": 2265,
      "Ġshap": 2266,
      "Ġthri": 2267,
      "Ġthought": 2268,
      "Ġanonym": 2269,
      "lining": 2270,
      "Ġjs": 2271,
      "Ġrepe": 2272,
      "Ġdecon": 2273,
      "Ġsearch": 2274,
      "Ġassemb": 2275,
      "tanding": 2276,
      "Ġweak": 2277,
      "Ġpoli": 2278,
      "Ġallow": 2279,
      "Ġalph": 2280,
      "Ġlaw": 2281,
      "Ġinterpo": 2282,
      "Ġinterrup": 2283,
      "Ġinterchan": 2284,
      "ird": 2285,
      "Ġlive": 2286,
      "ishes": 2287,
      "ework": 2288,
      "Ġexpla": 2289,
      "Ġmultic": 2290,
      "Ġappo": 2291,
      "ouch": 2292,
      "ounding": 2293,
      "ounded": 2294,
      "Ġleg": 2295,
      "Ġlem": 2296,
      "Ġlex": 2297,
      "ludes": 2298,
      "licate": 2299,
      "Ġscan": 2300,
      "Ġauthen": 2301,
      "Ġinser": 2302,
      "Ġinspi": 2303,
      "Ġmissp": 2304,
      "matically": 2305,
      "Ġarti": 2306,
      "Ġneut": 2307,
      "rong": 2308,
      "Ġdeser": 2309,
      "phones": 2310,
      "Ġbelie": 2311,
      "Ġattra": 2312,
      "ource": 2313,
      "Ġpart": 2314,
      "Ġparti": 2315,
      "Ġconso": 2316,
      "Ġconstitu": 2317,
      "ache": 2318,
      "lash": 2319,
      "Ġlen": 2320,
      "entially": 2321,
      "ynchron": 2322,
      "Ġasser": 2323,
      "gue": 2324,
      "Ġmodi": 2325,
      "Ġcommon": 2326,
      "Ġgraph": 2327,
      "ampled": 2328,
      "ampling": 2329,
      "Ġphot": 2330,
      "lusion": 2331,
      "lusive": 2332,
      "Ġmanu": 2333,
      "Ġencoura": 2334,
      "Ġfix": 2335,
      "Ġconcaten": 2336,
      "gitim": 2337,
      "rink": 2338,
      "chedul": 2339,
      "vices": 2340,
      "Ġgeom": 2341,
      "Ġentre": 2342,
      "Ġembed": 2343,
      "goti": 2344,
      "titude": 2345,
      "Ġfores": 2346,
      "signed": 2347,
      "Ġreprodu": 2348,
      "Ġcontradic": 2349,
      "Ġsummar": 2350,
      "quire": 2351,
      "Ġtechnolog": 2352,
      "Ġtens": 2353,
      "Ġdigit": 2354,
      "Ġmathe": 2355,
      "Ġpopular": 2356,
      "laimed": 2357,
      "Ġfulf": 2358,
      "Ġpropor": 2359,
      "Ġcompeti": 2360,
      "Ġstandard": 2361,
      "Ġsuccess": 2362,
      "Ġarchite": 2363,
      "Ġmodern": 2364,
      "Ġpleas": 2365,
      "Ġcheer": 2366,
      "Ġfollow": 2367,
      "Ġstruct": 2368,
      "Ġmemor": 2369,
      "Ġexemp": 2370,
      "Ġintrodu": 2371,
      "Ġbehavi": 2372,
      "Ġredistribu": 2373,
      "Ġdisagree": 2374,
      "Ġvirtu": 2375,
      "Ġcategor": 2376,
      "Ġcongrat": 2377,
      "Ġeduc": 2378,
      "Ġauthentic": 2379,
      "abo": 2380,
      "atable": 2381,
      "atis": 2382,
      "bar": 2383,
      "dk": 2384,
      "dle": 2385,
      "dent": 2386,
      "ek": 2387,
      "ever": 2388,
      "fram": 2389,
      "frame": 2390,
      "gated": 2391,
      "her": 2392,
      "ire": 2393,
      "ition": 2394,
      "ian": 2395,
      "iently": 2396,
      "nel": 2397,
      "ob": 2398,
      "ora": 2399,
      "oted": 2400,
      "oom": 2401,
      "pla": 2402,
      "pan": 2403,
      "pic": 2404,
      "pse": 2405,
      "pren": 2406,
      "page": 2407,
      "place": 2408,
      "sel": 2409,
      "tal": 2410,
      "tten": 2411,
      "tled": 2412,
      "uous": 2413,
      "utable": 2414,
      "vm": 2415,
      "vy": 2416,
      "vec": 2417,
      "word": 2418,
      "way": 2419,
      "zer": 2420,
      "Ġless": 2421,
      "Ġedi": 2422,
      "inting": 2423,
      "inform": 2424,
      "reen": 2425,
      "rely": 2426,
      "requ": 2427,
      "teen": 2428,
      "text": 2429,
      "oned": 2430,
      "tification": 2431,
      "erred": 2432,
      "erring": 2433,
      "Ġsn": 2434,
      "Ġsom": 2435,
      "Ġsit": 2436,
      "Ġsat": 2437,
      "Ġske": 2438,
      "ests": 2439,
      "Ġcred": 2440,
      "ended": 2441,
      "Ġdan": 2442,
      "Ġdyn": 2443,
      "Ġdash": 2444,
      "Ġdocu": 2445,
      "Ġpra": 2446,
      "Ġpit": 2447,
      "Ġpip": 2448,
      "Ġpurs": 2449,
      "Ġpix": 2450,
      "Ġav": 2451,
      "Ġava": 2452,
      "Ġagi": 2453,
      "Ġreta": 2454,
      "Ġreve": 2455,
      "Ġrejec": 2456,
      "Ġreins": 2457,
      "Ġreme": 2458,
      "Ġrecei": 2459,
      "Ġredire": 2460,
      "rained": 2461,
      "unt": 2462,
      "leb": 2463,
      "lects": 2464,
      "lecting": 2465,
      "ism": 2466,
      "ision": 2467,
      "Ġmom": 2468,
      "Ġmig": 2469,
      "Ġmeth": 2470,
      "Ġinsi": 2471,
      "Ġinvi": 2472,
      "Ġincom": 2473,
      "Ġinven": 2474,
      "Ġinstal": 2475,
      "roper": 2476,
      "lati": 2477,
      "Ġfu": 2478,
      "Ġfal": 2479,
      "Ġfir": 2480,
      "Ġfoc": 2481,
      "Ġfund": 2482,
      "Ġeven": 2483,
      "Ġejec": 2484,
      "Ġevol": 2485,
      "Ġevid": 2486,
      "Ġunit": 2487,
      "Ġunpro": 2488,
      "Ġuncomp": 2489,
      "Ġtol": 2490,
      "Ġban": 2491,
      "Ġbas": 2492,
      "Ġbat": 2493,
      "Ġbran": 2494,
      "Ġbot": 2495,
      "lous": 2496,
      "Ġove": 2497,
      "Ġwit": 2498,
      "Ġwret": 2499,
      "tings": 2500,
      "tingly": 2501,
      "echan": 2502,
      "Ġcontribu": 2503,
      "Ġconsequ": 2504,
      "Ġhur": 2505,
      "Ġhands": 2506,
      "ason": 2507,
      "Ġgrow": 2508,
      "Ġgrie": 2509,
      "essing": 2510,
      "Ġdevi": 2511,
      "Ġdepen": 2512,
      "Ġdepend": 2513,
      "izable": 2514,
      "Ġnec": 2515,
      "Ġip": 2516,
      "Ġdisg": 2517,
      "Ġdist": 2518,
      "Ġdistor": 2519,
      "Ġdismis": 2520,
      "Ġext": 2521,
      "Ġexec": 2522,
      "Ġexcep": 2523,
      "Ġsuffic": 2524,
      "Ġsupers": 2525,
      "ols": 2526,
      "oling": 2527,
      "Ġpromp": 2528,
      "Ġpromo": 2529,
      "Ġprovid": 2530,
      "etry": 2531,
      "Ġvan": 2532,
      "Ġenl": 2533,
      "rang": 2534,
      "ctors": 2535,
      "elt": 2536,
      "elled": 2537,
      "iding": 2538,
      "tent": 2539,
      "teness": 2540,
      "Ġstren": 2541,
      "Ġstart": 2542,
      "aming": 2543,
      "Ġrecur": 2544,
      "Ġrecol": 2545,
      "Ġrecyc": 2546,
      "Ġrecogn": 2547,
      "thread": 2548,
      "Ġspli": 2549,
      "Ġspread": 2550,
      "Ġcompens": 2551,
      "Ġcomplex": 2552,
      "Ġsubc": 2553,
      "Ġsubtra": 2554,
      "Ġcolo": 2555,
      "Ġcopy": 2556,
      "Ġcoordin": 2557,
      "Ġcooper": 2558,
      "file": 2559,
      "Ġado": 2560,
      "Ġadop": 2561,
      "Ġdivis": 2562,
      "Ġoverse": 2563,
      "Ġoverhe": 2564,
      "Ġpreten": 2565,
      "Ġpreced": 2566,
      "Ġprepa": 2567,
      "Ġpreprocess": 2568,
      "Ġaccep": 2569,
      "Ġshor": 2570,
      "Ġshar": 2571,
      "Ġshad": 2572,
      "aper": 2573,
      "Ġthre": 2574,
      "Ġthrow": 2575,
      "Ġresc": 2576,
      "Ġresh": 2577,
      "Ġreser": 2578,
      "link": 2579,
      "Ġimpa": 2580,
      "Ġimper": 2581,
      "Ġimpos": 2582,
      "ulators": 2583,
      "Ġload": 2584,
      "Ġlook": 2585,
      "Ġlocal": 2586,
      "tane": 2587,
      "ghts": 2588,
      "Ġtest": 2589,
      "rent": 2590,
      "aces": 2591,
      "acity": 2592,
      "Ġlat": 2593,
      "Ġlabo": 2594,
      "Ġinters": 2595,
      "Ġinterview": 2596,
      "Ġlif": 2597,
      "Ġlike": 2598,
      "Ġlight": 2599,
      "Ġlimi": 2600,
      "rams": 2601,
      "forming": 2602,
      "connec": 2603,
      "Ġmultim": 2604,
      "outs": 2605,
      "ounting": 2606,
      "Ġlever": 2607,
      "Ġlearn": 2608,
      "luc": 2609,
      "lications": 2610,
      "okes": 2611,
      "Ġautoc": 2612,
      "tures": 2613,
      "Ġinspec": 2614,
      "Ġmisc": 2615,
      "Ġmiscon": 2616,
      "Ġface": 2617,
      "Ġfacili": 2618,
      "Ġperp": 2619,
      "Ġinfring": 2620,
      "Ġnegoti": 2621,
      "ctional": 2622,
      "gger": 2623,
      "mode": 2624,
      "rying": 2625,
      "Ġwhi": 2626,
      "phone": 2627,
      "tainable": 2628,
      "Ġbeau": 2629,
      "Ġbegin": 2630,
      "akes": 2631,
      "Ġtrain": 2632,
      "Ġtrade": 2633,
      "Ġras": 2634,
      "aches": 2635,
      "vals": 2636,
      "Ġconfig": 2637,
      "Ġlisten": 2638,
      "Ġlong": 2639,
      "Ġsoft": 2640,
      "mised": 2641,
      "missions": 2642,
      "Ġintel": 2643,
      "Ġintelli": 2644,
      "Ġinteroper": 2645,
      "Ġassis": 2646,
      "Ġbook": 2647,
      "Ġboots": 2648,
      "gues": 2649,
      "Ġker": 2650,
      "Ġris": 2651,
      "Ġdisclo": 2652,
      "Ġdiscus": 2653,
      "Ġplan": 2654,
      "Ġplain": 2655,
      "agement": 2656,
      "Ġcommer": 2657,
      "heet": 2658,
      "Ġmind": 2659,
      "Ġui": 2660,
      "Ġuint": 2661,
      "caling": 2662,
      "Ġvib": 2663,
      "Ġvio": 2664,
      "locks": 2665,
      "locked": 2666,
      "Ġfeed": 2667,
      "Ġworks": 2668,
      "Ġconcent": 2669,
      "Ġmicros": 2670,
      "mitting": 2671,
      "Ġestablish": 2672,
      "Ġveri": 2673,
      "Ġawa": 2674,
      "Ġempow": 2675,
      "Ġsynthes": 2676,
      "Ġinvari": 2677,
      "Ġwave": 2678,
      "ither": 2679,
      "Ġrenew": 2680,
      "Ġreconf": 2681,
      "Ġreconnec": 2682,
      "Ġcounte": 2683,
      "going": 2684,
      "Ġsimp": 2685,
      "Ġside": 2686,
      "Ġtype": 2687,
      "Ġdeliver": 2688,
      "positions": 2689,
      "marks": 2690,
      "Ġbuil": 2691,
      "Ġworth": 2692,
      "Ġitem": 2693,
      "Ġanalog": 2694,
      "Ġsket": 2695,
      "Ġcyc": 2696,
      "Ġirri": 2697,
      "hood": 2698,
      "Ġaug": 2699,
      "Ġextrapo": 2700,
      "Ġoccup": 2701,
      "Ġdigiti": 2702,
      "Ġgoog": 2703,
      "cribes": 2704,
      "Ġsym": 2705,
      "Ġgroup": 2706,
      "201": 2707,
      "Ġdisconnec": 2708,
      "urity": 2709,
      "Ġclari": 2710,
      "Ġagree": 2711,
      "Ġdiagon": 2712,
      "Ġinstanti": 2713,
      "Ġparticular": 2714,
      "Ġelimin": 2715,
      "Ġdisappo": 2716,
      "iliar": 2717,
      "ographic": 2718,
      "Ġpractic": 2719,
      "Ġmagni": 2720,
      "Ġsche": 2721,
      "Ġprincip": 2722,
      "Ġadverti": 2723,
      "Ġterri": 2724,
      "Ġpublish": 2725,
      "Ġaston": 2726,
      "Ġblack": 2727,
      "Ġglob": 2728,
      "Ġallevi": 2729,
      "Ġpower": 2730,
      "Ġtroub": 2731,
      "Ġcontainer": 2732,
      "Ġaccomplish": 2733,
      "Ġexponenti": 2734,
      "Ġsmooth": 2735,
      "Ġannoun": 2736,
      "Ġswitch": 2737,
      "Ġprioriti": 2738,
      "body": 2739,
      "Ġdedic": 2740,
      "Ġpronoun": 2741,
      "Ġretrie": 2742,
      "Ġeigen": 2743,
      "Ġhouse": 2744,
      "Ġnarrow": 2745,
      "Ġmateri": 2746,
      "Ġconfir": 2747,
      "Ġgentle": 2748,
      "Ġendeav": 2749,
      "Ġlemmati": 2750,
      "Ġneutr": 2751,
      "Ġmanufact": 2752,
      "Ġtensor": 2753,
      "prene": 2754,
      "Ġdynam": 2755,
      "Ġrememb": 2756,
      "Ġoverestim": 2757,
      "16": 2758,
      "aul": 2759,
      "ares": 2760,
      "aut": 2761,
      "aff": 2762,
      "asion": 2763,
      "atives": 2764,
      "afe": 2765,
      "abilities": 2766,
      "bra": 2767,
      "base": 2768,
      "cti": 2769,
      "cend": 2770,
      "dden": 2771,
      "fus": 2772,
      "fore": 2773,
      "gb": 2774,
      "gates": 2775,
      "grid": 2776,
      "hing": 2777,
      "hash": 2778,
      "hold": 2779,
      "held": 2780,
      "ior": 2781,
      "iest": 2782,
      "ibility": 2783,
      "ibly": 2784,
      "itable": 2785,
      "iously": 2786,
      "lut": 2787,
      "llable": 2788,
      "mn": 2789,
      "mas": 2790,
      "medi": 2791,
      "nos": 2792,
      "nings": 2793,
      "osi": 2794,
      "oid": 2795,
      "pri": 2796,
      "plus": 2797,
      "rs": 2798,
      "rins": 2799,
      "ruth": 2800,
      "tt": 2801,
      "tun": 2802,
      "tles": 2803,
      "ule": 2804,
      "uter": 2805,
      "ulous": 2806,
      "vations": 2807,
      "vance": 2808,
      "Ġ3": 2809,
      "Ġom": 2810,
      "Ġess": 2811,
      "reo": 2812,
      "tee": 2813,
      "tep": 2814,
      "tech": 2815,
      "temp": 2816,
      "teful": 2817,
      "tially": 2818,
      "tifications": 2819,
      "erarch": 2820,
      "error": 2821,
      "Ġsv": 2822,
      "Ġsens": 2823,
      "Ġself": 2824,
      "Ġschedul": 2825,
      "essi": 2826,
      "Ġcen": 2827,
      "Ġcam": 2828,
      "Ġclu": 2829,
      "Ġcall": 2830,
      "Ġcamp": 2831,
      "Ġclus": 2832,
      "Ġclass": 2833,
      "Ġcatal": 2834,
      "ede": 2835,
      "enc": 2836,
      "eng": 2837,
      "enet": 2838,
      "enced": 2839,
      "encies": 2840,
      "Ġdro": 2841,
      "Ġdic": 2842,
      "Ġdrop": 2843,
      "alled": 2844,
      "allow": 2845,
      "Ġpol": 2846,
      "Ġpat": 2847,
      "Ġamp": 2848,
      "Ġaim": 2849,
      "Ġamb": 2850,
      "Ġavo": 2851,
      "Ġreti": 2852,
      "Ġreor": 2853,
      "Ġrede": 2854,
      "Ġrelin": 2855,
      "Ġrevi": 2856,
      "Ġreim": 2857,
      "Ġreno": 2858,
      "Ġretur": 2859,
      "Ġrepos": 2860,
      "Ġredef": 2861,
      "rain": 2862,
      "rability": 2863,
      "raction": 2864,
      "ratively": 2865,
      "orpo": 2866,
      "unding": 2867,
      "istor": 2868,
      "arse": 2869,
      "Ġms": 2870,
      "Ġmed": 2871,
      "Ġmus": 2872,
      "Ġmil": 2873,
      "Ġmir": 2874,
      "Ġmys": 2875,
      "Ġmiti": 2876,
      "Ġmust": 2877,
      "Ġmvc": 2878,
      "Ġmechan": 2879,
      "Ġintim": 2880,
      "Ġinqui": 2881,
      "Ġindivid": 2882,
      "take": 2883,
      "tages": 2884,
      "ros": 2885,
      "roid": 2886,
      "laying": 2887,
      "Ġfrus": 2888,
      "Ġfound": 2889,
      "Ġfond": 2890,
      "liest": 2891,
      "like": 2892,
      "light": 2893,
      "lize": 2894,
      "Ġep": 2895,
      "Ġemo": 2896,
      "Ġearn": 2897,
      "Ġunk": 2898,
      "Ġunres": 2899,
      "Ġunat": 2900,
      "Ġunse": 2901,
      "Ġunreg": 2902,
      "Ġunco": 2903,
      "tedly": 2904,
      "Ġtren": 2905,
      "Ġtop": 2906,
      "ried": 2907,
      "Ġbec": 2908,
      "Ġbench": 2909,
      "ants": 2910,
      "ancing": 2911,
      "antage": 2912,
      "usted": 2913,
      "Ġof": 2914,
      "Ġodd": 2915,
      "Ġwel": 2916,
      "Ġwatch": 2917,
      "ecla": 2918,
      "ecks": 2919,
      "Ġconta": 2920,
      "Ġconvol": 2921,
      "Ġconvers": 2922,
      "Ġhun": 2923,
      "Ġhol": 2924,
      "Ġhow": 2925,
      "Ġhos": 2926,
      "Ġhot": 2927,
      "itted": 2928,
      "verse": 2929,
      "sized": 2930,
      "cept": 2931,
      "teral": 2932,
      "Ġgi": 2933,
      "Ġgig": 2934,
      "Ġgover": 2935,
      "Ġdeb": 2936,
      "Ġdead": 2937,
      "Ġdegra": 2938,
      "Ġdevo": 2939,
      "Ġner": 2940,
      "Ġnan": 2941,
      "urred": 2942,
      "Ġil": 2943,
      "Ġimb": 2944,
      "Ġimi": 2945,
      "Ġdistur": 2946,
      "Ġexag": 2947,
      "Ġexchan": 2948,
      "Ġexceed": 2949,
      "query": 2950,
      "erson": 2951,
      "illa": 2952,
      "determin": 2953,
      "str": 2954,
      "Ġproc": 2955,
      "Ġproof": 2956,
      "Ġproceed": 2957,
      "Ġprospec": 2958,
      "etly": 2959,
      "Ġvul": 2960,
      "Ġvent": 2961,
      "Ġvac": 2962,
      "Ġenri": 2963,
      "rances": 2964,
      "cture": 2965,
      "ticip": 2966,
      "pow": 2967,
      "odi": 2968,
      "Ġstar": 2969,
      "Ġstrate": 2970,
      "Ġstret": 2971,
      "Ġstudi": 2972,
      "ames": 2973,
      "Ġrecre": 2974,
      "Ġrecover": 2975,
      "Ġreclassi": 2976,
      "Ġrecurren": 2977,
      "the": 2978,
      "Ġspons": 2979,
      "Ġsubt": 2980,
      "Ġcool": 2981,
      "Ġcoinc": 2982,
      "alizer": 2983,
      "alizations": 2984,
      "cial": 2985,
      "cience": 2986,
      "Ġdivid": 2987,
      "Ġdimension": 2988,
      "Ġprecon": 2989,
      "Ġpreven": 2990,
      "Ġpreview": 2991,
      "boards": 2992,
      "Ġshe": 2993,
      "Ġshut": 2994,
      "Ġshare": 2995,
      "Ġchro": 2996,
      "api": 2997,
      "Ġthin": 2998,
      "Ġresur": 2999,
      "Ġresum": 3000,
      "Ġand": 3001,
      "Ġans": 3002,
      "Ġanticip": 3003,
      "dering": 3004,
      "Ġjump": 3005,
      "Ġimpor": 3006,
      "Ġimperson": 3007,
      "Ġdecent": 3008,
      "Ġseed": 3009,
      "Ġsemic": 3010,
      "Ġasy": 3011,
      "Ġaspi": 3012,
      "Ġascer": 3013,
      "tances": 3014,
      "gement": 3015,
      "ghted": 3016,
      "nesses": 3017,
      "Ġalgor": 3018,
      "Ġlaun": 3019,
      "Ġlaugh": 3020,
      "Ġinterf": 3021,
      "Ġinterven": 3022,
      "Ġinterconnec": 3023,
      "Ġqui": 3024,
      "Ġliber": 3025,
      "Ġlife": 3026,
      "Ġexpan": 3027,
      "Ġexpedi": 3028,
      "Ġapprehen": 3029,
      "ough": 3030,
      "ounted": 3031,
      "ounts": 3032,
      "ounds": 3033,
      "Ġlead": 3034,
      "Ġleak": 3035,
      "Ġlegitim": 3036,
      "tivated": 3037,
      "Ġscri": 3038,
      "Ġscop": 3039,
      "Ġautos": 3040,
      "Ġautog": 3041,
      "Ġobvi": 3042,
      "Ġobfus": 3043,
      "oph": 3044,
      "Ġart": 3045,
      "Ġupli": 3046,
      "Ġupgra": 3047,
      "most": 3048,
      "Ġdesi": 3049,
      "Ġdeseri": 3050,
      "Ġwhat": 3051,
      "Ġaband": 3052,
      "Ġattribu": 3053,
      "Ġmeg": 3054,
      "veness": 3055,
      "Ġwebp": 3056,
      "Ġstaff": 3057,
      "Ġstabili": 3058,
      "Ġconsum": 3059,
      "Ġrap": 3060,
      "Ġmother": 3061,
      "achable": 3062,
      "valent": 3063,
      "Ġcold": 3064,
      "Ġcolor": 3065,
      "Ġconfigu": 3066,
      "unders": 3067,
      "Ġmaj": 3068,
      "Ġmail": 3069,
      "Ġmake": 3070,
      "Ġunsubs": 3071,
      "Ġoutli": 3072,
      "Ġtab": 3073,
      "Ġsole": 3074,
      "Ġsolicit": 3075,
      "Ġregis": 3076,
      "Ġnote": 3077,
      "ync": 3078,
      "Ġinteg": 3079,
      "erences": 3080,
      "Ġboot": 3081,
      "Ġkind": 3082,
      "Ġknow": 3083,
      "Ġincorpo": 3084,
      "Ġdiscer": 3085,
      "Ġdiscover": 3086,
      "Ġplat": 3087,
      "itely": 3088,
      "Ġgradu": 3089,
      "vably": 3090,
      "Ġmini": 3091,
      "Ġaccent": 3092,
      "Ġcorpo": 3093,
      "Ġcorrup": 3094,
      "Ġindul": 3095,
      "loader": 3096,
      "allen": 3097,
      "aby": 3098,
      "ableness": 3099,
      "mits": 3100,
      "Ġupper": 3101,
      "ortun": 3102,
      "Ġdeploy": 3103,
      "Ġdepreci": 3104,
      "Ġdeprec": 3105,
      "Ġphra": 3106,
      "Ġphys": 3107,
      "lang": 3108,
      "Ġthey": 3109,
      "Ġtheore": 3110,
      "Ġnons": 3111,
      "Ġaffir": 3112,
      "Ġbacks": 3113,
      "Ġenclo": 3114,
      "Ġencaps": 3115,
      "Ġencryp": 3116,
      "service": 3117,
      "Ġyi": 3118,
      "Ġyou": 3119,
      "Ġfile": 3120,
      "Ġsubstan": 3121,
      "Ġequip": 3122,
      "Ġuse": 3123,
      "Ġstead": 3124,
      "Ġpreser": 3125,
      "Ġpresum": 3126,
      "Ġescal": 3127,
      "Ġempha": 3128,
      "Ġdowns": 3129,
      "Ġsmar": 3130,
      "Ġsmall": 3131,
      "Ġinvest": 3132,
      "Ġspecial": 3133,
      "Ġspecific": 3134,
      "Ġcalib": 3135,
      "Ġwater": 3136,
      "ithm": 3137,
      "Ġflaw": 3138,
      "Ġcount": 3139,
      "Ġcounter": 3140,
      "Ġsimpli": 3141,
      "Ġrestri": 3142,
      "Ġdeliber": 3143,
      "marked": 3144,
      "Ġcloud": 3145,
      "Ġambi": 3146,
      "Ġrecomp": 3147,
      "Ġrecommend": 3148,
      "iency": 3149,
      "Ġpython": 3150,
      "Ġtwe": 3151,
      "istence": 3152,
      "works": 3153,
      "Ġirres": 3154,
      "Ġtechn": 3155,
      "Ġdeno": 3156,
      "Ġintensi": 3157,
      "Ġwarm": 3158,
      "Ġiss": 3159,
      "Ġsigni": 3160,
      "Ġincons": 3161,
      "Ġgood": 3162,
      "structure": 3163,
      "Ġsymm": 3164,
      "Ġserver": 3165,
      "Ġcodes": 3166,
      "Ġpenet": 3167,
      "Ġmatri": 3168,
      "Ġoperation": 3169,
      "Ġground": 3170,
      "ystem": 3171,
      "Ġjoy": 3172,
      "backs": 3173,
      "Ġzer": 3174,
      "Ġzoom": 3175,
      "Ġfull": 3176,
      "Ġelectron": 3177,
      "Ġprofession": 3178,
      "Ġpropag": 3179,
      "Ġacquain": 3180,
      "charged": 3181,
      "Ġdiagnos": 3182,
      "Ġcritic": 3183,
      "Ġreason": 3184,
      "Ġtouch": 3185,
      "Ġhierarch": 3186,
      "Ġarchi": 3187,
      "Ġpracti": 3188,
      "Ġbyte": 3189,
      "Ġlangu": 3190,
      "cription": 3191,
      "Ġeffec": 3192,
      "Ġcontinu": 3193,
      "Ġdiscreti": 3194,
      "Ġtypes": 3195,
      "Ġceleb": 3196,
      "Ġcross": 3197,
      "Ġcentr": 3198,
      "Ġunderestim": 3199,
      "Ġcombin": 3200,
      "Ġchange": 3201,
      "Ġinternation": 3202,
      "Ġfrag": 3203,
      "Ġfamiliar": 3204,
      "Ġconju": 3205,
      "Ġigno": 3206,
      "semble": 3207,
      "Ġneighb": 3208,
      "Ġneighbo": 3209,
      "Ġrecalc": 3210,
      "controll": 3211,
      "Ġhypothes": 3212,
      "Ġcharacteri": 3213,
      "Ġultra": 3214,
      "Ġresearch": 3215,
      "Ġinheri": 3216,
      "Ġelabo": 3217,
      "Ġenviron": 3218,
      "Ġquarre": 3219,
      "Ġabstrac": 3220,
      "Ġtrunc": 3221,
      "Ġdissip": 3222,
      "Ġprototyp": 3223,
      "Ġoverwhel": 3224,
      "Ġalphab": 3225,
      "Ġconsolid": 3226,
      "Ġlength": 3227,
      "Ġmoment": 3228,
      "Ġmethod": 3229,
      "Ġtoler": 3230,
      "Ġstrength": 3231,
      "Ġmisclassi": 3232,
      "Ġrasteri": 3233,
      "Ġbootstra": 3234,
      "Ġambigu": 3235,
      "Ġfrustra": 3236,
      "Ġexagger": 3237,
      "Ġstrateg": 3238,
      "Ġobfusc": 3239,
      "ata": 3240,
      "aran": 3241,
      "ake": 3242,
      "ativity": 3243,
      "ault": 3244,
      "bing": 3245,
      "bed": 3246,
      "bation": 3247,
      "bers": 3248,
      "bling": 3249,
      "bric": 3250,
      "bigu": 3251,
      "ca": 3252,
      "case": 3253,
      "din": 3254,
      "dence": 3255,
      "draw": 3256,
      "drive": 3257,
      "eq": 3258,
      "ele": 3259,
      "ear": 3260,
      "eting": 3261,
      "eper": 3262,
      "elect": 3263,
      "gation": 3264,
      "grow": 3265,
      "gpt": 3266,
      "gonom": 3267,
      "has": 3268,
      "how": 3269,
      "iri": 3270,
      "itive": 3271,
      "itions": 3272,
      "ipped": 3273,
      "imple": 3274,
      "jud": 3275,
      "kill": 3276,
      "lers": 3277,
      "lists": 3278,
      "my": 3279,
      "mes": 3280,
      "mal": 3281,
      "norm": 3282,
      "nns": 3283,
      "oli": 3284,
      "ores": 3285,
      "oop": 3286,
      "pc": 3287,
      "pg": 3288,
      "pin": 3289,
      "ply": 3290,
      "plo": 3291,
      "pres": 3292,
      "port": 3293,
      "puts": 3294,
      "ploy": 3295,
      "rise": 3296,
      "sts": 3297,
      "sity": 3298,
      "sure": 3299,
      "tru": 3300,
      "ttle": 3301,
      "ui": 3302,
      "ution": 3303,
      "uit": 3304,
      "uzz": 3305,
      "vate": 3306,
      "vil": 3307,
      "vous": 3308,
      "vant": 3309,
      "ways": 3310,
      "xing": 3311,
      "Ġic": 3312,
      "Ġtable": 3313,
      "Ġvers": 3314,
      "Ġtang": 3315,
      "iny": 3316,
      "inte": 3317,
      "inds": 3318,
      "inding": 3319,
      "rees": 3320,
      "tex": 3321,
      "tead": 3322,
      "onent": 3323,
      "eran": 3324,
      "eration": 3325,
      "Ġsd": 3326,
      "Ġsal": 3327,
      "Ġsig": 3328,
      "Ġsour": 3329,
      "Ġsite": 3330,
      "Ġsni": 3331,
      "Ġsnow": 3332,
      "Ġsql": 3333,
      "escap": 3334,
      "Ġcla": 3335,
      "Ġcut": 3336,
      "Ġcru": 3337,
      "Ġcand": 3338,
      "Ġcell": 3339,
      "Ġcrus": 3340,
      "Ġcurren": 3341,
      "edly": 3342,
      "enting": 3343,
      "Ġdd": 3344,
      "Ġdom": 3345,
      "Ġdate": 3346,
      "Ġdam": 3347,
      "Ġdot": 3348,
      "Ġdark": 3349,
      "Ġdump": 3350,
      "alth": 3351,
      "alls": 3352,
      "allan": 3353,
      "alanced": 3354,
      "Ġpin": 3355,
      "Ġpus": 3356,
      "Ġpag": 3357,
      "Ġpion": 3358,
      "Ġpiti": 3359,
      "Ġpage": 3360,
      "Ġport": 3361,
      "Ġprun": 3362,
      "Ġpick": 3363,
      "Ġpecu": 3364,
      "Ġpuzz": 3365,
      "Ġari": 3366,
      "Ġaxi": 3367,
      "Ġrew": 3368,
      "Ġreun": 3369,
      "Ġreck": 3370,
      "Ġreth": 3371,
      "Ġrebo": 3372,
      "Ġreop": 3373,
      "Ġrebu": 3374,
      "Ġreapp": 3375,
      "Ġreite": 3376,
      "Ġreact": 3377,
      "Ġreass": 3378,
      "Ġresemb": 3379,
      "Ġrequire": 3380,
      "Ġrehash": 3381,
      "Ġreimple": 3382,
      "rage": 3383,
      "rary": 3384,
      "rators": 3385,
      "ording": 3386,
      "ordered": 3387,
      "tionary": 3388,
      "unk": 3389,
      "lead": 3390,
      "lections": 3391,
      "istics": 3392,
      "arra": 3393,
      "Ġmut": 3394,
      "Ġmach": 3395,
      "Ġmatch": 3396,
      "Ġmild": 3397,
      "Ġinad": 3398,
      "Ġintra": 3399,
      "Ġintu": 3400,
      "Ġincomple": 3401,
      "Ġinstall": 3402,
      "tatively": 3403,
      "taken": 3404,
      "rom": 3405,
      "laced": 3406,
      "lator": 3407,
      "label": 3408,
      "Ġfle": 3409,
      "Ġfig": 3410,
      "Ġfet": 3411,
      "Ġfid": 3412,
      "Ġfru": 3413,
      "Ġfork": 3414,
      "Ġflus": 3415,
      "Ġfold": 3416,
      "Ġfresh": 3417,
      "liance": 3418,
      "lizes": 3419,
      "Ġev": 3420,
      "Ġecon": 3421,
      "Ġema": 3422,
      "Ġeva": 3423,
      "Ġevic": 3424,
      "Ġetern": 3425,
      "Ġevent": 3426,
      "Ġunra": 3427,
      "Ġunve": 3428,
      "Ġunqu": 3429,
      "Ġungra": 3430,
      "Ġunpa": 3431,
      "oming": 3432,
      "omen": 3433,
      "Ġton": 3434,
      "Ġtru": 3435,
      "Ġtree": 3436,
      "Ġtrus": 3437,
      "Ġbri": 3438,
      "Ġbel": 3439,
      "Ġbless": 3440,
      "Ġblow": 3441,
      "Ġbund": 3442,
      "Ġbrus": 3443,
      "Ġbound": 3444,
      "Ġblen": 3445,
      "Ġbrie": 3446,
      "Ġborrow": 3447,
      "ane": 3448,
      "ancy": 3449,
      "look": 3450,
      "usable": 3451,
      "ustri": 3452,
      "Ġos": 3453,
      "Ġwed": 3454,
      "Ġwrong": 3455,
      "ece": 3456,
      "ections": 3457,
      "ices": 3458,
      "Ġconqu": 3459,
      "Ġconform": 3460,
      "Ġconjec": 3461,
      "vement": 3462,
      "Ġhal": 3463,
      "Ġhan": 3464,
      "Ġhad": 3465,
      "itors": 3466,
      "ulus": 3467,
      "site": 3468,
      "tery": 3469,
      "cho": 3470,
      "check": 3471,
      "assed": 3472,
      "asure": 3473,
      "asses": 3474,
      "Ġga": 3475,
      "Ġgl": 3476,
      "Ġgle": 3477,
      "Ġgli": 3478,
      "Ġgran": 3479,
      "Ġgram": 3480,
      "Ġgot": 3481,
      "Ġglan": 3482,
      "Ġgain": 3483,
      "esses": 3484,
      "Ġdeg": 3485,
      "Ġdeac": 3486,
      "Ġdeform": 3487,
      "Ġdevol": 3488,
      "Ġdeque": 3489,
      "Ġnic": 3490,
      "Ġnow": 3491,
      "Ġnot": 3492,
      "Ġnone": 3493,
      "ury": 3494,
      "urring": 3495,
      "Ġif": 3496,
      "Ġios": 3497,
      "Ġdisti": 3498,
      "Ġdisas": 3499,
      "Ġdispen": 3500,
      "Ġdispro": 3501,
      "Ġdisreg": 3502,
      "Ġdisjo": 3503,
      "Ġdisallow": 3504,
      "Ġexpo": 3505,
      "Ġexha": 3506,
      "Ġextern": 3507,
      "Ġexhibi": 3508,
      "oles": 3509,
      "olish": 3510,
      "atures": 3511,
      "iler": 3512,
      "depend": 3513,
      "utor": 3514,
      "cky": 3515,
      "ckable": 3516,
      "ckets": 3517,
      "stly": 3518,
      "Ġcommen": 3519,
      "Ġcomfor": 3520,
      "Ġcomposi": 3521,
      "Ġprol": 3522,
      "Ġproper": 3523,
      "Ġproced": 3524,
      "Ġpromis": 3525,
      "Ġprovision": 3526,
      "Ġprohibi": 3527,
      "Ġvb": 3528,
      "Ġvag": 3529,
      "Ġvgg": 3530,
      "Ġvue": 3531,
      "Ġvouch": 3532,
      "Ġenh": 3533,
      "Ġenta": 3534,
      "Ġenroll": 3535,
      "Ġenhan": 3536,
      "rank": 3537,
      "ctual": 3538,
      "elves": 3539,
      "eline": 3540,
      "upid": 3541,
      "idden": 3542,
      "Ġstud": 3543,
      "Ġstory": 3544,
      "Ġstupid": 3545,
      "amed": 3546,
      "ament": 3547,
      "ambigu": 3548,
      "thing": 3549,
      "thme": 3550,
      "Ġcompro": 3551,
      "Ġsubsequ": 3552,
      "mentally": 3553,
      "Ġcopi": 3554,
      "Ġcovari": 3555,
      "fits": 3556,
      "field": 3557,
      "Ġadjo": 3558,
      "Ġdimin": 3559,
      "Ġoverri": 3560,
      "Ġoversi": 3561,
      "Ġovercom": 3562,
      "Ġoverview": 3563,
      "Ġoversh": 3564,
      "Ġoverflow": 3565,
      "Ġoverwri": 3566,
      "Ġprefi": 3567,
      "Ġpretra": 3568,
      "Ġpreva": 3569,
      "bolic": 3570,
      "Ġaction": 3571,
      "Ġaccomm": 3572,
      "Ġshuff": 3573,
      "Ġchallen": 3574,
      "Ġthat": 3575,
      "Ġthrough": 3576,
      "Ġreson": 3577,
      "Ġresul": 3578,
      "umin": 3579,
      "times": 3580,
      "liness": 3581,
      "Ġjour": 3582,
      "Ġrepur": 3583,
      "Ġrepack": 3584,
      "Ġrepea": 3585,
      "Ġreplace": 3586,
      "Ġdecep": 3587,
      "Ġdeclassi": 3588,
      "Ġdecryp": 3589,
      "Ġloop": 3590,
      "Ġassign": 3591,
      "tants": 3592,
      "tancy": 3593,
      "tantly": 3594,
      "gets": 3595,
      "gements": 3596,
      "vile": 3597,
      "Ġtextu": 3598,
      "Ġweird": 3599,
      "Ġpoten": 3600,
      "orship": 3601,
      "Ġali": 3602,
      "Ġalar": 3603,
      "acing": 3604,
      "acted": 3605,
      "acts": 3606,
      "Ġlab": 3607,
      "Ġlabel": 3608,
      "Ġinterle": 3609,
      "Ġquestion": 3610,
      "mind": 3611,
      "Ġlite": 3612,
      "Ġligh": 3613,
      "Ġlicen": 3614,
      "Ġlivec": 3615,
      "Ġexpi": 3616,
      "Ġexpen": 3617,
      "Ġexpec": 3618,
      "Ġexpres": 3619,
      "ipher": 3620,
      "oured": 3621,
      "Ġtransdu": 3622,
      "tivate": 3623,
      "tivating": 3624,
      "luding": 3625,
      "dious": 3626,
      "licity": 3627,
      "licates": 3628,
      "Ġscat": 3629,
      "Ġscroll": 3630,
      "Ġautonom": 3631,
      "Ġobe": 3632,
      "Ġobsc": 3633,
      "Ġobso": 3634,
      "tual": 3635,
      "Ġinsen": 3636,
      "Ġinstig": 3637,
      "Ġmism": 3638,
      "Ġmiss": 3639,
      "Ġmisbe": 3640,
      "Ġmisinter": 3641,
      "Ġmisunders": 3642,
      "Ġfail": 3643,
      "Ġfatigu": 3644,
      "mber": 3645,
      "Ġarm": 3646,
      "Ġarri": 3647,
      "Ġperf": 3648,
      "Ġperi": 3649,
      "Ġinfin": 3650,
      "Ġinfra": 3651,
      "Ġnext": 3652,
      "ggers": 3653,
      "ggling": 3654,
      "Ġupd": 3655,
      "Ġmultiprocess": 3656,
      "more": 3657,
      "Ġdesp": 3658,
      "Ġwhis": 3659,
      "Ġrout": 3660,
      "Ġroll": 3661,
      "Ġround": 3662,
      "Ġpain": 3663,
      "Ġparen": 3664,
      "Ġparameteri": 3665,
      "Ġabomin": 3666,
      "Ġabhor": 3667,
      "Ġatom": 3668,
      "Ġattemp": 3669,
      "Ġrefer": 3670,
      "Ġrefoc": 3671,
      "Ġrefact": 3672,
      "Ġmemo": 3673,
      "Ġtrave": 3674,
      "Ġtrace": 3675,
      "Ġtrack": 3676,
      "Ġstate": 3677,
      "Ġstatis": 3678,
      "occ": 3679,
      "Ġration": 3680,
      "Ġradi": 3681,
      "Ġmob": 3682,
      "Ġmock": 3683,
      "value": 3684,
      "values": 3685,
      "valued": 3686,
      "lasses": 3687,
      "Ġlon": 3688,
      "Ġlist": 3689,
      "Ġunsu": 3690,
      "Ġunsus": 3691,
      "Ġoutd": 3692,
      "Ġoutper": 3693,
      "Ġoutdo": 3694,
      "Ġregro": 3695,
      "Ġregener": 3696,
      "ularity": 3697,
      "Ġinteres": 3698,
      "Ġassum": 3699,
      "erent": 3700,
      "erencing": 3701,
      "Ġboo": 3702,
      "Ġboth": 3703,
      "Ġboos": 3704,
      "arer": 3705,
      "ublish": 3706,
      "vised": 3707,
      "Ġkno": 3708,
      "Ġknowled": 3709,
      "Ġorth": 3710,
      "eries": 3711,
      "Ġplace": 3712,
      "Ġcommit": 3713,
      "udes": 3714,
      "Ġforb": 3715,
      "Ġforgi": 3716,
      "heets": 3717,
      "Ġaccu": 3718,
      "Ġindign": 3719,
      "Ġindustri": 3720,
      "Ġundo": 3721,
      "Ġundesi": 3722,
      "Ġswapp": 3723,
      "isely": 3724,
      "abul": 3725,
      "Ġug": 3726,
      "amples": 3727,
      "Ġundermin": 3728,
      "Ġunderpin": 3729,
      "Ġdeplo": 3730,
      "Ġdepic": 3731,
      "Ġphone": 3732,
      "lusions": 3733,
      "versal": 3734,
      "Ġnoncon": 3735,
      "Ġnonlinear": 3736,
      "eping": 3737,
      "Ġafford": 3738,
      "rational": 3739,
      "Ġfear": 3740,
      "Ġfeel": 3741,
      "Ġbacktra": 3742,
      "Ġencod": 3743,
      "Ġencoun": 3744,
      "Ġconcer": 3745,
      "Ġconcurren": 3746,
      "Ġdatas": 3747,
      "Ġsurf": 3748,
      "Ġsurro": 3749,
      "Ġsurve": 3750,
      "Ġsurvi": 3751,
      "Ġredown": 3752,
      "Ġredesign": 3753,
      "Ġredecla": 3754,
      "Ġunfe": 3755,
      "Ġunfur": 3756,
      "Ġunfol": 3757,
      "ather": 3758,
      "Ġfinet": 3759,
      "Ġsupple": 3760,
      "Ġsuppos": 3761,
      "took": 3762,
      "Ġsaf": 3763,
      "Ġstemm": 3764,
      "Ġsteep": 3765,
      "Ġstereo": 3766,
      "Ġescap": 3767,
      "Ġversion": 3768,
      "Ġawk": 3769,
      "Ġawak": 3770,
      "Ġrival": 3771,
      "Ġdownsi": 3772,
      "Ġformat": 3773,
      "Ġinvo": 3774,
      "Ġinvent": 3775,
      "Ġgeo": 3776,
      "Ġgeos": 3777,
      "Ġvisual": 3778,
      "Ġreinde": 3779,
      "Ġreiniti": 3780,
      "Ġunpack": 3781,
      "forward": 3782,
      "Ġrenorm": 3783,
      "Ġguaran": 3784,
      "Ġtypec": 3785,
      "Ġopens": 3786,
      "Ġdelimi": 3787,
      "Ġappropri": 3788,
      "marking": 3789,
      "Ġbuff": 3790,
      "Ġrecomb": 3791,
      "Ġrecommen": 3792,
      "Ġmultiplex": 3793,
      "graphs": 3794,
      "management": 3795,
      "Ġonto": 3796,
      "Ġsecond": 3797,
      "istent": 3798,
      "istently": 3799,
      "layed": 3800,
      "Ġunwra": 3801,
      "Ġtopolog": 3802,
      "Ġbreath": 3803,
      "Ġworld": 3804,
      "quired": 3805,
      "working": 3806,
      "Ġskill": 3807,
      "Ġcybers": 3808,
      "Ġmonth": 3809,
      "Ġmonot": 3810,
      "Ġoutsour": 3811,
      "Ġvalue": 3812,
      "Ġlogar": 3813,
      "host": 3814,
      "hoods": 3815,
      "umption": 3816,
      "Ġdensi": 3817,
      "Ġdestro": 3818,
      "Ġoccasion": 3819,
      "Ġsensi": 3820,
      "Ġsuspen": 3821,
      "Ġsuspec": 3822,
      "Ġsuspic": 3823,
      "Ġclimb": 3824,
      "Ġinconven": 3825,
      "Ġinconsider": 3826,
      "Ġunmas": 3827,
      "cribing": 3828,
      "Ġcodec": 3829,
      "Ġunbund": 3830,
      "Ġaggra": 3831,
      "Ġfiles": 3832,
      "Ġfiltra": 3833,
      "Ġdissol": 3834,
      "Ġspeak": 3835,
      "boxes": 3836,
      "Ġnegli": 3837,
      "Ġunderstand": 3838,
      "eared": 3839,
      "ology": 3840,
      "urious": 3841,
      "Ġcircum": 3842,
      "laiming": 3843,
      "Ġelectri": 3844,
      "Ġdirect": 3845,
      "Ġacquies": 3846,
      "Ġabsor": 3847,
      "Ġabscon": 3848,
      "Ġattenu": 3849,
      "Ġcollap": 3850,
      "rising": 3851,
      "Ġtessel": 3852,
      "tables": 3853,
      "Ġflour": 3854,
      "charge": 3855,
      "etrically": 3856,
      "Ġstraight": 3857,
      "Ġcompeten": 3858,
      "Ġshould": 3859,
      "maps": 3860,
      "Ġlink": 3861,
      "Ġsimil": 3862,
      "Ġcaus": 3863,
      "Ġcrash": 3864,
      "Ġpurch": 3865,
      "Ġpurpose": 3866,
      "Ġmarke": 3867,
      "Ġtough": 3868,
      "Ġcontextu": 3869,
      "Ġdisappro": 3870,
      "Ġsucceed": 3871,
      "Ġprogrammer": 3872,
      "Ġsegmen": 3873,
      "Ġsegreg": 3874,
      "Ġautoenc": 3875,
      "Ġmaintain": 3876,
      "python": 3877,
      "Ġfreelan": 3878,
      "Ġbyp": 3879,
      "Ġdemys": 3880,
      "Ġvolati": 3881,
      "Ġschol": 3882,
      "Ġineffic": 3883,
      "Ġdecoup": 3884,
      "Ġingen": 3885,
      "Ġlux": 3886,
      "Ġsystem": 3887,
      "Ġsystemati": 3888,
      "Ġcertain": 3889,
      "Ġconstra": 3890,
      "Ġexempli": 3891,
      "hedron": 3892,
      "Ġsince": 3893,
      "Ġfrequ": 3894,
      "Ġtalk": 3895,
      "Ġburn": 3896,
      "Ġinfluen": 3897,
      "Ġimagin": 3898,
      "vocation": 3899,
      "Ġfluctu": 3900,
      "Ġwindows": 3901,
      "Ġconjun": 3902,
      "Ġhighligh": 3903,
      "sembly": 3904,
      "Ġadjus": 3905,
      "Ġaccompan": 3906,
      "Ġscrap": 3907,
      "Ġpermuta": 3908,
      "casts": 3909,
      "data": 3910,
      "group": 3911,
      "otech": 3912,
      "Ġvex": 3913,
      "Ġwonder": 3914,
      "Ġhoriz": 3915,
      "Ġhomog": 3916,
      "Ġchoos": 3917,
      "Ġthank": 3918,
      "control": 3919,
      "Ġmeaning": 3920,
      "Ġdoubt": 3921,
      "words": 3922,
      "Ġscienti": 3923,
      "Ġcasc": 3924,
      "Ġdwind": 3925,
      "Ġinaccu": 3926,
      "Ġwalk": 3927,
      "Ġcongreg": 3928,
      "Ġconvin": 3929,
      "Ġdeepen": 3930,
      "Ġdecei": 3931,
      "built": 3932,
      "Ġcrowds": 3933,
      "Ġellip": 3934,
      "Ġunleash": 3935,
      "Ġdealloc": 3936,
      "Ġdistinguish": 3937,
      "Ġsugges": 3938,
      "Ġenjoy": 3939,
      "Ġdeconstru": 3940,
      "Ġinterchange": 3941,
      "Ġexplain": 3942,
      "Ġlexic": 3943,
      "Ġartific": 3944,
      "Ġentreprene": 3945,
      "Ġmathematic": 3946,
      "Ġproportion": 3947,
      "frames": 3948,
      "Ġsatu": 3949,
      "Ġincompa": 3950,
      "Ġwretched": 3951,
      "Ġsplit": 3952,
      "Ġreshap": 3953,
      "Ġautocorre": 3954,
      "Ġperplex": 3955,
      "Ġbeauti": 3956,
      "Ġcommerci": 3957,
      "Ġcounterac": 3958,
      "Ġastonish": 3959,
      "Ġtroubles": 3960,
      "Ġtensorflow": 3961,
      "Ġcamer": 3962,
      "Ġreorgan": 3963,
      "Ġunregis": 3964,
      "Ġille": 3965,
      "Ġresurre": 3966,
      "Ġansw": 3967,
      "Ġdecentr": 3968,
      "Ġzero": 3969,
      "Ġneighbour": 3970,
      "Ġpione": 3971,
      "Ġpeculi": 3972,
      "Ġarithme": 3973,
      "Ġeconom": 3974,
      "Ġaccommod": 3975,
      "Ġmisbeha": 3976,
      "Ġmisinterpre": 3977,
      "10": 3978,
      "11": 3979,
      "98": 3980,
      "920": 3981,
      "asi": 3982,
      "aci": 3983,
      "aved": 3984,
      "atically": 3985,
      "aive": 3986,
      "atics": 3987,
      "arest": 3988,
      "auth": 3989,
      "band": 3990,
      "bust": 3991,
      "cp": 3992,
      "cin": 3993,
      "core": 3994,
      "cover": 3995,
      "ctivity": 3996,
      "ctability": 3997,
      "ctible": 3998,
      "dy": 3999,
      "dri": 4000,
      "dable": 4001,
      "dling": 4002,
      "eful": 4003,
      "emon": 4004,
      "ears": 4005,
      "fted": 4006,
      "fri": 4007,
      "fts": 4008,
      "fting": 4009,
      "fall": 4010,
      "fort": 4011,
      "files": 4012,
      "fitting": 4013,
      "front": 4014,
      "gon": 4015,
      "gen": 4016,
      "gres": 4017,
      "gru": 4018,
      "gest": 4019,
      "gating": 4020,
      "gance": 4021,
      "gins": 4022,
      "hus": 4023,
      "ier": 4024,
      "ile": 4025,
      "ites": 4026,
      "ience": 4027,
      "ials": 4028,
      "ift": 4029,
      "ilable": 4030,
      "jack": 4031,
      "kills": 4032,
      "lt": 4033,
      "llo": 4034,
      "lest": 4035,
      "listed": 4036,
      "mation": 4037,
      "mingly": 4038,
      "nal": 4039,
      "nom": 4040,
      "nown": 4041,
      "name": 4042,
      "nels": 4043,
      "overs": 4044,
      "offic": 4045,
      "other": 4046,
      "ogue": 4047,
      "ogues": 4048,
      "pus": 4049,
      "pag": 4050,
      "plan": 4051,
      "path": 4052,
      "print": 4053,
      "paces": 4054,
      "qli": 4055,
      "rors": 4056,
      "sd": 4057,
      "sting": 4058,
      "ssed": 4059,
      "sql": 4060,
      "soph": 4061,
      "toc": 4062,
      "tree": 4063,
      "tml": 4064,
      "uro": 4065,
      "uch": 4066,
      "ude": 4067,
      "uds": 4068,
      "uded": 4069,
      "uations": 4070,
      "utation": 4071,
      "uters": 4072,
      "ught": 4073,
      "urance": 4074,
      "vated": 4075,
      "vates": 4076,
      "vability": 4077,
      "where": 4078,
      "wares": 4079,
      "ye": 4080,
      "zable": 4081,
      "Ġling": 4082,
      "Ġll": 4083,
      "Ġline": 4084,
      "Ġone": 4085,
      "inded": 4086,
      "rele": 4087,
      "reens": 4088,
      "tell": 4089,
      "tegra": 4090,
      "teps": 4091,
      "telling": 4092,
      "terer": 4093,
      "ont": 4094,
      "oning": 4095,
      "only": 4096,
      "onds": 4097,
      "ondu": 4098,
      "onents": 4099,
      "tily": 4100,
      "tization": 4101,
      "tility": 4102,
      "inging": 4103,
      "inger": 4104,
      "erably": 4105,
      "Ġsis": 4106,
      "Ġslo": 4107,
      "Ġstan": 4108,
      "Ġslic": 4109,
      "Ġsys": 4110,
      "Ġsenti": 4111,
      "Ġsize": 4112,
      "Ġsell": 4113,
      "Ġsick": 4114,
      "Ġsne": 4115,
      "Ġsound": 4116,
      "Ġsides": 4117,
      "Ġsorrow": 4118,
      "establish": 4119,
      "Ġcpp": 4120,
      "Ġcum": 4121,
      "Ġcard": 4122,
      "Ġcub": 4123,
      "Ġclock": 4124,
      "Ġcrun": 4125,
      "eni": 4126,
      "enomen": 4127,
      "Ġdar": 4128,
      "Ġdign": 4129,
      "Ġdrow": 4130,
      "Ġdub": 4131,
      "Ġdens": 4132,
      "Ġdrin": 4133,
      "Ġderan": 4134,
      "alous": 4135,
      "alling": 4136,
      "alance": 4137,
      "alistic": 4138,
      "Ġpc": 4139,
      "Ġput": 4140,
      "Ġpad": 4141,
      "Ġpod": 4142,
      "Ġpap": 4143,
      "Ġpatch": 4144,
      "Ġpaten": 4145,
      "Ġplot": 4146,
      "Ġprint": 4147,
      "Ġai": 4148,
      "Ġare": 4149,
      "Ġade": 4150,
      "Ġamen": 4151,
      "Ġaud": 4152,
      "Ġapi": 4153,
      "Ġamon": 4154,
      "Ġamend": 4155,
      "Ġrev": 4156,
      "Ġreen": 4157,
      "Ġrero": 4158,
      "Ġrean": 4159,
      "Ġrece": 4160,
      "Ġreign": 4161,
      "Ġreva": 4162,
      "Ġretro": 4163,
      "Ġreex": 4164,
      "Ġremark": 4165,
      "Ġrestruct": 4166,
      "Ġremonst": 4167,
      "Ġreluc": 4168,
      "Ġreaff": 4169,
      "Ġreestablish": 4170,
      "ract": 4171,
      "raid": 4172,
      "rase": 4173,
      "orter": 4174,
      "ority": 4175,
      "orded": 4176,
      "ories": 4177,
      "orned": 4178,
      "orious": 4179,
      "tionless": 4180,
      "unted": 4181,
      "unting": 4182,
      "unit": 4183,
      "under": 4184,
      "lete": 4185,
      "lets": 4186,
      "lective": 4187,
      "isation": 4188,
      "isite": 4189,
      "arities": 4190,
      "around": 4191,
      "Ġmes": 4192,
      "Ġmot": 4193,
      "Ġmash": 4194,
      "Ġmath": 4195,
      "Ġmute": 4196,
      "Ġinn": 4197,
      "Ġinqu": 4198,
      "Ġinvis": 4199,
      "Ġinapp": 4200,
      "Ġinau": 4201,
      "Ġinception": 4202,
      "Ġindire": 4203,
      "Ġinput": 4204,
      "tax": 4205,
      "tack": 4206,
      "tabili": 4207,
      "taking": 4208,
      "takes": 4209,
      "rote": 4210,
      "rous": 4211,
      "rolling": 4212,
      "rolled": 4213,
      "lab": 4214,
      "lad": 4215,
      "lability": 4216,
      "laces": 4217,
      "lays": 4218,
      "Ġfed": 4219,
      "Ġfar": 4220,
      "Ġfut": 4221,
      "Ġfling": 4222,
      "Ġfigh": 4223,
      "Ġfour": 4224,
      "Ġflas": 4225,
      "Ġfash": 4226,
      "Ġfright": 4227,
      "Ġfront": 4228,
      "Ġfinger": 4229,
      "lib": 4230,
      "lier": 4231,
      "lization": 4232,
      "Ġet": 4233,
      "Ġeco": 4234,
      "Ġevolu": 4235,
      "Ġeager": 4236,
      "Ġeluc": 4237,
      "Ġeasi": 4238,
      "Ġunh": 4239,
      "Ġunic": 4240,
      "Ġunpo": 4241,
      "Ġunity": 4242,
      "Ġuntra": 4243,
      "Ġunac": 4244,
      "Ġunhe": 4245,
      "Ġunlock": 4246,
      "Ġunread": 4247,
      "Ġuncer": 4248,
      "Ġunman": 4249,
      "Ġunans": 4250,
      "Ġunob": 4251,
      "Ġunescap": 4252,
      "oms": 4253,
      "omed": 4254,
      "oman": 4255,
      "omeness": 4256,
      "Ġtor": 4257,
      "Ġtar": 4258,
      "Ġtom": 4259,
      "Ġtod": 4260,
      "Ġtry": 4261,
      "Ġtour": 4262,
      "Ġtarge": 4263,
      "Ġtruth": 4264,
      "rily": 4265,
      "rity": 4266,
      "riety": 4267,
      "Ġbon": 4268,
      "Ġbis": 4269,
      "Ġbar": 4270,
      "Ġbil": 4271,
      "Ġbut": 4272,
      "Ġbad": 4273,
      "Ġbest": 4274,
      "Ġblan": 4275,
      "Ġbind": 4276,
      "Ġbase": 4277,
      "Ġbill": 4278,
      "Ġbris": 4279,
      "Ġbrid": 4280,
      "anity": 4281,
      "Ġod": 4282,
      "Ġours": 4283,
      "Ġother": 4284,
      "Ġwish": 4285,
      "Ġwip": 4286,
      "Ġwall": 4287,
      "Ġway": 4288,
      "Ġwild": 4289,
      "Ġwilling": 4290,
      "Ġwoman": 4291,
      "ective": 4292,
      "ecked": 4293,
      "econd": 4294,
      "iced": 4295,
      "icity": 4296,
      "ician": 4297,
      "Ġconde": 4298,
      "Ġconced": 4299,
      "Ġconden": 4300,
      "Ġconvolu": 4301,
      "Ġcontigu": 4302,
      "velo": 4303,
      "vements": 4304,
      "Ġhence": 4305,
      "Ġhamp": 4306,
      "Ġhards": 4307,
      "Ġhold": 4308,
      "Ġhang": 4309,
      "Ġhistor": 4310,
      "ital": 4311,
      "itous": 4312,
      "itory": 4313,
      "versi": 4314,
      "verses": 4315,
      "uls": 4316,
      "ules": 4317,
      "ulsive": 4318,
      "sidu": 4319,
      "sivity": 4320,
      "siveness": 4321,
      "terly": 4322,
      "terpre": 4323,
      "chas": 4324,
      "chment": 4325,
      "chain": 4326,
      "asm": 4327,
      "asy": 4328,
      "asted": 4329,
      "assing": 4330,
      "Ġgate": 4331,
      "Ġgest": 4332,
      "Ġglow": 4333,
      "Ġgree": 4334,
      "Ġgif": 4335,
      "Ġgallan": 4336,
      "Ġglad": 4337,
      "Ġdefic": 4338,
      "Ġdeline": 4339,
      "Ġdeman": 4340,
      "Ġderef": 4341,
      "Ġdevelo": 4342,
      "izers": 4343,
      "Ġnin": 4344,
      "Ġnur": 4345,
      "Ġnat": 4346,
      "Ġnod": 4347,
      "Ġnest": 4348,
      "Ġnigh": 4349,
      "Ġnames": 4350,
      "Ġnaive": 4351,
      "urally": 4352,
      "mping": 4353,
      "mpath": 4354,
      "Ġidi": 4355,
      "Ġipad": 4356,
      "Ġdisj": 4357,
      "Ġdisk": 4358,
      "Ġdisad": 4359,
      "Ġdisse": 4360,
      "Ġdisqual": 4361,
      "Ġexul": 4362,
      "Ġexig": 4363,
      "Ġexact": 4364,
      "Ġexpos": 4365,
      "Ġextingu": 4366,
      "ressively": 4367,
      "Ġsui": 4368,
      "Ġsudden": 4369,
      "olent": 4370,
      "older": 4371,
      "olence": 4372,
      "olute": 4373,
      "olvable": 4374,
      "quar": 4375,
      "quid": 4376,
      "ilers": 4377,
      "ilenet": 4378,
      "sto": 4379,
      "stin": 4380,
      "storm": 4381,
      "store": 4382,
      "start": 4383,
      "Ġcompo": 4384,
      "igo": 4385,
      "igured": 4386,
      "redu": 4387,
      "redic": 4388,
      "Ġpros": 4389,
      "Ġprov": 4390,
      "Ġprox": 4391,
      "Ġproble": 4392,
      "Ġprotes": 4393,
      "Ġproac": 4394,
      "Ġpromin": 4395,
      "Ġproud": 4396,
      "Ġproxim": 4397,
      "Ġvig": 4398,
      "Ġvoc": 4399,
      "Ġvend": 4400,
      "Ġvind": 4401,
      "Ġenli": 4402,
      "Ġendu": 4403,
      "Ġencomp": 4404,
      "Ġenab": 4405,
      "Ġenfor": 4406,
      "Ġenque": 4407,
      "Ġenvision": 4408,
      "Ġenvelop": 4409,
      "Ġenligh": 4410,
      "rans": 4411,
      "ranges": 4412,
      "ctness": 4413,
      "ctually": 4414,
      "elds": 4415,
      "ellow": 4416,
      "ellish": 4417,
      "elines": 4418,
      "upon": 4419,
      "idity": 4420,
      "ffing": 4421,
      "search": 4422,
      "odb": 4423,
      "Ġstun": 4424,
      "Ġstro": 4425,
      "Ġstop": 4426,
      "Ġstub": 4427,
      "Ġstrong": 4428,
      "Ġstrang": 4429,
      "biqu": 4430,
      "Ġrecap": 4431,
      "Ġrecord": 4432,
      "Ġrectang": 4433,
      "menu": 4434,
      "mentioned": 4435,
      "owing": 4436,
      "oward": 4437,
      "through": 4438,
      "Ġspy": 4439,
      "Ġspar": 4440,
      "Ġspan": 4441,
      "Ġspam": 4442,
      "Ġspark": 4443,
      "Ġspati": 4444,
      "Ġsprink": 4445,
      "Ġspiri": 4446,
      "Ġcompact": 4447,
      "Ġcomputa": 4448,
      "Ġsubm": 4449,
      "Ġsubsi": 4450,
      "Ġsubnet": 4451,
      "Ġcof": 4452,
      "Ġcoh": 4453,
      "Ġcove": 4454,
      "Ġcour": 4455,
      "Ġcoup": 4456,
      "Ġcook": 4457,
      "Ġcoex": 4458,
      "Ġcoloc": 4459,
      "Ġcould": 4460,
      "Ġadh": 4461,
      "Ġadvers": 4462,
      "Ġaddic": 4463,
      "cited": 4464,
      "cible": 4465,
      "Ġdiv": 4466,
      "Ġdives": 4467,
      "Ġdiffic": 4468,
      "Ġoverpa": 4469,
      "Ġovercomp": 4470,
      "Ġoverha": 4471,
      "Ġovertur": 4472,
      "Ġoverpow": 4473,
      "Ġprem": 4474,
      "Ġpresi": 4475,
      "Ġpreas": 4476,
      "Ġprepen": 4477,
      "Ġprecomp": 4478,
      "Ġpremi": 4479,
      "Ġpredef": 4480,
      "Ġpredetermin": 4481,
      "Ġprejud": 4482,
      "bot": 4483,
      "Ġactive": 4484,
      "Ġacces": 4485,
      "Ġshed": 4486,
      "Ġshrin": 4487,
      "Ġshame": 4488,
      "Ġshif": 4489,
      "Ġchun": 4490,
      "Ġchain": 4491,
      "Ġchild": 4492,
      "Ġchecks": 4493,
      "Ġthes": 4494,
      "Ġthree": 4495,
      "Ġthick": 4496,
      "Ġthresh": 4497,
      "Ġresent": 4498,
      "Ġresub": 4499,
      "Ġresell": 4500,
      "Ġanom": 4501,
      "Ġanch": 4502,
      "umble": 4503,
      "umber": 4504,
      "links": 4505,
      "derly": 4506,
      "derable": 4507,
      "Ġjit": 4508,
      "Ġjav": 4509,
      "Ġrepain": 4510,
      "Ġreplen": 4511,
      "Ġimpar": 4512,
      "Ġimpati": 4513,
      "ulative": 4514,
      "estly": 4515,
      "Ġdecis": 4516,
      "Ġdecod": 4517,
      "Ġdecay": 4518,
      "Ġsever": 4519,
      "Ġselect": 4520,
      "Ġseman": 4521,
      "Ġseque": 4522,
      "Ġseason": 4523,
      "Ġlove": 4524,
      "Ġloos": 4525,
      "Ġloud": 4526,
      "Ġloss": 4527,
      "Ġasp": 4528,
      "Ġassidu": 4529,
      "gebra": 4530,
      "vial": 4531,
      "Ġtex": 4532,
      "Ġteach": 4533,
      "Ġweek": 4534,
      "Ġpoint": 4535,
      "Ġposs": 4536,
      "key": 4537,
      "Ġaler": 4538,
      "Ġalgebra": 4539,
      "aced": 4540,
      "Ġlag": 4541,
      "Ġlater": 4542,
      "Ġlaten": 4543,
      "Ġinterre": 4544,
      "Ġintercep": 4545,
      "Ġinterfac": 4546,
      "Ġinterdepend": 4547,
      "Ġtranqu": 4548,
      "iry": 4549,
      "Ġqua": 4550,
      "Ġques": 4551,
      "Ġquiz": 4552,
      "Ġliquid": 4553,
      "Ġexplan": 4554,
      "Ġexpress": 4555,
      "come": 4556,
      "ips": 4557,
      "Ġmultiv": 4558,
      "Ġappra": 4559,
      "Ġappla": 4560,
      "Ġapplic": 4561,
      "oub": 4562,
      "ouri": 4563,
      "ourable": 4564,
      "Ġtransc": 4565,
      "Ġtransla": 4566,
      "Ġtransac": 4567,
      "Ġtranspa": 4568,
      "Ġtransmit": 4569,
      "Ġtranscrip": 4570,
      "ountable": 4571,
      "Ġlear": 4572,
      "Ġlean": 4573,
      "Ġleve": 4574,
      "Ġlecture": 4575,
      "tivation": 4576,
      "tivates": 4577,
      "licating": 4578,
      "Ġscen": 4579,
      "Ġscram": 4580,
      "Ġscrup": 4581,
      "Ġscrew": 4582,
      "Ġscreen": 4583,
      "Ġauth": 4584,
      "Ġautore": 4585,
      "Ġobs": 4586,
      "Ġobses": 4587,
      "tude": 4588,
      "tured": 4589,
      "Ġinsin": 4590,
      "Ġmispla": 4591,
      "ardon": 4592,
      "Ġfaul": 4593,
      "Ġfade": 4594,
      "Ġfair": 4595,
      "Ġfaith": 4596,
      "Ġfavo": 4597,
      "Ġfabric": 4598,
      "mail": 4599,
      "ope": 4600,
      "Ġartic": 4601,
      "Ġardu": 4602,
      "Ġarrange": 4603,
      "Ġarray": 4604,
      "Ġpertin": 4605,
      "Ġpercei": 4606,
      "Ġpermission": 4607,
      "Ġinferi": 4608,
      "Ġinflex": 4609,
      "Ġnear": 4610,
      "Ġnever": 4611,
      "Ġneur": 4612,
      "Ġmultis": 4613,
      "Ġmultifunction": 4614,
      "Ġmultithread": 4615,
      "rone": 4616,
      "Ġhea": 4617,
      "Ġhear": 4618,
      "Ġheur": 4619,
      "Ġheap": 4620,
      "Ġdesk": 4621,
      "Ġdescen": 4622,
      "Ġdescrip": 4623,
      "Ġdescend": 4624,
      "Ġdestabili": 4625,
      "Ġwhic": 4626,
      "Ġwhite": 4627,
      "Ġwhats": 4628,
      "phe": 4629,
      "Ġroad": 4630,
      "Ġroot": 4631,
      "Ġrobust": 4632,
      "Ġrollo": 4633,
      "tainment": 4634,
      "Ġbere": 4635,
      "Ġbefore": 4636,
      "Ġpati": 4637,
      "Ġabro": 4638,
      "Ġabund": 4639,
      "Ġabbre": 4640,
      "Ġabnorm": 4641,
      "Ġattes": 4642,
      "Ġrefet": 4643,
      "Ġrefine": 4644,
      "Ġmeet": 4645,
      "igned": 4646,
      "aked": 4647,
      "Ġwebs": 4648,
      "Ġwebde": 4649,
      "jective": 4650,
      "tory": 4651,
      "Ġtraine": 4652,
      "Ġstation": 4653,
      "Ġstatic": 4654,
      "ouring": 4655,
      "ourse": 4656,
      "Ġconspi": 4657,
      "Ġrational": 4658,
      "achability": 4659,
      "Ġcolli": 4660,
      "tational": 4661,
      "rowser": 4662,
      "logs": 4663,
      "logical": 4664,
      "Ġconflic": 4665,
      "Ġconfron": 4666,
      "parame": 4667,
      "arying": 4668,
      "lastic": 4669,
      "ptr": 4670,
      "Ġlar": 4671,
      "Ġdaemon": 4672,
      "Ġunstead": 4673,
      "Ġoutput": 4674,
      "Ġoutgrow": 4675,
      "Ġoutrage": 4676,
      "Ġtac": 4677,
      "Ġtack": 4678,
      "Ġsoon": 4679,
      "Ġsoci": 4680,
      "Ġsooth": 4681,
      "Ġsolid": 4682,
      "Ġregion": 4683,
      "Ġregist": 4684,
      "ularly": 4685,
      "Ġnode": 4686,
      "Ġnotic": 4687,
      "Ġnovel": 4688,
      "Ġnotice": 4689,
      "mise": 4690,
      "mises": 4691,
      "missible": 4692,
      "vings": 4693,
      "ghtly": 4694,
      "ghtful": 4695,
      "Ġinteri": 4696,
      "Ġassess": 4697,
      "erential": 4698,
      "gued": 4699,
      "vise": 4700,
      "Ġornam": 4701,
      "Ġordin": 4702,
      "Ġincub": 4703,
      "Ġincident": 4704,
      "Ġdefe": 4705,
      "Ġdefen": 4706,
      "Ġdefaul": 4707,
      "Ġdiscoura": 4708,
      "produ": 4709,
      "propag": 4710,
      "racy": 4711,
      "Ġcomman": 4712,
      "Ġcommand": 4713,
      "Ġforg": 4714,
      "Ġforce": 4715,
      "Ġforget": 4716,
      "Ġgrapp": 4717,
      "hered": 4718,
      "head": 4719,
      "Ġaccord": 4720,
      "Ġaccident": 4721,
      "cyc": 4722,
      "ogs": 4723,
      "ogon": 4724,
      "Ġundis": 4725,
      "Ġundoub": 4726,
      "ceptions": 4727,
      "Ġswip": 4728,
      "endly": 4729,
      "abit": 4730,
      "Ġubiqu": 4731,
      "pile": 4732,
      "Ġdepar": 4733,
      "Ġdepri": 4734,
      "Ġdepth": 4735,
      "Ġdepart": 4736,
      "Ġphilo": 4737,
      "Ġphenomen": 4738,
      "Ġtrif": 4739,
      "Ġtriump": 4740,
      "lanted": 4741,
      "outh": 4742,
      "Ġmanage": 4743,
      "Ġmanif": 4744,
      "edia": 4745,
      "Ġaffili": 4746,
      "Ġaffection": 4747,
      "Ġfee": 4748,
      "Ġfeature": 4749,
      "Ġbackpropag": 4750,
      "Ġyes": 4751,
      "Ġyoun": 4752,
      "Ġyour": 4753,
      "Ġyours": 4754,
      "Ġkeep": 4755,
      "Ġprice": 4756,
      "Ġprivile": 4757,
      "Ġfif": 4758,
      "Ġfirew": 4759,
      "Ġsubscrip": 4760,
      "gibly": 4761,
      "Ġredund": 4762,
      "Ġredraw": 4763,
      "atory": 4764,
      "rately": 4765,
      "Ġusers": 4766,
      "Ġsaw": 4767,
      "Ġstep": 4768,
      "Ġuniform": 4769,
      "Ġunivers": 4770,
      "Ġunique": 4771,
      "rints": 4772,
      "Ġverb": 4773,
      "Ġawes": 4774,
      "Ġemphas": 4775,
      "Ġopin": 4776,
      "Ġrich": 4777,
      "Ġridic": 4778,
      "Ġridd": 4779,
      "Ġsynonym": 4780,
      "Ġdoes": 4781,
      "Ġdocker": 4782,
      "Ġdowngra": 4783,
      "Ġinvigo": 4784,
      "Ġcalm": 4785,
      "Ġrelaun": 4786,
      "Ġrelations": 4787,
      "Ġvision": 4788,
      "Ġentry": 4789,
      "Ġentrop": 4790,
      "Ġenthus": 4791,
      "Ġreinven": 4792,
      "Ġreinfor": 4793,
      "Ġreinstal": 4794,
      "Ġreinforce": 4795,
      "Ġreintegra": 4796,
      "Ġreinterpre": 4797,
      "Ġembra": 4798,
      "Ġembod": 4799,
      "Ġembark": 4800,
      "Ġembarra": 4801,
      "Ġembellish": 4802,
      "Ġunpre": 4803,
      "Ġunpublish": 4804,
      "Ġunpredic": 4805,
      "Ġdispers": 4806,
      "Ġdispatch": 4807,
      "Ġflag": 4808,
      "Ġguid": 4809,
      "Ġguide": 4810,
      "Ġsix": 4811,
      "Ġindef": 4812,
      "Ġindetermin": 4813,
      "Ġindepend": 4814,
      "Ġfoot": 4815,
      "Ġforest": 4816,
      "Ġclos": 4817,
      "Ġcapaci": 4818,
      "Ġbuy": 4819,
      "Ġbuild": 4820,
      "Ġocta": 4821,
      "signs": 4822,
      "ctory": 4823,
      "Ġrecompu": 4824,
      "Ġreprojec": 4825,
      "Ġreprogram": 4826,
      "Ġmultiplic": 4827,
      "iences": 4828,
      "iencies": 4829,
      "Ġtwit": 4830,
      "Ġtwid": 4831,
      "Ġtwee": 4832,
      "Ġsupercomp": 4833,
      "rusted": 4834,
      "Ġsligh": 4835,
      "Ġsecre": 4836,
      "Ġclever": 4837,
      "Ġunwilling": 4838,
      "Ġtogg": 4839,
      "Ġitems": 4840,
      "Ġengros": 4841,
      "Ġanalys": 4842,
      "ney": 4843,
      "nets": 4844,
      "worked": 4845,
      "Ġmongo": 4846,
      "Ġoutsta": 4847,
      "Ġirreg": 4848,
      "hile": 4849,
      "hibit": 4850,
      "Ġwarp": 4851,
      "Ġhost": 4852,
      "Ġhook": 4853,
      "Ġharm": 4854,
      "Ġharness": 4855,
      "Ġtemper": 4856,
      "voke": 4857,
      "Ġisom": 4858,
      "Ġsenten": 4859,
      "Ġclient": 4860,
      "Ġincongru": 4861,
      "Ġheadquar": 4862,
      "downs": 4863,
      "wardly": 4864,
      "Ġsympath": 4865,
      "Ġservice": 4866,
      "urrence": 4867,
      "sembled": 4868,
      "sembling": 4869,
      "ongs": 4870,
      "Ġrebran": 4871,
      "Ġmoral": 4872,
      "Ġmorph": 4873,
      "Ġmorrow": 4874,
      "Ġdissu": 4875,
      "Ġdissatis": 4876,
      "Ġdisconcer": 4877,
      "Ġproducti": 4878,
      "posable": 4879,
      "earance": 4880,
      "hips": 4881,
      "ologically": 4882,
      "Ġspot": 4883,
      "Ġclut": 4884,
      "Ġresili": 4885,
      "Ġresidu": 4886,
      "Ġremode": 4887,
      "Ġelectric": 4888,
      "Ġoppos": 4889,
      "Ġopposi": 4890,
      "Ġnews": 4891,
      "Ġprefet": 4892,
      "Ġupscal": 4893,
      "Ġattend": 4894,
      "Ġviewmode": 4895,
      "Ġsettle": 4896,
      "Ġintran": 4897,
      "Ġintrins": 4898,
      "Ġinnova": 4899,
      "Ġfloat": 4900,
      "Ġwik": 4901,
      "Ġwire": 4902,
      "Ġwiref": 4903,
      "Ġillumin": 4904,
      "Ġdiagram": 4905,
      "Ġlinked": 4906,
      "Ġcriti": 4907,
      "Ġcriteri": 4908,
      "Ġuninter": 4909,
      "Ġuninstal": 4910,
      "Ġhaz": 4911,
      "Ġhijack": 4912,
      "Ġimmers": 4913,
      "Ġimmig": 4914,
      "Ġprogramm": 4915,
      "types": 4916,
      "typical": 4917,
      "ography": 4918,
      "Ġmaster": 4919,
      "Ġtremb": 4920,
      "Ġbrain": 4921,
      "ether": 4922,
      "Ġpolynom": 4923,
      "Ġland": 4924,
      "Ġlands": 4925,
      "Ġoblite": 4926,
      "weigh": 4927,
      "weight": 4928,
      "Ġurl": 4929,
      "Ġrelie": 4930,
      "Ġeffort": 4931,
      "ellings": 4932,
      "Ġstrugg": 4933,
      "Ġcomputeri": 4934,
      "Ġpostpon": 4935,
      "Ġpostgres": 4936,
      "communic": 4937,
      "Ġmemory": 4938,
      "Ġcrypto": 4939,
      "Ġingra": 4940,
      "Ġluck": 4941,
      "Ġstir": 4942,
      "Ġculmin": 4943,
      "Ġpeop": 4944,
      "Ġpublic": 4945,
      "leton": 4946,
      "Ġinduce": 4947,
      "Ġconstri": 4948,
      "Ġenterp": 4949,
      "Ġcodeb": 4950,
      "Ġadvance": 4951,
      "Ġadvantage": 4952,
      "Ġrespect": 4953,
      "Ġorganization": 4954,
      "Ġtimesta": 4955,
      "Ġdestruct": 4956,
      "Ġstyles": 4957,
      "Ġderiva": 4958,
      "ratory": 4959,
      "Ġmarket": 4960,
      "task": 4961,
      "Ġfrees": 4962,
      "Ġhappen": 4963,
      "Ġshowc": 4964,
      "Ġannoy": 4965,
      "names": 4966,
      "Ġcanonic": 4967,
      "Ġapart": 4968,
      "Ġreques": 4969,
      "Ġfanci": 4970,
      "Ġfantas": 4971,
      "Ġblind": 4972,
      "Ġnull": 4973,
      "Ġsuffix": 4974,
      "Ġvolum": 4975,
      "Ġadjust": 4976,
      "Ġprecau": 4977,
      "Ġimplemen": 4978,
      "Ġlower": 4979,
      "Ġsweep": 4980,
      "after": 4981,
      "away": 4982,
      "bbed": 4983,
      "casting": 4984,
      "Ġ1920": 4985,
      "Ġplun": 4986,
      "Ġpunctu": 4987,
      "Ġintric": 4988,
      "Ġturn": 4989,
      "Ġbenefic": 4990,
      "Ġwithdraw": 4991,
      "etrical": 4992,
      "ulatory": 4993,
      "Ġlibc": 4994,
      "Ġtransfer": 4995,
      "Ġfavor": 4996,
      "Ġmeasu": 4997,
      "Ġmeasure": 4998,
      "Ġtask": 4999,
      "Ġhypothe": 5000,
      "Ġequival": 5001,
      "Ġpersua": 5002,
      "Ġcharacter": 5003,
      "fitted": 5004,
      "worthy": 5005,
      "Ġqt": 5006,
      "Ġeditor": 5007,
      "Ġsleep": 5008,
      "Ġmalfunction": 5009,
      "Ġframework": 5010,
      "Ġelse": 5011,
      "Ġelong": 5012,
      "Ġcongru": 5013,
      "Ġgreat": 5014,
      "Ġchipma": 5015,
      "Ġparametri": 5016,
      "Ġengineer": 5017,
      "Ġsquee": 5018,
      "Ġcancel": 5019,
      "Ġpull": 5020,
      "Ġamaz": 5021,
      "Ġrearrange": 5022,
      "Ġbusiness": 5023,
      "Ġbetwe": 5024,
      "Ġwould": 5025,
      "Ġconceptu": 5026,
      "Ġexerc": 5027,
      "Ġexcell": 5028,
      "Ġcompanion": 5029,
      "Ġrepeti": 5030,
      "Ġappoint": 5031,
      "Ġpartners": 5032,
      "Ġforesee": 5033,
      "Ġarchitect": 5034,
      "Ġexempl": 5035,
      "Ġbehavior": 5036,
      "abouts": 5037,
      "information": 5038,
      "Ġsnap": 5039,
      "Ġsnapp": 5040,
      "Ġsomew": 5041,
      "Ġskew": 5042,
      "Ġdanger": 5043,
      "Ġpixe": 5044,
      "Ġreinser": 5045,
      "Ġfalse": 5046,
      "Ġfirm": 5047,
      "Ġfundament": 5048,
      "Ġbott": 5049,
      "Ġwitness": 5050,
      "Ġdependen": 5051,
      "Ġnecess": 5052,
      "Ġnecessi": 5053,
      "Ġdisgus": 5054,
      "Ġextre": 5055,
      "Ġenlar": 5056,
      "Ġspreads": 5057,
      "Ġsharp": 5058,
      "Ġthreate": 5059,
      "Ġimpair": 5060,
      "Ġimpertin": 5061,
      "taneous": 5062,
      "taneously": 5063,
      "Ġinfringe": 5064,
      "Ġintellect": 5065,
      "Ġkerne": 5066,
      "Ġempower": 5067,
      "Ġreconfigu": 5068,
      "Ġsketch": 5069,
      "Ġcyclic": 5070,
      "Ġgoogle": 5071,
      "Ġsymbo": 5072,
      "Ġdisappoint": 5073,
      "Ġadvertise": 5074,
      "Ġannounce": 5075,
      "Ġhouseke": 5076,
      "Ġgentleman": 5077,
      "Ġmanufacture": 5078,
      "author": 5079,
      "engine": 5080,
      "Ġavoid": 5081,
      "Ġrelinqu": 5082,
      "Ġreimag": 5083,
      "Ġindividu": 5084,
      "Ġoften": 5085,
      "Ġgovern": 5086,
      "Ġvulner": 5087,
      "Ġprecondi": 5088,
      "Ġchrome": 5089,
      "Ġandroid": 5090,
      "Ġsemicondu": 5091,
      "Ġasymm": 5092,
      "Ġalgorithm": 5093,
      "Ġscrip": 5094,
      "Ġautogener": 5095,
      "Ġwebpack": 5096,
      "Ġsolemn": 5097,
      "Ġplatform": 5098,
      "Ġaccentu": 5099,
      "abytes": 5100,
      "Ġemphasi": 5101,
      "Ġsignific": 5102,
      "Ġcombinator": 5103,
      "Ġneighbor": 5104,
      "controller": 5105,
      "Ġalphabe": 5106,
      "Ġbootstrap": 5107,
      "Ġcandid": 5108,
      "Ġddr": 5109,
      "Ġpagin": 5110,
      "Ġfruit": 5111,
      "Ġunrave": 5112,
      "Ġbrigh": 5113,
      "Ġbrief": 5114,
      "Ġosten": 5115,
      "Ġexhaus": 5116,
      "Ġvouchs": 5117,
      "Ġenhance": 5118,
      "Ġoversimpli": 5119,
      "Ġovershad": 5120,
      "Ġperiod": 5121,
      "Ġmobilenet": 5122,
      "Ġregroup": 5123,
      "Ġorthogon": 5124,
      "Ġfinetun": 5125,
      "Ġawkward": 5126,
      "otechnolog": 5127,
      "Ġhomogene": 5128,
      "Ġlingu": 5129,
      "Ġretrospec": 5130,
      "Ġreexam": 5131,
      "Ġreaffir": 5132,
      "Ġinaugu": 5133,
      "Ġfashion": 5134,
      "Ġelucid": 5135,
      "Ġuncertain": 5136,
      "Ġunansw": 5137,
      "Ġbrisk": 5138,
      "Ġdisadv": 5139,
      "Ġdissemin": 5140,
      "Ġvindic": 5141,
      "Ġjavas": 5142,
      "Ġabbrevi": 5143,
      "Ġphilosoph": 5144,
      "Ġtriumph": 5145,
      "Ġenthusi": 5146,
      "14": 5147,
      "17": 5148,
      "1200": 5149,
      "28": 5150,
      "86": 5151,
      "ax": 5152,
      "atic": 5153,
      "air": 5154,
      "aves": 5155,
      "aign": 5156,
      "aving": 5157,
      "ains": 5158,
      "ained": 5159,
      "arable": 5160,
      "acious": 5161,
      "ativeness": 5162,
      "aciously": 5163,
      "aunted": 5164,
      "bus": 5165,
      "bble": 5166,
      "bur": 5167,
      "but": 5168,
      "bable": 5169,
      "bled": 5170,
      "bber": 5171,
      "bars": 5172,
      "bleness": 5173,
      "bench": 5174,
      "browser": 5175,
      "cv": 5176,
      "cre": 5177,
      "cra": 5178,
      "clo": 5179,
      "cil": 5180,
      "card": 5181,
      "ccess": 5182,
      "camp": 5183,
      "cently": 5184,
      "clock": 5185,
      "croll": 5186,
      "class": 5187,
      "cnn": 5188,
      "cogn": 5189,
      "cache": 5190,
      "creen": 5191,
      "df": 5192,
      "dation": 5193,
      "dig": 5194,
      "dled": 5195,
      "dding": 5196,
      "dded": 5197,
      "dged": 5198,
      "eu": 5199,
      "ees": 5200,
      "een": 5201,
      "eties": 5202,
      "eks": 5203,
      "effic": 5204,
      "ealous": 5205,
      "fc": 5206,
      "fx": 5207,
      "fil": 5208,
      "fold": 5209,
      "fast": 5210,
      "face": 5211,
      "fault": 5212,
      "falls": 5213,
      "figured": 5214,
      "ga": 5215,
      "gl": 5216,
      "gn": 5217,
      "gal": 5218,
      "gable": 5219,
      "gally": 5220,
      "gment": 5221,
      "gge": 5222,
      "gments": 5223,
      "gno": 5224,
      "gently": 5225,
      "gni": 5226,
      "game": 5227,
      "gency": 5228,
      "hz": 5229,
      "hic": 5230,
      "hat": 5231,
      "hou": 5232,
      "hack": 5233,
      "hos": 5234,
      "hend": 5235,
      "hell": 5236,
      "holder": 5237,
      "ia": 5238,
      "itively": 5239,
      "ifies": 5240,
      "ification": 5241,
      "ilation": 5242,
      "ield": 5243,
      "ians": 5244,
      "ilability": 5245,
      "jc": 5246,
      "jan": 5247,
      "jour": 5248,
      "just": 5249,
      "ka": 5250,
      "kers": 5251,
      "keness": 5252,
      "killing": 5253,
      "killed": 5254,
      "lom": 5255,
      "laring": 5256,
      "listic": 5257,
      "lung": 5258,
      "mor": 5259,
      "mate": 5260,
      "mil": 5261,
      "mity": 5262,
      "mos": 5263,
      "mma": 5264,
      "math": 5265,
      "nt": 5266,
      "nit": 5267,
      "nat": 5268,
      "new": 5269,
      "oh": 5270,
      "ox": 5271,
      "oter": 5272,
      "ool": 5273,
      "otes": 5274,
      "otation": 5275,
      "overed": 5276,
      "oever": 5277,
      "pable": 5278,
      "psed": 5279,
      "part": 5280,
      "press": 5281,
      "play": 5282,
      "pboard": 5283,
      "ports": 5284,
      "plot": 5285,
      "parts": 5286,
      "paper": 5287,
      "qt": 5288,
      "rd": 5289,
      "rings": 5290,
      "rised": 5291,
      "sl": 5292,
      "sal": 5293,
      "sted": 5294,
      "sers": 5295,
      "sable": 5296,
      "sses": 5297,
      "ssing": 5298,
      "sciously": 5299,
      "tp": 5300,
      "tling": 5301,
      "top": 5302,
      "tons": 5303,
      "turing": 5304,
      "tral": 5305,
      "uity": 5306,
      "utions": 5307,
      "uge": 5308,
      "uine": 5309,
      "uite": 5310,
      "urated": 5311,
      "uits": 5312,
      "urances": 5313,
      "utility": 5314,
      "vag": 5315,
      "vating": 5316,
      "vot": 5317,
      "vour": 5318,
      "vously": 5319,
      "vational": 5320,
      "vances": 5321,
      "wt": 5322,
      "wide": 5323,
      "while": 5324,
      "xp": 5325,
      "xml": 5326,
      "ype": 5327,
      "zations": 5328,
      "zip": 5329,
      "zone": 5330,
      "zilla": 5331,
      "Ġ2": 5332,
      "Ġ4": 5333,
      "Ġ_": 5334,
      "Ġted": 5335,
      "Ġram": 5336,
      "Ġub": 5337,
      "Ġons": 5338,
      "Ġ64": 5339,
      "inity": 5340,
      "inder": 5341,
      "inations": 5342,
      "inced": 5343,
      "inking": 5344,
      "intained": 5345,
      "reed": 5346,
      "reet": 5347,
      "reated": 5348,
      "reaking": 5349,
      "rehend": 5350,
      "tected": 5351,
      "teration": 5352,
      "onged": 5353,
      "tip": 5354,
      "tier": 5355,
      "tiate": 5356,
      "tick": 5357,
      "tiated": 5358,
      "tivi": 5359,
      "tibility": 5360,
      "till": 5361,
      "tific": 5362,
      "tifier": 5363,
      "tifiable": 5364,
      "tidious": 5365,
      "erve": 5366,
      "erver": 5367,
      "erates": 5368,
      "erge": 5369,
      "erved": 5370,
      "erings": 5371,
      "Ġsed": 5372,
      "Ġsor": 5373,
      "Ġsun": 5374,
      "Ġsly": 5375,
      "Ġsate": 5376,
      "Ġsad": 5377,
      "Ġsel": 5378,
      "Ġsse": 5379,
      "Ġsam": 5380,
      "Ġsap": 5381,
      "Ġsend": 5382,
      "Ġsay": 5383,
      "Ġseld": 5384,
      "Ġslot": 5385,
      "Ġsdk": 5386,
      "Ġsoph": 5387,
      "Ġsqli": 5388,
      "esty": 5389,
      "essions": 5390,
      "Ġcow": 5391,
      "Ġclas": 5392,
      "Ġcud": 5393,
      "Ġcss": 5394,
      "Ġcurs": 5395,
      "Ġcuri": 5396,
      "Ġclaim": 5397,
      "Ġcris": 5398,
      "Ġcache": 5399,
      "Ġclang": 5400,
      "edes": 5401,
      "eded": 5402,
      "entation": 5403,
      "ename": 5404,
      "Ġdin": 5405,
      "Ġdus": 5406,
      "Ġdat": 5407,
      "Ġdil": 5408,
      "Ġdid": 5409,
      "Ġdram": 5410,
      "Ġdll": 5411,
      "Ġdoc": 5412,
      "Ġdang": 5413,
      "Ġdatal": 5414,
      "Ġdrink": 5415,
      "ale": 5416,
      "alty": 5417,
      "alances": 5418,
      "althy": 5419,
      "alancing": 5420,
      "aligned": 5421,
      "Ġpon": 5422,
      "Ġping": 5423,
      "Ġpan": 5424,
      "Ġplo": 5425,
      "Ġpse": 5426,
      "Ġpci": 5427,
      "Ġpru": 5428,
      "Ġpled": 5429,
      "Ġpure": 5430,
      "Ġplus": 5431,
      "Ġpang": 5432,
      "Ġpages": 5433,
      "Ġpthread": 5434,
      "Ġpaper": 5435,
      "Ġpessi": 5436,
      "Ġaro": 5437,
      "Ġami": 5438,
      "Ġapu": 5439,
      "Ġactu": 5440,
      "Ġreis": 5441,
      "Ġrech": 5442,
      "Ġreran": 5443,
      "Ġrepo": 5444,
      "Ġreten": 5445,
      "Ġrege": 5446,
      "Ġreven": 5447,
      "Ġreint": 5448,
      "Ġremis": 5449,
      "Ġrevol": 5450,
      "Ġreread": 5451,
      "Ġreto": 5452,
      "Ġreposi": 5453,
      "Ġrechar": 5454,
      "Ġrelen": 5455,
      "Ġreorder": 5456,
      "Ġresign": 5457,
      "Ġrebuil": 5458,
      "Ġremedi": 5459,
      "Ġretell": 5460,
      "ratic": 5461,
      "racies": 5462,
      "raby": 5463,
      "rables": 5464,
      "ortion": 5465,
      "orly": 5466,
      "ords": 5467,
      "orters": 5468,
      "orns": 5469,
      "orough": 5470,
      "tionable": 5471,
      "unity": 5472,
      "untu": 5473,
      "unctions": 5474,
      "ley": 5475,
      "leted": 5476,
      "leased": 5477,
      "level": 5478,
      "learning": 5479,
      "ison": 5480,
      "iser": 5481,
      "istant": 5482,
      "isition": 5483,
      "isitions": 5484,
      "lyph": 5485,
      "arce": 5486,
      "arched": 5487,
      "arization": 5488,
      "array": 5489,
      "Ġmp": 5490,
      "Ġmv": 5491,
      "Ġmur": 5492,
      "Ġmad": 5493,
      "Ġmet": 5494,
      "Ġmam": 5495,
      "Ġmap": 5496,
      "Ġmim": 5497,
      "Ġmak": 5498,
      "Ġmone": 5499,
      "Ġmeri": 5500,
      "Ġmill": 5501,
      "Ġmight": 5502,
      "Ġmetric": 5503,
      "Ġmcu": 5504,
      "Ġiner": 5505,
      "Ġindi": 5506,
      "Ġinpa": 5507,
      "Ġinva": 5508,
      "Ġinsig": 5509,
      "Ġinstruct": 5510,
      "Ġincomm": 5511,
      "Ġinhibi": 5512,
      "Ġinputs": 5513,
      "tak": 5514,
      "tairs": 5515,
      "roc": 5516,
      "rout": 5517,
      "rored": 5518,
      "rodu": 5519,
      "ross": 5520,
      "lacing": 5521,
      "lables": 5522,
      "lateral": 5523,
      "Ġfro": 5524,
      "Ġfur": 5525,
      "Ġfran": 5526,
      "Ġfew": 5527,
      "Ġfron": 5528,
      "Ġfall": 5529,
      "Ġfind": 5530,
      "Ġfath": 5531,
      "Ġframe": 5532,
      "Ġfigu": 5533,
      "Ġflash": 5534,
      "Ġflut": 5535,
      "Ġfellow": 5536,
      "lion": 5537,
      "liver": 5538,
      "liers": 5539,
      "liable": 5540,
      "limin": 5541,
      "licon": 5542,
      "lify": 5543,
      "lified": 5544,
      "lities": 5545,
      "lions": 5546,
      "lizing": 5547,
      "liances": 5548,
      "lihood": 5549,
      "Ġec": 5550,
      "Ġets": 5551,
      "Ġeul": 5552,
      "Ġepo": 5553,
      "Ġemin": 5554,
      "Ġeigh": 5555,
      "Ġevolution": 5556,
      "Ġecli": 5557,
      "Ġecho": 5558,
      "Ġeye": 5559,
      "Ġeasy": 5560,
      "Ġelastic": 5561,
      "Ġung": 5562,
      "Ġunte": 5563,
      "Ġunti": 5564,
      "Ġunus": 5565,
      "Ġunch": 5566,
      "Ġunas": 5567,
      "Ġunig": 5568,
      "Ġunad": 5569,
      "Ġunid": 5570,
      "Ġunper": 5571,
      "Ġunim": 5572,
      "Ġunlu": 5573,
      "Ġunma": 5574,
      "Ġunop": 5575,
      "Ġunno": 5576,
      "Ġunmis": 5577,
      "Ġunapp": 5578,
      "Ġunnec": 5579,
      "Ġunbe": 5580,
      "Ġunav": 5581,
      "Ġunprocess": 5582,
      "Ġundef": 5583,
      "Ġunava": 5584,
      "Ġunroll": 5585,
      "Ġundivid": 5586,
      "Ġunlike": 5587,
      "Ġunlabel": 5588,
      "Ġunambigu": 5589,
      "Ġunoffic": 5590,
      "Ġunauthor": 5591,
      "tedness": 5592,
      "omial": 5593,
      "Ġtv": 5594,
      "Ġtup": 5595,
      "Ġtall": 5596,
      "Ġtread": 5597,
      "Ġtrust": 5598,
      "Ġtutor": 5599,
      "rix": 5600,
      "riting": 5601,
      "riet": 5602,
      "rids": 5603,
      "riage": 5604,
      "Ġbes": 5605,
      "Ġble": 5606,
      "Ġbul": 5607,
      "Ġbid": 5608,
      "Ġband": 5609,
      "Ġbay": 5610,
      "Ġbring": 5611,
      "Ġbiling": 5612,
      "Ġbits": 5613,
      "Ġbright": 5614,
      "Ġborder": 5615,
      "ank": 5616,
      "ancies": 5617,
      "antages": 5618,
      "loop": 5619,
      "ush": 5620,
      "usal": 5621,
      "usible": 5622,
      "usoid": 5623,
      "Ġok": 5624,
      "Ġous": 5625,
      "Ġoct": 5626,
      "Ġoled": 5627,
      "Ġorac": 5628,
      "Ġouta": 5629,
      "Ġold": 5630,
      "Ġouter": 5631,
      "Ġoauth": 5632,
      "tspo": 5633,
      "Ġwic": 5634,
      "Ġwiz": 5635,
      "Ġwil": 5636,
      "Ġwors": 5637,
      "Ġwant": 5638,
      "Ġware": 5639,
      "Ġwins": 5640,
      "Ġwash": 5641,
      "Ġwell": 5642,
      "Ġwchar": 5643,
      "ecess": 5644,
      "ecure": 5645,
      "ecyc": 5646,
      "econds": 5647,
      "icing": 5648,
      "icks": 5649,
      "icious": 5650,
      "Ġcont": 5651,
      "Ġconting": 5652,
      "Ġconsi": 5653,
      "Ġconces": 5654,
      "Ġconund": 5655,
      "Ġconges": 5656,
      "Ġconvic": 5657,
      "Ġcondes": 5658,
      "Ġconni": 5659,
      "Ġconstruct": 5660,
      "Ġconsign": 5661,
      "Ġhd": 5662,
      "Ġher": 5663,
      "Ġhate": 5664,
      "Ġhers": 5665,
      "Ġhat": 5666,
      "Ġhap": 5667,
      "Ġhim": 5668,
      "Ġhour": 5669,
      "Ġhund": 5670,
      "Ġhover": 5671,
      "Ġhome": 5672,
      "Ġhass": 5673,
      "Ġhung": 5674,
      "Ġhither": 5675,
      "Ġhtt": 5676,
      "Ġhtml": 5677,
      "Ġhabit": 5678,
      "Ġhuge": 5679,
      "ito": 5680,
      "itously": 5681,
      "vering": 5682,
      "version": 5683,
      "versed": 5684,
      "ulf": 5685,
      "ull": 5686,
      "uling": 5687,
      "uled": 5688,
      "ultip": 5689,
      "sian": 5690,
      "sitive": 5691,
      "sification": 5692,
      "sibilities": 5693,
      "cel": 5694,
      "cere": 5695,
      "cell": 5696,
      "terday": 5697,
      "enty": 5698,
      "chable": 5699,
      "asts": 5700,
      "asting": 5701,
      "assion": 5702,
      "asingly": 5703,
      "assembly": 5704,
      "Ġgn": 5705,
      "Ġgr": 5706,
      "Ġgar": 5707,
      "Ġgit": 5708,
      "Ġgad": 5709,
      "Ġgru": 5710,
      "Ġgir": 5711,
      "Ġgall": 5712,
      "Ġgath": 5713,
      "Ġgrin": 5714,
      "Ġgive": 5715,
      "Ġgame": 5716,
      "Ġgrid": 5717,
      "Ġghost": 5718,
      "Ġglyph": 5719,
      "Ġdex": 5720,
      "Ġdetra": 5721,
      "Ġdelic": 5722,
      "Ġdevice": 5723,
      "atever": 5724,
      "Ġnu": 5725,
      "Ġnor": 5726,
      "Ġnas": 5727,
      "Ġnoun": 5728,
      "Ġnoc": 5729,
      "Ġnine": 5730,
      "Ġnab": 5731,
      "Ġnvid": 5732,
      "Ġname": 5733,
      "Ġnight": 5734,
      "Ġnice": 5735,
      "Ġnumb": 5736,
      "Ġnumber": 5737,
      "urb": 5738,
      "urn": 5739,
      "urp": 5740,
      "urship": 5741,
      "mpto": 5742,
      "mploy": 5743,
      "Ġio": 5744,
      "Ġits": 5745,
      "Ġips": 5746,
      "Ġiden": 5747,
      "Ġilli": 5748,
      "Ġdisper": 5749,
      "Ġdistan": 5750,
      "Ġdisgra": 5751,
      "Ġdisgu": 5752,
      "Ġdisab": 5753,
      "Ġdistro": 5754,
      "Ġdisorder": 5755,
      "Ġdistas": 5756,
      "Ġdiscip": 5757,
      "Ġdisinc": 5758,
      "Ġdiseng": 5759,
      "Ġdisinte": 5760,
      "Ġdisambigu": 5761,
      "Ġexces": 5762,
      "Ġexcess": 5763,
      "Ġexteri": 5764,
      "Ġexception": 5765,
      "ressions": 5766,
      "Ġsuch": 5767,
      "oll": 5768,
      "olved": 5769,
      "ollinear": 5770,
      "olished": 5771,
      "ques": 5772,
      "quate": 5773,
      "quality": 5774,
      "ership": 5775,
      "ppy": 5776,
      "ppers": 5777,
      "ppable": 5778,
      "ppery": 5779,
      "atted": 5780,
      "atrix": 5781,
      "ilt": 5782,
      "ilment": 5783,
      "dely": 5784,
      "debu": 5785,
      "device": 5786,
      "derer": 5787,
      "uty": 5788,
      "ckers": 5789,
      "ckdu": 5790,
      "ckgo": 5791,
      "ckdown": 5792,
      "std": 5793,
      "string": 5794,
      "studi": 5795,
      "Ġcome": 5796,
      "Ġcomment": 5797,
      "Ġcomposed": 5798,
      "Ġcommend": 5799,
      "Ġcommission": 5800,
      "Ġcomposition": 5801,
      "Ġcomfort": 5802,
      "ads": 5803,
      "adic": 5804,
      "adable": 5805,
      "admin": 5806,
      "Ġprofi": 5807,
      "Ġprofic": 5808,
      "Ġprolog": 5809,
      "Ġprosing": 5810,
      "Ġprope": 5811,
      "Ġpropos": 5812,
      "Ġprotoc": 5813,
      "ette": 5814,
      "etting": 5815,
      "etness": 5816,
      "Ġvc": 5817,
      "Ġven": 5818,
      "Ġvic": 5819,
      "Ġvain": 5820,
      "Ġvilla": 5821,
      "Ġenable": 5822,
      "Ġenorm": 5823,
      "Ġenchan": 5824,
      "Ġentang": 5825,
      "Ġenforce": 5826,
      "rants": 5827,
      "ranged": 5828,
      "ranging": 5829,
      "ctuation": 5830,
      "eling": 5831,
      "eled": 5832,
      "elded": 5833,
      "eliness": 5834,
      "update": 5835,
      "idence": 5836,
      "tend": 5837,
      "tended": 5838,
      "tenance": 5839,
      "tently": 5840,
      "select": 5841,
      "odal": 5842,
      "ouse": 5843,
      "ousness": 5844,
      "Ġstd": 5845,
      "Ġstorm": 5846,
      "Ġstore": 5847,
      "Ġstout": 5848,
      "Ġstring": 5849,
      "Ġstress": 5850,
      "Ġstrange": 5851,
      "Ġstuff": 5852,
      "Ġstumb": 5853,
      "aml": 5854,
      "bile": 5855,
      "bian": 5856,
      "Ġrecapp": 5857,
      "Ġreclaim": 5858,
      "testing": 5859,
      "thers": 5860,
      "thered": 5861,
      "Ġspin": 5862,
      "Ġspon": 5863,
      "Ġsplic": 5864,
      "Ġspars": 5865,
      "Ġspaw": 5866,
      "Ġsprint": 5867,
      "Ġspace": 5868,
      "Ġspher": 5869,
      "atedly": 5870,
      "Ġcompar": 5871,
      "Ġcompres": 5872,
      "Ġcompart": 5873,
      "Ġcompute": 5874,
      "Ġcompress": 5875,
      "Ġcompati": 5876,
      "Ġcompelling": 5877,
      "Ġcomponent": 5878,
      "Ġcompassion": 5879,
      "Ġsubti": 5880,
      "Ġsubli": 5881,
      "Ġsubdu": 5882,
      "Ġsubcon": 5883,
      "Ġsubmis": 5884,
      "Ġsubpro": 5885,
      "Ġsubex": 5886,
      "Ġsublinear": 5887,
      "Ġsubprocess": 5888,
      "Ġsubtle": 5889,
      "Ġsubdire": 5890,
      "Ġsubordin": 5891,
      "Ġsubdom": 5892,
      "Ġsubvoc": 5893,
      "Ġsubvari": 5894,
      "Ġsubele": 5895,
      "Ġsubrout": 5896,
      "Ġcop": 5897,
      "Ġcoprocess": 5898,
      "Ġcohes": 5899,
      "Ġcoeffic": 5900,
      "Ġcogni": 5901,
      "fix": 5902,
      "fiability": 5903,
      "alizers": 5904,
      "alizable": 5905,
      "Ġads": 5906,
      "Ġadmitted": 5907,
      "cile": 5908,
      "citing": 5909,
      "Ġdir": 5910,
      "Ġdili": 5911,
      "Ġdimen": 5912,
      "Ġdiac": 5913,
      "Ġdielect": 5914,
      "Ġoverd": 5915,
      "Ġoverlo": 5916,
      "Ġoverrun": 5917,
      "Ġoverrid": 5918,
      "Ġoverlook": 5919,
      "rum": 5920,
      "rums": 5921,
      "Ġpret": 5922,
      "Ġprevi": 5923,
      "Ġprema": 5924,
      "Ġprecip": 5925,
      "Ġprerequ": 5926,
      "Ġprelimin": 5927,
      "Ġactions": 5928,
      "Ġacous": 5929,
      "Ġacron": 5930,
      "Ġacute": 5931,
      "Ġacqui": 5932,
      "Ġacade": 5933,
      "Ġacquire": 5934,
      "Ġshel": 5935,
      "Ġshout": 5936,
      "Ġshell": 5937,
      "Ġshared": 5938,
      "Ġshrink": 5939,
      "Ġshakes": 5940,
      "Ġchap": 5941,
      "Ġchron": 5942,
      "Ġchamp": 5943,
      "Ġchie": 5944,
      "aph": 5945,
      "apers": 5946,
      "apix": 5947,
      "Ġthing": 5948,
      "Ġthous": 5949,
      "Ġthir": 5950,
      "Ġthumb": 5951,
      "Ġthird": 5952,
      "Ġthorough": 5953,
      "Ġresour": 5954,
      "Ġresyn": 5955,
      "Ġrescal": 5956,
      "Ġresist": 5957,
      "Ġrestate": 5958,
      "Ġresource": 5959,
      "Ġresynchron": 5960,
      "Ġreschedul": 5961,
      "Ġresync": 5962,
      "Ġanten": 5963,
      "Ġanag": 5964,
      "Ġanxi": 5965,
      "Ġanother": 5966,
      "perity": 5967,
      "umn": 5968,
      "umbles": 5969,
      "timon": 5970,
      "timal": 5971,
      "dingly": 5972,
      "lination": 5973,
      "Ġju": 5974,
      "Ġjut": 5975,
      "Ġjet": 5976,
      "Ġjest": 5977,
      "Ġjot": 5978,
      "Ġjust": 5979,
      "Ġjdk": 5980,
      "Ġjvm": 5981,
      "Ġjquery": 5982,
      "Ġjunit": 5983,
      "Ġjealous": 5984,
      "Ġrepar": 5985,
      "Ġreprehen": 5986,
      "Ġreported": 5987,
      "Ġimpul": 5988,
      "Ġimpru": 5989,
      "Ġimpud": 5990,
      "Ġimpact": 5991,
      "Ġimprop": 5992,
      "Ġimplicit": 5993,
      "Ġimprec": 5994,
      "ulable": 5995,
      "Ġdecim": 5996,
      "Ġdecided": 5997,
      "Ġdecision": 5998,
      "Ġsea": 5999,
      "Ġsele": 6000,
      "Ġseve": 6001,
      "Ġseam": 6002,
      "Ġseven": 6003,
      "Ġsemap": 6004,
      "Ġsegue": 6005,
      "Ġlogo": 6006,
      "Ġloose": 6007,
      "Ġasci": 6008,
      "Ġaspec": 6009,
      "Ġasynchron": 6010,
      "Ġasync": 6011,
      "tandings": 6012,
      "geable": 6013,
      "ghten": 6014,
      "vide": 6015,
      "Ġtell": 6016,
      "Ġtelling": 6017,
      "Ġteraby": 6018,
      "Ġwear": 6019,
      "Ġpointed": 6020,
      "rently": 6021,
      "Ġalex": 6022,
      "Ġalong": 6023,
      "Ġallot": 6024,
      "Ġalert": 6025,
      "acting": 6026,
      "Ġlaz": 6027,
      "Ġlamb": 6028,
      "Ġlapt": 6029,
      "Ġintermit": 6030,
      "Ġinternet": 6031,
      "Ġintermedi": 6032,
      "Ġquery": 6033,
      "due": 6034,
      "Ġliter": 6035,
      "Ġlived": 6036,
      "Ġlimit": 6037,
      "Ġlikeness": 6038,
      "ishment": 6039,
      "eware": 6040,
      "Ġexped": 6041,
      "Ġexpand": 6042,
      "Ġexplicit": 6043,
      "comes": 6044,
      "formed": 6045,
      "Ġmultin": 6046,
      "Ġappa": 6047,
      "Ġappen": 6048,
      "Ġapple": 6049,
      "Ġappend": 6050,
      "Ġapplication": 6051,
      "outed": 6052,
      "Ġtransg": 6053,
      "Ġtranslu": 6054,
      "Ġtranslation": 6055,
      "Ġtranscei": 6056,
      "ounder": 6057,
      "ounced": 6058,
      "Ġlect": 6059,
      "Ġleap": 6060,
      "Ġlevel": 6061,
      "Ġleaf": 6062,
      "lugged": 6063,
      "dient": 6064,
      "ditional": 6065,
      "ditionally": 6066,
      "dimension": 6067,
      "Ġscene": 6068,
      "Ġscreens": 6069,
      "Ġscarce": 6070,
      "Ġautop": 6071,
      "Ġautof": 6072,
      "Ġobstru": 6073,
      "Ġobtru": 6074,
      "tuous": 6075,
      "Ġinsta": 6076,
      "Ġinsul": 6077,
      "Ġinstitu": 6078,
      "Ġinsane": 6079,
      "Ġmissing": 6080,
      "Ġmisread": 6081,
      "Ġmischie": 6082,
      "Ġmislead": 6083,
      "Ġmistaken": 6084,
      "osh": 6085,
      "osity": 6086,
      "osystem": 6087,
      "Ġfaq": 6088,
      "Ġfact": 6089,
      "Ġfaint": 6090,
      "Ġfails": 6091,
      "Ġfault": 6092,
      "Ġfailo": 6093,
      "matics": 6094,
      "matical": 6095,
      "Ġarrow": 6096,
      "Ġarbit": 6097,
      "Ġperl": 6098,
      "Ġperv": 6099,
      "Ġperva": 6100,
      "Ġperman": 6101,
      "Ġpercen": 6102,
      "Ġpercept": 6103,
      "Ġperipher": 6104,
      "Ġinfo": 6105,
      "Ġinfla": 6106,
      "Ġinfers": 6107,
      "Ġinfam": 6108,
      "Ġinflic": 6109,
      "Ġinfos": 6110,
      "Ġinflection": 6111,
      "Ġinfrequ": 6112,
      "itigno": 6113,
      "Ġnets": 6114,
      "Ġneat": 6115,
      "Ġneural": 6116,
      "Ġneuro": 6117,
      "ggable": 6118,
      "ggering": 6119,
      "otrop": 6120,
      "Ġupvo": 6121,
      "Ġupda": 6122,
      "Ġupcyc": 6123,
      "Ġmultipro": 6124,
      "Ġmultilay": 6125,
      "mock": 6126,
      "rypt": 6127,
      "rons": 6128,
      "Ġhex": 6129,
      "Ġheigh": 6130,
      "Ġheart": 6131,
      "Ġheav": 6132,
      "Ġheight": 6133,
      "Ġhearted": 6134,
      "Ġhealth": 6135,
      "Ġdesper": 6136,
      "Ġdespa": 6137,
      "Ġdesynchron": 6138,
      "Ġwhy": 6139,
      "Ġwhen": 6140,
      "Ġwhol": 6141,
      "Ġwhir": 6142,
      "Ġwhim": 6143,
      "Ġwholes": 6144,
      "Ġwhatever": 6145,
      "phor": 6146,
      "phere": 6147,
      "phrase": 6148,
      "Ġrom": 6149,
      "Ġrow": 6150,
      "Ġrough": 6151,
      "pensively": 6152,
      "tainability": 6153,
      "Ġbeg": 6154,
      "Ġbeh": 6155,
      "Ġbehold": 6156,
      "Ġbefri": 6157,
      "Ġpair": 6158,
      "Ġpains": 6159,
      "Ġparame": 6160,
      "Ġattun": 6161,
      "Ġrefund": 6162,
      "Ġreflex": 6163,
      "Ġreference": 6164,
      "Ġrefurb": 6165,
      "Ġmemb": 6166,
      "aks": 6167,
      "akable": 6168,
      "fically": 6169,
      "session": 6170,
      "Ġwebin": 6171,
      "Ġwebapp": 6172,
      "Ġwebview": 6173,
      "Ġwebser": 6174,
      "Ġwebso": 6175,
      "Ġwebmas": 6176,
      "Ġwebsite": 6177,
      "Ġwebdri": 6178,
      "Ġwebassembly": 6179,
      "criber": 6180,
      "tries": 6181,
      "Ġtrajec": 6182,
      "Ġtravers": 6183,
      "Ġtraffic": 6184,
      "Ġtrash": 6185,
      "Ġstack": 6186,
      "Ġstake": 6187,
      "nout": 6188,
      "Ġparlo": 6189,
      "Ġconsecu": 6190,
      "Ġconscious": 6191,
      "ocurren": 6192,
      "Ġray": 6193,
      "Ġrati": 6194,
      "Ġramp": 6195,
      "Ġrasp": 6196,
      "Ġmore": 6197,
      "Ġmove": 6198,
      "Ġmozilla": 6199,
      "Ġcoll": 6200,
      "Ġcollect": 6201,
      "Ġcollinear": 6202,
      "build": 6203,
      "logy": 6204,
      "logram": 6205,
      "Ġconflu": 6206,
      "Ġconfine": 6207,
      "inear": 6208,
      "lashes": 6209,
      "ptly": 6210,
      "mming": 6211,
      "mmed": 6212,
      "Ġld": 6213,
      "Ġlp": 6214,
      "Ġlarge": 6215,
      "Ġlisting": 6216,
      "Ġlpc": 6217,
      "entient": 6218,
      "entials": 6219,
      "entiality": 6220,
      "Ġday": 6221,
      "Ġdaugh": 6222,
      "Ġmax": 6223,
      "Ġmay": 6224,
      "Ġunsp": 6225,
      "Ġunset": 6226,
      "Ġunshi": 6227,
      "Ġunsatis": 6228,
      "Ġunsurp": 6229,
      "Ġoutrun": 6230,
      "Ġoutflow": 6231,
      "Ġtag": 6232,
      "Ġtaked": 6233,
      "Ġsober": 6234,
      "Ġregard": 6235,
      "Ġregress": 6236,
      "Ġregret": 6237,
      "Ġnobody": 6238,
      "ghtfully": 6239,
      "Ġassaul": 6240,
      "erenced": 6241,
      "erently": 6242,
      "pected": 6243,
      "pective": 6244,
      "pecified": 6245,
      "Ġboy": 6246,
      "arely": 6247,
      "visor": 6248,
      "visions": 6249,
      "Ġkick": 6250,
      "Ġkill": 6251,
      "Ġorient": 6252,
      "Ġincen": 6253,
      "Ġincred": 6254,
      "Ġincorre": 6255,
      "Ġdefer": 6256,
      "Ġrnn": 6257,
      "Ġdiscord": 6258,
      "ractical": 6259,
      "Ġplays": 6260,
      "Ġmodular": 6261,
      "Ġmodule": 6262,
      "Ġcommons": 6263,
      "Ġforw": 6264,
      "Ġforth": 6265,
      "Ġforfe": 6266,
      "Ġfortun": 6267,
      "Ġgrace": 6268,
      "Ġgracious": 6269,
      "Ġgradle": 6270,
      "heres": 6271,
      "Ġminds": 6272,
      "Ġminded": 6273,
      "Ġminute": 6274,
      "Ġminib": 6275,
      "Ġaccustom": 6276,
      "Ġaccount": 6277,
      "Ġaccording": 6278,
      "ogether": 6279,
      "Ġcorout": 6280,
      "Ġcorners": 6281,
      "Ġcoroll": 6282,
      "Ġindo": 6283,
      "Ġindust": 6284,
      "Ġundesign": 6285,
      "Ġundeni": 6286,
      "ctedly": 6287,
      "Ġswap": 6288,
      "Ġsway": 6289,
      "Ġswif": 6290,
      "Ġswoop": 6291,
      "abil": 6292,
      "mited": 6293,
      "Ġuis": 6294,
      "orders": 6295,
      "pired": 6296,
      "pilation": 6297,
      "piece": 6298,
      "ortune": 6299,
      "Ġunderw": 6300,
      "Ġundergo": 6301,
      "Ġtrip": 6302,
      "Ġtrivi": 6303,
      "Ġtrigonom": 6304,
      "luster": 6305,
      "land": 6306,
      "lance": 6307,
      "Ġvide": 6308,
      "Ġtheir": 6309,
      "Ġthems": 6310,
      "Ġmanag": 6311,
      "Ġmanager": 6312,
      "Ġnonpro": 6313,
      "edily": 6314,
      "eneration": 6315,
      "Ġaffix": 6316,
      "Ġaffected": 6317,
      "Ġfea": 6318,
      "Ġfeat": 6319,
      "Ġfemal": 6320,
      "Ġbackend": 6321,
      "Ġbackdo": 6322,
      "Ġbackgro": 6323,
      "Ġworksh": 6324,
      "Ġworkflow": 6325,
      "Ġencumb": 6326,
      "sert": 6327,
      "Ġyear": 6328,
      "Ġyouth": 6329,
      "Ġkeen": 6330,
      "Ġkeys": 6331,
      "Ġprim": 6332,
      "Ġpriv": 6333,
      "Ġprimi": 6334,
      "Ġfire": 6335,
      "Ġfide": 6336,
      "Ġfiref": 6337,
      "Ġconcre": 6338,
      "Ġconclusive": 6339,
      "Ġhyb": 6340,
      "Ġhypers": 6341,
      "Ġdatagram": 6342,
      "Ġdataset": 6343,
      "Ġdatabase": 6344,
      "Ġdatagrid": 6345,
      "bern": 6346,
      "berry": 6347,
      "gibility": 6348,
      "shot": 6349,
      "shots": 6350,
      "shalled": 6351,
      "Ġsurren": 6352,
      "Ġsurfac": 6353,
      "Ġunfor": 6354,
      "Ġunfav": 6355,
      "Ġunfortun": 6356,
      "Ġfinan": 6357,
      "Ġsupposi": 6358,
      "Ġmicroch": 6359,
      "Ġmicrocomp": 6360,
      "Ġmicroprocess": 6361,
      "Ġmicroso": 6362,
      "tood": 6363,
      "Ġusec": 6364,
      "Ġuseless": 6365,
      "Ġsau": 6366,
      "Ġsafe": 6367,
      "Ġpress": 6368,
      "Ġpressing": 6369,
      "Ġunimp": 6370,
      "Ġespec": 6371,
      "Ġestee": 6372,
      "Ġvertic": 6373,
      "Ġverbo": 6374,
      "teries": 6375,
      "Ġpersever": 6376,
      "Ġaware": 6377,
      "Ġemplo": 6378,
      "Ġempty": 6379,
      "chedule": 6380,
      "hared": 6381,
      "Ġrigor": 6382,
      "Ġsynth": 6383,
      "Ġsyntac": 6384,
      "Ġsynthe": 6385,
      "Ġsyntax": 6386,
      "Ġdoct": 6387,
      "Ġdoating": 6388,
      "Ġdownload": 6389,
      "Ġdowntime": 6390,
      "Ġformer": 6391,
      "Ġformula": 6392,
      "Ġinvoc": 6393,
      "Ġspecimen": 6394,
      "beit": 6395,
      "beat": 6396,
      "beans": 6397,
      "peg": 6398,
      "Ġtires": 6399,
      "Ġtitle": 6400,
      "Ġcalend": 6401,
      "Ġwai": 6402,
      "Ġwait": 6403,
      "Ġwake": 6404,
      "Ġwaves": 6405,
      "Ġgeograph": 6406,
      "Ġvisiting": 6407,
      "Ġentren": 6408,
      "Ġember": 6409,
      "Ġembodi": 6410,
      "Ġunpin": 6411,
      "Ġunpardon": 6412,
      "ithms": 6413,
      "ithmic": 6414,
      "Ġdisplace": 6415,
      "Ġrender": 6416,
      "Ġguarded": 6417,
      "Ġreconc": 6418,
      "Ġreconsider": 6419,
      "Ġcounsel": 6420,
      "titudes": 6421,
      "Ġsilicon": 6422,
      "Ġrestra": 6423,
      "Ġrestric": 6424,
      "Ġfoots": 6425,
      "Ġfoolish": 6426,
      "Ġtypo": 6427,
      "associ": 6428,
      "positional": 6429,
      "Ġkeyno": 6430,
      "cores": 6431,
      "runk": 6432,
      "Ġcloth": 6433,
      "Ġcapit": 6434,
      "Ġcapac": 6435,
      "Ġamid": 6436,
      "Ġamuse": 6437,
      "Ġbug": 6438,
      "signing": 6439,
      "ctories": 6440,
      "Ġreproach": 6441,
      "Ġreprocess": 6442,
      "Ġreproof": 6443,
      "cerned": 6444,
      "ients": 6445,
      "ienced": 6446,
      "nific": 6447,
      "Ġpyc": 6448,
      "Ġpyqt": 6449,
      "Ġtwink": 6450,
      "Ġcontrast": 6451,
      "ternal": 6452,
      "Ġsuperfic": 6453,
      "Ġsuperior": 6454,
      "Ġsummer": 6455,
      "Ġones": 6456,
      "Ġonbo": 6457,
      "Ġeras": 6458,
      "Ġerrant": 6459,
      "Ġergonom": 6460,
      "Ġerrone": 6461,
      "Ġslide": 6462,
      "Ġslides": 6463,
      "Ġsecure": 6464,
      "Ġclear": 6465,
      "Ġcleve": 6466,
      "Ġpredomin": 6467,
      "Ġpredecess": 6468,
      "istency": 6469,
      "layout": 6470,
      "Ġunwield": 6471,
      "ceived": 6472,
      "ceivable": 6473,
      "quivoc": 6474,
      "Ġengage": 6475,
      "Ġengulf": 6476,
      "Ġhyperbolic": 6477,
      "Ġhyperplan": 6478,
      "Ġhyperparame": 6479,
      "netic": 6480,
      "utability": 6481,
      "Ġskills": 6482,
      "Ġmono": 6483,
      "Ġmonit": 6484,
      "Ġforever": 6485,
      "Ġforebod": 6486,
      "Ġoutsh": 6487,
      "Ġirks": 6488,
      "Ġvalu": 6489,
      "Ġstrip": 6490,
      "Ġstriking": 6491,
      "Ġtechni": 6492,
      "umped": 6493,
      "Ġxor": 6494,
      "Ġrank": 6495,
      "Ġtender": 6496,
      "Ġtenden": 6497,
      "Ġbrother": 6498,
      "Ġholo": 6499,
      "Ġholid": 6500,
      "Ġhotspo": 6501,
      "Ġharsh": 6502,
      "Ġimmen": 6503,
      "Ġimmin": 6504,
      "Ġimage": 6505,
      "Ġextraordin": 6506,
      "Ġextravag": 6507,
      "Ġvariable": 6508,
      "Ġtempor": 6509,
      "Ġtempora": 6510,
      "Ġtemplati": 6511,
      "eek": 6512,
      "Ġrumo": 6513,
      "Ġruby": 6514,
      "Ġsender": 6515,
      "Ġsenior": 6516,
      "Ġclients": 6517,
      "Ġunmar": 6518,
      "Ġunmod": 6519,
      "Ġheadh": 6520,
      "Ġheadset": 6521,
      "structures": 6522,
      "structural": 6523,
      "volutional": 6524,
      "scan": 6525,
      "scope": 6526,
      "Ġsymb": 6527,
      "Ġserv": 6528,
      "Ġservic": 6529,
      "Ġcoded": 6530,
      "Ġeleg": 6531,
      "Ġelement": 6532,
      "Ġunbran": 6533,
      "Ġgross": 6534,
      "sembles": 6535,
      "Ġautomo": 6536,
      "Ġautomati": 6537,
      "ystems": 6538,
      "turn": 6539,
      "Ġagglom": 6540,
      "Ġmorning": 6541,
      "Ġdissoci": 6542,
      "Ġproduct": 6543,
      "Ġproduction": 6544,
      "Ġspeec": 6545,
      "Ġjoint": 6546,
      "Ġpopup": 6547,
      "Ġneglect": 6548,
      "Ġunderstanding": 6549,
      "easible": 6550,
      "ologies": 6551,
      "uries": 6552,
      "Ġspoof": 6553,
      "Ġcircums": 6554,
      "Ġcircuit": 6555,
      "Ġagain": 6556,
      "ropri": 6557,
      "Ġfully": 6558,
      "Ġfulls": 6559,
      "Ġelectro": 6560,
      "Ġelectrom": 6561,
      "Ġunclo": 6562,
      "Ġuncover": 6563,
      "Ġopportun": 6564,
      "Ġopportune": 6565,
      "Ġhandwri": 6566,
      "Ġnewbi": 6567,
      "Ġnewcom": 6568,
      "Ġnewsp": 6569,
      "Ġexclusive": 6570,
      "Ġprofessed": 6571,
      "Ġpropriet": 6572,
      "Ġprefer": 6573,
      "Ġacquit": 6574,
      "Ġlocation": 6575,
      "Ġabsolute": 6576,
      "Ġattende": 6577,
      "cending": 6578,
      "cency": 6579,
      "rises": 6580,
      "risingly": 6581,
      "Ġtestimon": 6582,
      "onyms": 6583,
      "Ġrelev": 6584,
      "Ġrelease": 6585,
      "Ġintrus": 6586,
      "Ġfloating": 6587,
      "Ġunreason": 6588,
      "Ġunrecogn": 6589,
      "Ġobject": 6590,
      "Ġobservation": 6591,
      "Ġinstant": 6592,
      "Ġinstance": 6593,
      "Ġsimul": 6594,
      "Ġreassign": 6595,
      "Ġmargin": 6596,
      "Ġuninte": 6597,
      "Ġuniniti": 6598,
      "Ġcontext": 6599,
      "Ġhabi": 6600,
      "Ġhibern": 6601,
      "Ġimmer": 6602,
      "Ġimmedi": 6603,
      "Ġextension": 6604,
      "Ġsucces": 6605,
      "Ġsuccin": 6606,
      "typing": 6607,
      "Ġadapter": 6608,
      "Ġautocomple": 6609,
      "Ġplayer": 6610,
      "Ġcustomer": 6611,
      "Ġreactive": 6612,
      "Ġmagic": 6613,
      "Ġmagnit": 6614,
      "Ġuntrans": 6615,
      "Ġuntoward": 6616,
      "Ġuncontro": 6617,
      "Ġtreas": 6618,
      "Ġtreat": 6619,
      "Ġtremend": 6620,
      "Ġhashta": 6621,
      "Ġgamep": 6622,
      "Ġvoice": 6623,
      "Ġcheap": 6624,
      "Ġteamlead": 6625,
      "Ġpolygon": 6626,
      "Ġpolymor": 6627,
      "Ġoblig": 6628,
      "Ġbreakthrough": 6629,
      "bsd": 6630,
      "Ġschem": 6631,
      "Ġdouble": 6632,
      "Ġafraid": 6633,
      "Ġineff": 6634,
      "Ġinevi": 6635,
      "Ġinstrument": 6636,
      "Ġbinary": 6637,
      "Ġstoop": 6638,
      "Ġstochas": 6639,
      "Ġcomputer": 6640,
      "Ġcomputation": 6641,
      "Ġcomputers": 6642,
      "Ġcomplement": 6643,
      "Ġpostprocess": 6644,
      "command": 6645,
      "Ġcolleag": 6646,
      "Ġdiscrepan": 6647,
      "Ġminimal": 6648,
      "Ġflatten": 6649,
      "Ġflatterer": 6650,
      "Ġaudio": 6651,
      "Ġcryptocurren": 6652,
      "Ġterra": 6653,
      "Ġluc": 6654,
      "Ġstip": 6655,
      "Ġcertific": 6656,
      "Ġduckdu": 6657,
      "Ġpassion": 6658,
      "Ġastounding": 6659,
      "Ġmerch": 6660,
      "Ġmedia": 6661,
      "Ġuneven": 6662,
      "Ġunequal": 6663,
      "Ġunemploy": 6664,
      "Ġunequivoc": 6665,
      "rieties": 6666,
      "Ġblame": 6667,
      "Ġwidow": 6668,
      "Ġcontent": 6669,
      "Ġhumour": 6670,
      "Ġhumili": 6671,
      "Ġhumane": 6672,
      "Ġhumoured": 6673,
      "Ġgloom": 6674,
      "Ġnetwork": 6675,
      "Ġnormal": 6676,
      "Ġentertain": 6677,
      "Ġenterprene": 6678,
      "Ġalleged": 6679,
      "ourably": 6680,
      "Ġauthori": 6681,
      "Ġattach": 6682,
      "Ġparalla": 6683,
      "Ġmodel": 6684,
      "Ġtypical": 6685,
      "Ġtypede": 6686,
      "dbc": 6687,
      "dbms": 6688,
      "Ġsinusoid": 6689,
      "Ġsilver": 6690,
      "Ġsilhou": 6691,
      "Ġcentroid": 6692,
      "Ġderivation": 6693,
      "Ġpiec": 6694,
      "Ġpivo": 6695,
      "Ġpivot": 6696,
      "Ġpowers": 6697,
      "Ġmiddle": 6698,
      "Ġintrospec": 6699,
      "Ġfreed": 6700,
      "Ġfasten": 6701,
      "Ġunexception": 6702,
      "Ġunexplo": 6703,
      "Ġblockqu": 6704,
      "Ġblockchain": 6705,
      "Ġcontrol": 6706,
      "Ġcontroll": 6707,
      "Ġcontroversi": 6708,
      "Ġendors": 6709,
      "Ġanyone": 6710,
      "Ġinternship": 6711,
      "Ġargument": 6712,
      "Ġparadig": 6713,
      "Ġruntime": 6714,
      "cuous": 6715,
      "faction": 6716,
      "facts": 6717,
      "factor": 6718,
      "offs": 6719,
      "vocations": 6720,
      "Ġsomeone": 6721,
      "Ġsomebody": 6722,
      "Ġcivi": 6723,
      "Ġcivil": 6724,
      "Ġcann": 6725,
      "Ġcanv": 6726,
      "Ġdriver": 6727,
      "Ġpassword": 6728,
      "Ġapache": 6729,
      "Ġrequest": 6730,
      "argeted": 6731,
      "Ġfraction": 6732,
      "Ġfancy": 6733,
      "Ġemulator": 6734,
      "Ġowners": 6735,
      "Ġwindow": 6736,
      "Ġgeni": 6737,
      "Ġgenuine": 6738,
      "Ġdeepf": 6739,
      "Ġdeepmind": 6740,
      "Ġign": 6741,
      "Ġigni": 6742,
      "Ġvolunt": 6743,
      "Ġentire": 6744,
      "Ġentitle": 6745,
      "Ġcomplais": 6746,
      "Ġadjac": 6747,
      "Ġshortc": 6748,
      "Ġreparameteri": 6749,
      "Ġimplement": 6750,
      "Ġimplementation": 6751,
      "Ġimproper": 6752,
      "Ġtelecom": 6753,
      "Ġtelecommunic": 6754,
      "Ġweights": 6755,
      "Ġtranspor": 6756,
      "Ġfactori": 6757,
      "Ġcyberbi": 6758,
      "Ġexperiment": 6759,
      "Ġparallel": 6760,
      "bbing": 6761,
      "casted": 6762,
      "emy": 6763,
      "variate": 6764,
      "Ġ16": 6765,
      "Ġvehic": 6766,
      "Ġcurta": 6767,
      "Ġplur": 6768,
      "Ġabove": 6769,
      "Ġretry": 6770,
      "Ġintrigu": 6771,
      "Ġuncompro": 6772,
      "Ġuncommon": 6773,
      "Ġuncomfor": 6774,
      "Ġbenefi": 6775,
      "Ġhorri": 6776,
      "Ġhomework": 6777,
      "Ġdevas": 6778,
      "Ġproject": 6779,
      "Ġquadrang": 6780,
      "Ġlibrary": 6781,
      "Ġscala": 6782,
      "Ġfavouri": 6783,
      "Ġrobot": 6784,
      "Ġmetaphor": 6785,
      "ocument": 6786,
      "Ġtasks": 6787,
      "Ġemployee": 6788,
      "Ġedit": 6789,
      "Ġultim": 6790,
      "Ġutf": 6791,
      "Ġcautious": 6792,
      "Ġdedup": 6793,
      "Ġpicture": 6794,
      "Ġinexper": 6795,
      "Ġinexpres": 6796,
      "Ġeigens": 6797,
      "Ġefficient": 6798,
      "Ġtunnel": 6799,
      "Ġblun": 6800,
      "Ġbrowser": 6801,
      "Ġoffice": 6802,
      "Ġwrite": 6803,
      "Ġconceal": 6804,
      "Ġhackath": 6805,
      "Ġhope": 6806,
      "Ġhopeless": 6807,
      "Ġexcite": 6808,
      "Ġprobabil": 6809,
      "Ġprogress": 6810,
      "Ġprocessor": 6811,
      "Ġaddress": 6812,
      "Ġovercrow": 6813,
      "Ġoverclock": 6814,
      "Ġchatgpt": 6815,
      "Ġchatbot": 6816,
      "Ġthreads": 6817,
      "Ġthreadpo": 6818,
      "Ġdeceit": 6819,
      "Ġqueue": 6820,
      "Ġsofts": 6821,
      "Ġsolit": 6822,
      "Ġsolidi": 6823,
      "Ġindistin": 6824,
      "Ġindiscre": 6825,
      "Ġsmartw": 6826,
      "2003": 6827,
      "2008": 6828,
      "Ġaftermath": 6829,
      "Ġeveryone": 6830,
      "break": 6831,
      "breaking": 6832,
      "client": 6833,
      "click": 6834,
      "Ġslack": 6835,
      "Ġamaze": 6836,
      "Ġinvolunt": 6837,
      "taccess": 6838,
      "Ġflick": 6839,
      "Ġfriend": 6840,
      "Ġfriends": 6841,
      "Ġellips": 6842,
      "Ġunlearn": 6843,
      "Ġbetra": 6844,
      "Ġconvex": 6845,
      "Ġconvey": 6846,
      "Ġcondition": 6847,
      "Ġhesitating": 6848,
      "Ġdissimil": 6849,
      "qualified": 6850,
      "Ġrecrui": 6851,
      "Ġrecruit": 6852,
      "Ġrecipient": 6853,
      "Ġcompany": 6854,
      "Ġjson": 6855,
      "Ġsearcher": 6856,
      "Ġlaws": 6857,
      "Ġdeserved": 6858,
      "Ġpartn": 6859,
      "Ġpartition": 6860,
      "Ġphoto": 6861,
      "Ġgeometric": 6862,
      "Ġgeometri": 6863,
      "Ġtechnology": 6864,
      "Ġdigital": 6865,
      "Ġfulfill": 6866,
      "Ġpleasan": 6867,
      "Ġpleasant": 6868,
      "Ġcheerful": 6869,
      "Ġbehaviour": 6870,
      "Ġvirtual": 6871,
      "about": 6872,
      "framework": 6873,
      "irectional": 6874,
      "places": 6875,
      "panel": 6876,
      "uousness": 6877,
      "informatics": 6878,
      "Ġsometh": 6879,
      "Ġsitu": 6880,
      "Ġprag": 6881,
      "Ġpipel": 6882,
      "Ġavat": 6883,
      "Ġavow": 6884,
      "Ġavowed": 6885,
      "Ġfuck": 6886,
      "Ġfocus": 6887,
      "Ġfundra": 6888,
      "Ġbattle": 6889,
      "Ġhandsome": 6890,
      "Ġgrowth": 6891,
      "Ġipv": 6892,
      "Ġextrins": 6893,
      "Ġprovider": 6894,
      "Ġenlarge": 6895,
      "Ġstartup": 6896,
      "Ġrecycler": 6897,
      "Ġcolour": 6898,
      "Ġcopyri": 6899,
      "Ġadobe": 6900,
      "Ġoversee": 6901,
      "Ġsharpen": 6902,
      "Ġreshuff": 6903,
      "Ġimperf": 6904,
      "Ġlocaldate": 6905,
      "Ġlatter": 6906,
      "Ġlifecyc": 6907,
      "Ġfacebook": 6908,
      "Ġperpet": 6909,
      "Ġwhites": 6910,
      "Ġbeginner": 6911,
      "Ġlongit": 6912,
      "Ġsoftware": 6913,
      "Ġassistant": 6914,
      "Ġassistants": 6915,
      "Ġrisk": 6916,
      "Ġuiview": 6917,
      "Ġuikit": 6918,
      "Ġreconfig": 6919,
      "Ġglobal": 6920,
      "Ġconfirm": 6921,
      "Ġgentlemen": 6922,
      "Ġdynamic": 6923,
      "Ġselfish": 6924,
      "Ġselfhos": 6925,
      "Ġcenter": 6926,
      "Ġcampaign": 6927,
      "Ġcatalog": 6928,
      "Ġdropdown": 6929,
      "Ġpatter": 6930,
      "Ġpatron": 6931,
      "Ġretire": 6932,
      "Ġredeploy": 6933,
      "Ġreimbur": 6934,
      "Ġmsvc": 6935,
      "Ġmilest": 6936,
      "Ġepis": 6937,
      "Ġearnest": 6938,
      "Ġunknow": 6939,
      "Ġunknown": 6940,
      "Ġunatta": 6941,
      "Ġcontact": 6942,
      "Ġnervous": 6943,
      "Ġnanotechnolog": 6944,
      "Ġdisturb": 6945,
      "Ġprocure": 6946,
      "Ġproofread": 6947,
      "Ġvulg": 6948,
      "Ġstudio": 6949,
      "Ġsubtot": 6950,
      "Ġsemicol": 6951,
      "Ġasympto": 6952,
      "Ġlaunch": 6953,
      "Ġlifehack": 6954,
      "Ġscript": 6955,
      "Ġscope": 6956,
      "Ġabandon": 6957,
      "Ġmegapix": 6958,
      "Ġrapid": 6959,
      "Ġbootcamp": 6960,
      "Ġcorporation": 6961,
      "abyte": 6962,
      "Ġcountry": 6963,
      "Ġirresis": 6964,
      "Ġmatrimon": 6965,
      "Ġprofessional": 6966,
      "Ġacquaintances": 6967,
      "Ġtouchsc": 6968,
      "Ġtouchpad": 6969,
      "Ġpractition": 6970,
      "controllers": 6971,
      "Ġquarrels": 6972,
      "Ġstrategy": 6973,
      "Ġversati": 6974,
      "Ġsnipp": 6975,
      "Ġcurrent": 6976,
      "Ġpitiful": 6977,
      "Ġaxiom": 6978,
      "Ġrebuff": 6979,
      "Ġrebuild": 6980,
      "Ġreassess": 6981,
      "Ġmachine": 6982,
      "Ġinadver": 6983,
      "Ġfidget": 6984,
      "Ġtonight": 6985,
      "Ġhalf": 6986,
      "Ġhadoop": 6987,
      "Ġglean": 6988,
      "Ġglimp": 6989,
      "Ġgramm": 6990,
      "Ġnonex": 6991,
      "Ġdisjoint": 6992,
      "Ġprolong": 6993,
      "Ġvague": 6994,
      "Ġvuejs": 6995,
      "Ġjourn": 6996,
      "Ġquestionna": 6997,
      "Ġwhisper": 6998,
      "Ġroutine": 6999,
      "Ġparenthes": 7000,
      "Ġmemorand": 7001,
      "occurrence": 7002,
      "Ġunsuccess": 7003,
      "Ġboole": 7004,
      "Ġknock": 7005,
      "Ġforbid": 7006,
      "abulary": 7007,
      "abularies": 7008,
      "Ġgeospa": 7009,
      "Ġguarante": 7010,
      "Ġguarantee": 7011,
      "Ġlogarithm": 7012,
      "Ġcircumf": 7013,
      "Ġdirectx": 7014,
      "Ġstraightforward": 7015,
      "Ġautoencod": 7016,
      "Ġscholar": 7017,
      "Ġhorizon": 7018,
      "Ġconvincing": 7019,
      "Ġcrowdsour": 7020,
      "Ġlexicograph": 7021,
      "Ġbeautiful": 7022,
      "Ġtroublesho": 7023,
      "Ġcameraph": 7024,
      "Ġillegitim": 7025,
      "relevant": 7026,
      "Ġsister": 7027,
      "Ġstands": 7028,
      "Ġcrunch": 7029,
      "Ġamong": 7030,
      "Ġreanim": 7031,
      "Ġreceip": 7032,
      "Ġinappropri": 7033,
      "Ġunhapp": 7034,
      "Ġunaccep": 7035,
      "Ġunobser": 7036,
      "Ġtoday": 7037,
      "Ġtournam": 7038,
      "Ġblank": 7039,
      "Ġcondem": 7040,
      "Ġgallant": 7041,
      "Ġdeveloper": 7042,
      "Ġidiom": 7043,
      "Ġvigor": 7044,
      "Ġvendor": 7045,
      "Ġenliven": 7046,
      "Ġstunning": 7047,
      "Ġsubmod": 7048,
      "Ġdifficul": 7049,
      "Ġoverparameteri": 7050,
      "Ġpremature": 7051,
      "Ġthreshol": 7052,
      "Ġanomal": 7053,
      "Ġdecisive": 7054,
      "Ġtranquil": 7055,
      "Ġquatern": 7056,
      "Ġmultivari": 7057,
      "Ġscenari": 7058,
      "Ġobstac": 7059,
      "Ġinsinu": 7060,
      "Ġarduin": 7061,
      "Ġinferior": 7062,
      "Ġheaven": 7063,
      "Ġwhich": 7064,
      "Ġtrainees": 7065,
      "Ġforgot": 7066,
      "Ġyesterday": 7067,
      "Ġopinion": 7068,
      "Ġridiculous": 7069,
      "Ġflagship": 7070,
      "Ġindefin": 7071,
      "Ġnewslet": 7072,
      "Ġviewmodel": 7073,
      "Ġwirefram": 7074,
      "Ġuninterrup": 7075,
      "Ġtrembling": 7076,
      "Ġbrainstorm": 7077,
      "Ġlandscap": 7078,
      "weighting": 7079,
      "Ġpeople": 7080,
      "Ġenterprise": 7081,
      "Ġtimestamp": 7082,
      "Ġamazon": 7083,
      "Ġbetween": 7084,
      "Ġbottlen": 7085,
      "Ġextreme": 7086,
      "Ġhousekeeper": 7087,
      "engineering": 7088,
      "Ġvouchsaf": 7089,
      "Ġmobilenetv": 7090,
      "Ġdisadvantage": 7091,
      "Ġjavascript": 7092,
      "butors": 7093,
      "craft": 7094,
      "ggered": 7095,
      "Ġsatelli": 7096,
      "Ġseldom": 7097,
      "Ġsophistic": 7098,
      "Ġsqlite": 7099,
      "Ġcowork": 7100,
      "Ġpseud": 7101,
      "Ġreiss": 7102,
      "Ġreintrodu": 7103,
      "Ġmurm": 7104,
      "Ġmama": 7105,
      "Ġmillis": 7106,
      "Ġindiff": 7107,
      "Ġinsignific": 7108,
      "Ġfurther": 7109,
      "Ġetsim": 7110,
      "Ġepoch": 7111,
      "Ġunmistak": 7112,
      "Ġunnecess": 7113,
      "Ġunbelie": 7114,
      "Ġunavoid": 7115,
      "Ġoracle": 7116,
      "Ġwicked": 7117,
      "Ġworshi": 7118,
      "Ġhundred": 7119,
      "Ġnvidia": 7120,
      "Ġdisinteres": 7121,
      "Ġsubproble": 7122,
      "Ġdiacri": 7123,
      "Ġdielectric": 7124,
      "Ġacrony": 7125,
      "Ġchampion": 7126,
      "Ġchief": 7127,
      "Ġthumbna": 7128,
      "itignore": 7129,
      "otropic": 7130,
      "Ġheavy": 7131,
      "Ġwebdriver": 7132,
      "Ġraspberry": 7133,
      "Ġtakedown": 7134,
      "Ġindustry": 7135,
      "Ġfirefox": 7136,
      "Ġmicrosoft": 7137,
      "Ġpolymorph": 7138,
      "Ġstochastic": 7139,
      "Ġduckduckgo": 7140,
      "'m": 7141,
      "03": 7142,
      "08": 7143,
      "19": 7144,
      "128": 7145,
      "36": 7146,
      "40": 7147,
      "440": 7148,
      "60": 7149,
      "95": 7150,
      "99": 7151,
      "ai": 7152,
      "aver": 7153,
      "ater": 7154,
      "aas": 7155,
      "aur": 7156,
      "aid": 7157,
      "atim": 7158,
      "aval": 7159,
      "aint": 7160,
      "aties": 7161,
      "asions": 7162,
      "ailed": 7163,
      "ause": 7164,
      "aho": 7165,
      "arance": 7166,
      "aware": 7167,
      "airs": 7168,
      "ahedron": 7169,
      "ahead": 7170,
      "arables": 7171,
      "bm": 7172,
      "br": 7173,
      "bon": 7174,
      "bted": 7175,
      "ban": 7176,
      "bol": 7177,
      "bred": 7178,
      "bow": 7179,
      "bru": 7180,
      "bating": 7181,
      "bless": 7182,
      "bare": 7183,
      "bone": 7184,
      "bage": 7185,
      "ball": 7186,
      "bases": 7187,
      "based": 7188,
      "born": 7189,
      "butor": 7190,
      "briety": 7191,
      "banity": 7192,
      "buntu": 7193,
      "cc": 7194,
      "cf": 7195,
      "cl": 7196,
      "cec": 7197,
      "cat": 7198,
      "cable": 7199,
      "cam": 7200,
      "ctes": 7201,
      "cated": 7202,
      "cru": 7203,
      "cates": 7204,
      "cest": 7205,
      "cry": 7206,
      "cence": 7207,
      "centi": 7208,
      "call": 7209,
      "cases": 7210,
      "cased": 7211,
      "culate": 7212,
      "ctives": 7213,
      "canti": 7214,
      "ciness": 7215,
      "coring": 7216,
      "cris": 7217,
      "cpy": 7218,
      "corted": 7219,
      "ctably": 7220,
      "ctance": 7221,
      "cade": 7222,
      "cilled": 7223,
      "corder": 7224,
      "codes": 7225,
      "ctiveness": 7226,
      "count": 7227,
      "coded": 7228,
      "clusive": 7229,
      "cstr": 7230,
      "cusable": 7231,
      "classes": 7232,
      "cidity": 7233,
      "countable": 7234,
      "course": 7235,
      "collinear": 7236,
      "cluster": 7237,
      "dg": 7238,
      "dl": 7239,
      "dn": 7240,
      "dp": 7241,
      "dar": 7242,
      "das": 7243,
      "dations": 7244,
      "dles": 7245,
      "dability": 7246,
      "dog": 7247,
      "dically": 7248,
      "deness": 7249,
      "dens": 7250,
      "dream": 7251,
      "dns": 7252,
      "dain": 7253,
      "dmark": 7254,
      "drop": 7255,
      "drew": 7256,
      "dfs": 7257,
      "dolence": 7258,
      "document": 7259,
      "eg": 7260,
      "eti": 7261,
      "eter": 7262,
      "eres": 7263,
      "eous": 7264,
      "eigh": 7265,
      "emi": 7266,
      "ems": 7267,
      "earing": 7268,
      "event": 7269,
      "evered": 7270,
      "elected": 7271,
      "early": 7272,
      "egoti": 7273,
      "etings": 7274,
      "fk": 7275,
      "fo": 7276,
      "fmp": 7277,
      "fol": 7278,
      "fid": 7279,
      "fty": 7280,
      "fare": 7281,
      "ford": 7282,
      "fens": 7283,
      "fering": 7284,
      "fpe": 7285,
      "fps": 7286,
      "figu": 7287,
      "fony": 7288,
      "filled": 7289,
      "fession": 7290,
      "fusion": 7291,
      "felt": 7292,
      "fortun": 7293,
      "foli": 7294,
      "feration": 7295,
      "from": 7296,
      "font": 7297,
      "folder": 7298,
      "functions": 7299,
      "gd": 7300,
      "gm": 7301,
      "gp": 7302,
      "gv": 7303,
      "gw": 7304,
      "gy": 7305,
      "gle": 7306,
      "gers": 7307,
      "gid": 7308,
      "gles": 7309,
      "gine": 7310,
      "gone": 7311,
      "gain": 7312,
      "gons": 7313,
      "gory": 7314,
      "gene": 7315,
      "gmented": 7316,
      "gmentation": 7317,
      "gressive": 7318,
      "gatable": 7319,
      "gaming": 7320,
      "godb": 7321,
      "grids": 7322,
      "gitignore": 7323,
      "hap": 7324,
      "hum": 7325,
      "hore": 7326,
      "hand": 7327,
      "heck": 7328,
      "href": 7329,
      "haps": 7330,
      "holes": 7331,
      "hamed": 7332,
      "hcp": 7333,
      "html": 7334,
      "hrase": 7335,
      "house": 7336,
      "hakable": 7337,
      "htaccess": 7338,
      "hdl": 7339,
      "ira": 7340,
      "imp": 7341,
      "ires": 7342,
      "iff": 7343,
      "iten": 7344,
      "iment": 7345,
      "iating": 7346,
      "itation": 7347,
      "iary": 7348,
      "iality": 7349,
      "iric": 7350,
      "ipping": 7351,
      "irable": 7352,
      "iress": 7353,
      "iasing": 7354,
      "irest": 7355,
      "ibilities": 7356,
      "ilot": 7357,
      "ivity": 7358,
      "ivy": 7359,
      "iteness": 7360,
      "iveness": 7361,
      "ifically": 7362,
      "ja": 7363,
      "ji": 7364,
      "ju": 7365,
      "jus": 7366,
      "jure": 7367,
      "jdk": 7368,
      "justed": 7369,
      "jax": 7370,
      "kg": 7371,
      "kpro": 7372,
      "kins": 7373,
      "kell": 7374,
      "know": 7375,
      "kits": 7376,
      "kinter": 7377,
      "lp": 7378,
      "lon": 7379,
      "lta": 7380,
      "lted": 7381,
      "lent": 7382,
      "lur": 7383,
      "lds": 7384,
      "lum": 7385,
      "lder": 7386,
      "lend": 7387,
      "lens": 7388,
      "lnet": 7389,
      "llation": 7390,
      "loring": 7391,
      "lorn": 7392,
      "ltype": 7393,
      "lisation": 7394,
      "lumber": 7395,
      "llables": 7396,
      "md": 7397,
      "mq": 7398,
      "mx": 7399,
      "mble": 7400,
      "mess": 7401,
      "mers": 7402,
      "mable": 7403,
      "mates": 7404,
      "mors": 7405,
      "mlu": 7406,
      "mization": 7407,
      "miring": 7408,
      "mware": 7409,
      "meless": 7410,
      "macy": 7411,
      "mld": 7412,
      "metry": 7413,
      "matrix": 7414,
      "ng": 7415,
      "nes": 7416,
      "nas": 7417,
      "nable": 7418,
      "nest": 7419,
      "nack": 7420,
      "nical": 7421,
      "nist": 7422,
      "native": 7423,
      "nex": 7424,
      "night": 7425,
      "ndef": 7426,
      "nelling": 7427,
      "nui": 7428,
      "nounced": 7429,
      "ock": 7430,
      "ost": 7431,
      "oad": 7432,
      "oct": 7433,
      "otic": 7434,
      "oke": 7435,
      "oot": 7436,
      "oration": 7437,
      "ober": 7438,
      "orable": 7439,
      "oft": 7440,
      "orating": 7441,
      "ooth": 7442,
      "olized": 7443,
      "ovy": 7444,
      "obot": 7445,
      "oeu": 7446,
      "oinformatics": 7447,
      "pf": 7448,
      "pm": 7449,
      "pn": 7450,
      "pr": 7451,
      "px": 7452,
      "pte": 7453,
      "pal": 7454,
      "par": 7455,
      "pit": 7456,
      "pul": 7457,
      "pol": 7458,
      "pid": 7459,
      "pten": 7460,
      "pth": 7461,
      "pful": 7462,
      "pses": 7463,
      "psing": 7464,
      "pular": 7465,
      "pone": 7466,
      "pite": 7467,
      "park": 7468,
      "pread": 7469,
      "pered": 7470,
      "pick": 7471,
      "puses": 7472,
      "paring": 7473,
      "ptical": 7474,
      "piring": 7475,
      "puted": 7476,
      "pression": 7477,
      "parse": 7478,
      "punk": 7479,
      "pacing": 7480,
      "prints": 7481,
      "portion": 7482,
      "papers": 7483,
      "qi": 7484,
      "qp": 7485,
      "qx": 7486,
      "qls": 7487,
      "rc": 7488,
      "rm": 7489,
      "rut": 7490,
      "rine": 7491,
      "rals": 7492,
      "rality": 7493,
      "rmed": 7494,
      "roring": 7495,
      "rnn": 7496,
      "sa": 7497,
      "sb": 7498,
      "sm": 7499,
      "sv": 7500,
      "sis": 7501,
      "som": 7502,
      "stive": 7503,
      "sod": 7504,
      "sum": 7505,
      "sine": 7506,
      "syn": 7507,
      "stically": 7508,
      "slock": 7509,
      "sens": 7510,
      "sures": 7511,
      "stand": 7512,
      "self": 7513,
      "sential": 7514,
      "scious": 7515,
      "sung": 7516,
      "standing": 7517,
      "slt": 7518,
      "td": 7519,
      "tr": 7520,
      "tw": 7521,
      "tz": 7522,
      "ton": 7523,
      "tti": 7524,
      "tus": 7525,
      "tch": 7526,
      "tran": 7527,
      "tum": 7528,
      "tren": 7529,
      "tform": 7530,
      "tone": 7531,
      "tream": 7532,
      "told": 7533,
      "tches": 7534,
      "tops": 7535,
      "tune": 7536,
      "tfs": 7537,
      "touch": 7538,
      "truth": 7539,
      "tchas": 7540,
      "trans": 7541,
      "together": 7542,
      "tonyms": 7543,
      "ux": 7544,
      "uble": 7545,
      "uck": 7546,
      "uid": 7547,
      "uder": 7548,
      "ubility": 7549,
      "uance": 7550,
      "uary": 7551,
      "uously": 7552,
      "uals": 7553,
      "uage": 7554,
      "ueness": 7555,
      "uffic": 7556,
      "ualized": 7557,
      "uities": 7558,
      "umental": 7559,
      "ucli": 7560,
      "uros": 7561,
      "ugn": 7562,
      "uadable": 7563,
      "vest": 7564,
      "vring": 7565,
      "vished": 7566,
      "vector": 7567,
      "vature": 7568,
      "vvy": 7569,
      "vacity": 7570,
      "varying": 7571,
      "vinced": 7572,
      "wd": 7573,
      "wp": 7574,
      "ww": 7575,
      "wy": 7576,
      "wing": 7577,
      "wer": 7578,
      "wid": 7579,
      "wful": 7580,
      "wine": 7581,
      "wired": 7582,
      "warted": 7583,
      "warning": 7584,
      "wstr": 7585,
      "wdling": 7586,
      "week": 7587,
      "wcstr": 7588,
      "xy": 7589,
      "xis": 7590,
      "xts": 7591,
      "xel": 7592,
      "xper": 7593,
      "xically": 7594,
      "xjs": 7595,
      "xili": 7596,
      "xious": 7597,
      "xception": 7598,
      "xonom": 7599,
      "yte": 7600,
      "yer": 7601,
      "yes": 7602,
      "ysi": 7603,
      "yter": 7604,
      "yable": 7605,
      "yond": 7606,
      "ython": 7607,
      "yalty": 7608,
      "za": 7609,
      "zen": 7610,
      "zor": 7611,
      "zers": 7612,
      "zard": 7613,
      "zure": 7614,
      "zens": 7615,
      "zones": 7616,
      "zipped": 7617,
      "Ġ5": 7618,
      "Ġ8": 7619,
      "Ġorm": 7620,
      "Ġled": 7621,
      "Ġum": 7622,
      "Ġters": 7623,
      "Ġud": 7624,
      "Ġist": 7625,
      "Ġze": 7626,
      "Ġtern": 7627,
      "Ġlying": 7628,
      "Ġ32": 7629,
      "Ġ60": 7630,
      "ina": 7631,
      "iner": 7632,
      "inde": 7633,
      "inable": 7634,
      "intes": 7635,
      "inci": 7636,
      "inance": 7637,
      "inters": 7638,
      "inality": 7639,
      "inks": 7640,
      "inities": 7641,
      "inished": 7642,
      "inery": 7643,
      "indered": 7644,
      "instal": 7645,
      "innam": 7646,
      "install": 7647,
      "inition": 7648,
      "inancing": 7649,
      "intend": 7650,
      "info": 7651,
      "inja": 7652,
      "rear": 7653,
      "rela": 7654,
      "rets": 7655,
      "reat": 7656,
      "remo": 7657,
      "reach": 7658,
      "review": 7659,
      "reast": 7660,
      "reening": 7661,
      "relessly": 7662,
      "replace": 7663,
      "repres": 7664,
      "reliance": 7665,
      "reakable": 7666,
      "rexception": 7667,
      "tein": 7668,
      "tero": 7669,
      "teel": 7670,
      "team": 7671,
      "tefully": 7672,
      "tepped": 7673,
      "terate": 7674,
      "tepping": 7675,
      "terance": 7676,
      "teem": 7677,
      "tekit": 7678,
      "tectable": 7679,
      "terous": 7680,
      "tesian": 7681,
      "tefacts": 7682,
      "onted": 7683,
      "onts": 7684,
      "onous": 7685,
      "onded": 7686,
      "onness": 7687,
      "ontain": 7688,
      "onance": 7689,
      "onenti": 7690,
      "onant": 7691,
      "onical": 7692,
      "onically": 7693,
      "onging": 7694,
      "onics": 7695,
      "onna": 7696,
      "onological": 7697,
      "onlight": 7698,
      "onderable": 7699,
      "tia": 7700,
      "tib": 7701,
      "tid": 7702,
      "tied": 7703,
      "tise": 7704,
      "tium": 7705,
      "tiful": 7706,
      "tiating": 7707,
      "tibly": 7708,
      "tiously": 7709,
      "tials": 7710,
      "tiality": 7711,
      "tized": 7712,
      "tibilities": 7713,
      "ingw": 7714,
      "ingen": 7715,
      "eral": 7716,
      "erri": 7717,
      "erit": 7718,
      "erate": 7719,
      "erous": 7720,
      "erno": 7721,
      "erative": 7722,
      "erying": 7723,
      "erne": 7724,
      "ertify": 7725,
      "ervation": 7726,
      "errant": 7727,
      "eroom": 7728,
      "erision": 7729,
      "ernesses": 7730,
      "ermal": 7731,
      "ervised": 7732,
      "ervour": 7733,
      "ergy": 7734,
      "Ġson": 7735,
      "Ġsul": 7736,
      "Ġsent": 7737,
      "Ġspp": 7738,
      "Ġsid": 7739,
      "Ġsten": 7740,
      "Ġsag": 7741,
      "Ġsling": 7742,
      "Ġslu": 7743,
      "Ġstable": 7744,
      "Ġsoc": 7745,
      "Ġsund": 7746,
      "Ġsized": 7747,
      "Ġsins": 7748,
      "Ġscep": 7749,
      "Ġsmi": 7750,
      "Ġsms": 7751,
      "Ġsamp": 7752,
      "Ġsort": 7753,
      "Ġssh": 7754,
      "Ġsmit": 7755,
      "Ġsons": 7756,
      "Ġsizes": 7757,
      "Ġsft": 7758,
      "Ġsold": 7759,
      "Ġsizing": 7760,
      "Ġsame": 7761,
      "Ġsingly": 7762,
      "Ġslay": 7763,
      "Ġsight": 7764,
      "Ġsong": 7765,
      "Ġsedu": 7766,
      "Ġsang": 7767,
      "Ġsony": 7768,
      "Ġslop": 7769,
      "Ġsorted": 7770,
      "Ġsorts": 7771,
      "Ġselling": 7772,
      "Ġsitting": 7773,
      "Ġsought": 7774,
      "Ġsided": 7775,
      "Ġsession": 7776,
      "Ġsorting": 7777,
      "Ġsung": 7778,
      "Ġsample": 7779,
      "Ġsells": 7780,
      "Ġstanding": 7781,
      "Ġsounding": 7782,
      "Ġsounded": 7783,
      "Ġsource": 7784,
      "Ġslash": 7785,
      "Ġsampled": 7786,
      "Ġsampling": 7787,
      "Ġsvm": 7788,
      "Ġsizable": 7789,
      "Ġsounds": 7790,
      "Ġslang": 7791,
      "Ġsunk": 7792,
      "Ġselves": 7793,
      "Ġsamples": 7794,
      "Ġslayed": 7795,
      "Ġssd": 7796,
      "Ġsanity": 7797,
      "Ġsongs": 7798,
      "Ġslung": 7799,
      "Ġssl": 7800,
      "Ġsessions": 7801,
      "Ġsank": 7802,
      "Ġslashes": 7803,
      "Ġschedule": 7804,
      "Ġsgd": 7805,
      "Ġslumber": 7806,
      "Ġsqls": 7807,
      "Ġsrc": 7808,
      "Ġssis": 7809,
      "esis": 7810,
      "ested": 7811,
      "estic": 7812,
      "estim": 7813,
      "estivity": 7814,
      "estern": 7815,
      "escrib": 7816,
      "espan": 7817,
      "eserved": 7818,
      "espread": 7819,
      "Ġcc": 7820,
      "Ġcd": 7821,
      "Ġces": 7822,
      "Ġcis": 7823,
      "Ġcsi": 7824,
      "Ġcable": 7825,
      "Ġcran": 7826,
      "Ġcling": 7827,
      "Ġcors": 7828,
      "Ġcma": 7829,
      "Ġcron": 7830,
      "Ġcure": 7831,
      "Ġcant": 7832,
      "Ġcatch": 7833,
      "Ġcab": 7834,
      "Ġcms": 7835,
      "Ġcgi": 7836,
      "Ġcsh": 7837,
      "Ġcart": 7838,
      "Ġcto": 7839,
      "Ġcuts": 7840,
      "Ġcase": 7841,
      "Ġcures": 7842,
      "Ġcured": 7843,
      "Ġcute": 7844,
      "Ġcards": 7845,
      "Ġcuring": 7846,
      "Ġcass": 7847,
      "Ġcars": 7848,
      "Ġcast": 7849,
      "Ġcame": 7850,
      "Ġcases": 7851,
      "Ġcaring": 7852,
      "Ġcased": 7853,
      "Ġcues": 7854,
      "Ġcrop": 7855,
      "Ġcpu": 7856,
      "Ġcatched": 7857,
      "Ġcached": 7858,
      "Ġcnn": 7859,
      "Ġcaching": 7860,
      "Ġcables": 7861,
      "Ġcatching": 7862,
      "Ġcatches": 7863,
      "Ġcells": 7864,
      "Ġclash": 7865,
      "Ġclaimed": 7866,
      "Ġcaches": 7867,
      "Ġclocks": 7868,
      "Ġclocked": 7869,
      "Ġcplus": 7870,
      "Ġcca": 7871,
      "Ġcnns": 7872,
      "Ġcipher": 7873,
      "Ġclasses": 7874,
      "Ġcurious": 7875,
      "Ġclaiming": 7876,
      "Ġcpython": 7877,
      "Ġcpus": 7878,
      "Ġcmos": 7879,
      "Ġcstd": 7880,
      "Ġcbow": 7881,
      "Ġcmd": 7882,
      "Ġcrm": 7883,
      "Ġcsv": 7884,
      "Ġcinnam": 7885,
      "edy": 7886,
      "eding": 7887,
      "eday": 7888,
      "edrive": 7889,
      "edlessness": 7890,
      "edesign": 7891,
      "ederates": 7892,
      "env": 7893,
      "enous": 7894,
      "ensed": 7895,
      "enses": 7896,
      "ensive": 7897,
      "encing": 7898,
      "enger": 7899,
      "entations": 7900,
      "entance": 7901,
      "enligh": 7902,
      "entang": 7903,
      "enote": 7904,
      "enames": 7905,
      "enamed": 7906,
      "enkins": 7907,
      "Ġdod": 7908,
      "Ġdated": 7909,
      "Ġdum": 7910,
      "Ġdates": 7911,
      "Ġdvi": 7912,
      "Ġdating": 7913,
      "Ġdos": 7914,
      "Ġdry": 7915,
      "Ġdron": 7916,
      "Ġdance": 7917,
      "Ġdone": 7918,
      "Ġdust": 7919,
      "Ġdmi": 7920,
      "Ġdpi": 7921,
      "Ġdart": 7922,
      "Ġdread": 7923,
      "Ġdue": 7924,
      "Ġdying": 7925,
      "Ġdns": 7926,
      "Ġdrup": 7927,
      "Ġdss": 7928,
      "Ġduring": 7929,
      "Ġdress": 7930,
      "Ġdual": 7931,
      "Ġdaring": 7932,
      "Ġdining": 7933,
      "Ġdances": 7934,
      "Ġdressed": 7935,
      "Ġdbs": 7936,
      "Ġdressing": 7937,
      "Ġdyed": 7938,
      "Ġdrew": 7939,
      "Ġdna": 7940,
      "Ġdnn": 7941,
      "Ġdanced": 7942,
      "Ġdarted": 7943,
      "Ġdnns": 7944,
      "Ġdrank": 7945,
      "Ġdrone": 7946,
      "Ġdcnn": 7947,
      "Ġdjan": 7948,
      "Ġdsl": 7949,
      "Ġdull": 7950,
      "Ġduty": 7951,
      "Ġdrunk": 7952,
      "Ġdhcp": 7953,
      "Ġdrnn": 7954,
      "Ġderision": 7955,
      "alf": 7956,
      "alle": 7957,
      "alch": 7958,
      "alers": 7959,
      "alys": 7960,
      "alot": 7961,
      "alone": 7962,
      "alties": 7963,
      "alloc": 7964,
      "alued": 7965,
      "allied": 7966,
      "alink": 7967,
      "alpable": 7968,
      "alculate": 7969,
      "Ġpom": 7970,
      "Ġpent": 7971,
      "Ġpil": 7972,
      "Ġpup": 7973,
      "Ġpity": 7974,
      "Ġpim": 7975,
      "Ġpard": 7976,
      "Ġpys": 7977,
      "Ġpenti": 7978,
      "Ġpls": 7979,
      "Ġperen": 7980,
      "Ġpand": 7981,
      "Ġpings": 7982,
      "Ġpins": 7983,
      "Ġpend": 7984,
      "Ġputs": 7985,
      "Ġpures": 7986,
      "Ġpast": 7987,
      "Ġpiled": 7988,
      "Ġpere": 7989,
      "Ġpea": 7990,
      "Ġpuri": 7991,
      "Ġpdo": 7992,
      "Ġported": 7993,
      "Ġports": 7994,
      "Ġpaging": 7995,
      "Ġpaling": 7996,
      "Ġpatched": 7997,
      "Ġpuff": 7998,
      "Ġpaged": 7999,
      "Ġpods": 8000,
      "Ġpray": 8001,
      "Ġpatching": 8002,
      "Ġpatches": 8003,
      "Ġpager": 8004,
      "Ġpurity": 8005,
      "Ġpca": 8006,
      "Ġpacing": 8007,
      "Ġpsql": 8008,
      "Ġpinging": 8009,
      "Ġpardon": 8010,
      "Ġplastic": 8011,
      "Ġpdf": 8012,
      "Ġpumped": 8013,
      "Ġpeek": 8014,
      "Ġpdfs": 8015,
      "Ġpgp": 8016,
      "Ġpng": 8017,
      "Ġpqi": 8018,
      "Ġain": 8019,
      "Ġate": 8020,
      "Ġable": 8021,
      "Ġace": 8022,
      "Ġach": 8023,
      "Ġact": 8024,
      "Ġaid": 8025,
      "Ġapo": 8026,
      "Ġabi": 8027,
      "Ġaper": 8028,
      "Ġage": 8029,
      "Ġagh": 8030,
      "Ġaren": 8031,
      "Ġability": 8032,
      "Ġair": 8033,
      "Ġably": 8034,
      "Ġamis": 8035,
      "Ġages": 8036,
      "Ġago": 8037,
      "Ġaches": 8038,
      "Ġairing": 8039,
      "Ġatyp": 8040,
      "Ġaboard": 8041,
      "Ġaright": 8042,
      "Ġabilities": 8043,
      "Ġaxes": 8044,
      "Ġaired": 8045,
      "Ġaside": 8046,
      "Ġairs": 8047,
      "Ġample": 8048,
      "Ġaiding": 8049,
      "Ġahold": 8050,
      "Ġaheld": 8051,
      "Ġactual": 8052,
      "Ġavocation": 8053,
      "Ġaye": 8054,
      "Ġactually": 8055,
      "Ġairy": 8056,
      "Ġahead": 8057,
      "Ġatypical": 8058,
      "Ġaka": 8059,
      "Ġaptly": 8060,
      "Ġavocations": 8061,
      "Ġahref": 8062,
      "Ġajax": 8063,
      "Ġaxis": 8064,
      "Ġazure": 8065,
      "Ġrely": 8066,
      "Ġreus": 8067,
      "Ġreent": 8068,
      "Ġreally": 8069,
      "Ġrealiz": 8070,
      "Ġrelu": 8071,
      "Ġrelic": 8072,
      "Ġretain": 8073,
      "Ġretor": 8074,
      "Ġreach": 8075,
      "Ġreality": 8076,
      "Ġreload": 8077,
      "Ġrecep": 8078,
      "Ġrelock": 8079,
      "Ġrealized": 8080,
      "Ġrealize": 8081,
      "Ġrelish": 8082,
      "Ġrealization": 8083,
      "Ġremed": 8084,
      "Ġrerun": 8085,
      "Ġretest": 8086,
      "Ġreuses": 8087,
      "Ġrequi": 8088,
      "Ġrework": 8089,
      "Ġreuse": 8090,
      "Ġreused": 8091,
      "Ġrealizing": 8092,
      "Ġrealizes": 8093,
      "Ġreward": 8094,
      "Ġreified": 8095,
      "Ġreusing": 8096,
      "Ġremap": 8097,
      "Ġreify": 8098,
      "Ġreception": 8099,
      "Ġrevision": 8100,
      "Ġretained": 8101,
      "Ġrelying": 8102,
      "Ġrevel": 8103,
      "Ġresets": 8104,
      "Ġreposition": 8105,
      "Ġreached": 8106,
      "Ġrevalid": 8107,
      "Ġretaining": 8108,
      "Ġreaching": 8109,
      "Ġreloads": 8110,
      "Ġreloading": 8111,
      "Ġrewards": 8112,
      "Ġretains": 8113,
      "Ġreloaded": 8114,
      "Ġrebound": 8115,
      "Ġresigned": 8116,
      "Ġrefile": 8117,
      "Ġreaches": 8118,
      "Ġrelocked": 8119,
      "Ġremarks": 8120,
      "Ġremas": 8121,
      "Ġrealizations": 8122,
      "Ġreachable": 8123,
      "Ġremarked": 8124,
      "Ġrestructure": 8125,
      "Ġrecharged": 8126,
      "Ġresemble": 8127,
      "Ġreusable": 8128,
      "Ġrecheck": 8129,
      "Ġrerank": 8130,
      "Ġreocc": 8131,
      "Ġreversal": 8132,
      "Ġretook": 8133,
      "Ġrequired": 8134,
      "Ġreworking": 8135,
      "Ġrecharge": 8136,
      "Ġrevocation": 8137,
      "Ġrebuilt": 8138,
      "Ġretelling": 8139,
      "Ġreachability": 8140,
      "Ġresigns": 8141,
      "Ġreworked": 8142,
      "Ġrevoke": 8143,
      "Ġreweight": 8144,
      "Ġretesting": 8145,
      "Ġredimension": 8146,
      "Ġreorders": 8147,
      "Ġretyping": 8148,
      "Ġreweighting": 8149,
      "Ġreju": 8150,
      "Ġrelent": 8151,
      "rad": 8152,
      "rays": 8153,
      "raph": 8154,
      "rasing": 8155,
      "rages": 8156,
      "ratically": 8157,
      "rapped": 8158,
      "radic": 8159,
      "rathon": 8160,
      "rature": 8161,
      "ravel": 8162,
      "ractly": 8163,
      "raries": 8164,
      "rarily": 8165,
      "rastin": 8166,
      "rableness": 8167,
      "ragmentation": 8168,
      "ori": 8169,
      "orp": 8170,
      "ortive": 8171,
      "orse": 8172,
      "orge": 8173,
      "oriti": 8174,
      "organ": 8175,
      "orists": 8176,
      "ortant": 8177,
      "ordings": 8178,
      "orld": 8179,
      "orrec": 8180,
      "oried": 8181,
      "orthy": 8182,
      "orrent": 8183,
      "oriously": 8184,
      "orotation": 8185,
      "ortium": 8186,
      "tionaries": 8187,
      "unes": 8188,
      "uned": 8189,
      "unts": 8190,
      "unter": 8191,
      "unch": 8192,
      "unct": 8193,
      "unci": 8194,
      "unks": 8195,
      "unities": 8196,
      "unctive": 8197,
      "untering": 8198,
      "unior": 8199,
      "leen": 8200,
      "lear": 8201,
      "leas": 8202,
      "letes": 8203,
      "lement": 8204,
      "leful": 8205,
      "leep": 8206,
      "lease": 8207,
      "learn": 8208,
      "leading": 8209,
      "leasure": 8210,
      "legance": 8211,
      "lemma": 8212,
      "lectance": 8213,
      "isp": 8214,
      "isy": 8215,
      "isen": 8216,
      "isal": 8217,
      "isest": 8218,
      "isations": 8219,
      "ission": 8220,
      "isure": 8221,
      "isms": 8222,
      "isons": 8223,
      "istical": 8224,
      "isions": 8225,
      "istance": 8226,
      "iscent": 8227,
      "isense": 8228,
      "isitive": 8229,
      "isites": 8230,
      "isotropic": 8231,
      "arp": 8232,
      "arin": 8233,
      "arting": 8234,
      "artic": 8235,
      "argu": 8236,
      "arized": 8237,
      "arns": 8238,
      "arounds": 8239,
      "army": 8240,
      "argatable": 8241,
      "arobot": 8242,
      "aralle": 8243,
      "Ġmd": 8244,
      "Ġml": 8245,
      "Ġmy": 8246,
      "Ġmlo": 8247,
      "Ġmse": 8248,
      "Ġmish": 8249,
      "Ġmigh": 8250,
      "Ġmari": 8251,
      "Ġmine": 8252,
      "Ġmand": 8253,
      "Ġmend": 8254,
      "Ġmss": 8255,
      "Ġmass": 8256,
      "Ġmarch": 8257,
      "Ġmne": 8258,
      "Ġmusing": 8259,
      "Ġmuted": 8260,
      "Ġmiles": 8261,
      "Ġmaking": 8262,
      "Ġmdb": 8263,
      "Ġmends": 8264,
      "Ġmaps": 8265,
      "Ġmatched": 8266,
      "Ġmessed": 8267,
      "Ġmount": 8268,
      "Ġmatching": 8269,
      "Ġmatches": 8270,
      "Ġmutes": 8271,
      "Ġmutable": 8272,
      "Ġmounting": 8273,
      "Ġmakes": 8274,
      "Ġmounted": 8275,
      "Ġmounts": 8276,
      "Ġmui": 8277,
      "Ġmile": 8278,
      "Ġmuch": 8279,
      "Ġmutation": 8280,
      "Ġmips": 8281,
      "Ġmcv": 8282,
      "Ġmfc": 8283,
      "Ġmhz": 8284,
      "Ġmelded": 8285,
      "Ġmouse": 8286,
      "Ġmpeg": 8287,
      "Ġmbr": 8288,
      "Ġmgm": 8289,
      "Ġmmlu": 8290,
      "Ġmnist": 8291,
      "Ġmingw": 8292,
      "Ġini": 8293,
      "Ġinta": 8294,
      "Ġinro": 8295,
      "Ġinit": 8296,
      "Ġinch": 8297,
      "Ġinat": 8298,
      "Ġinse": 8299,
      "Ġinlin": 8300,
      "Ġintan": 8301,
      "Ġinim": 8302,
      "Ġinure": 8303,
      "Ġincess": 8304,
      "Ġinline": 8305,
      "Ġinability": 8306,
      "Ġincomp": 8307,
      "Ġinking": 8308,
      "Ġinning": 8309,
      "Ġinto": 8310,
      "Ġinha": 8311,
      "Ġinked": 8312,
      "Ġinures": 8313,
      "Ġinured": 8314,
      "Ġinuring": 8315,
      "Ġinward": 8316,
      "Ġinches": 8317,
      "Ġinner": 8318,
      "Ġinbox": 8319,
      "Ġinsider": 8320,
      "Ġinlines": 8321,
      "Ġinade": 8322,
      "Ġinordin": 8323,
      "Ġinorder": 8324,
      "Ġinsets": 8325,
      "Ġinside": 8326,
      "Ġinlined": 8327,
      "Ġinvalu": 8328,
      "Ġincoming": 8329,
      "Ġinhere": 8330,
      "Ġinoper": 8331,
      "Ġinbound": 8332,
      "Ġinlining": 8333,
      "Ġinquire": 8334,
      "Ġinplace": 8335,
      "Ġinnings": 8336,
      "Ġincept": 8337,
      "Ġinescap": 8338,
      "Ġinboxes": 8339,
      "Ġinbuilt": 8340,
      "Ġinasm": 8341,
      "Ġinstin": 8342,
      "Ġinceptions": 8343,
      "Ġinhibit": 8344,
      "Ġinwardly": 8345,
      "Ġinutility": 8346,
      "Ġinciting": 8347,
      "Ġinputed": 8348,
      "Ġinestim": 8349,
      "Ġinargu": 8350,
      "taged": 8351,
      "tapi": 8352,
      "tash": 8353,
      "tatives": 8354,
      "taxes": 8355,
      "tatious": 8356,
      "taxi": 8357,
      "taway": 8358,
      "tadata": 8359,
      "tapul": 8360,
      "rode": 8361,
      "robo": 8362,
      "roach": 8363,
      "round": 8364,
      "rocess": 8365,
      "ropi": 8366,
      "rocal": 8367,
      "rome": 8368,
      "roken": 8369,
      "routing": 8370,
      "rollable": 8371,
      "rott": 8372,
      "rogance": 8373,
      "rophe": 8374,
      "robable": 8375,
      "last": 8376,
      "lage": 8377,
      "lama": 8378,
      "lases": 8379,
      "lators": 8380,
      "lamation": 8381,
      "lausible": 8382,
      "latform": 8383,
      "lawful": 8384,
      "Ġfly": 8385,
      "Ġfus": 8386,
      "Ġfit": 8387,
      "Ġfres": 8388,
      "Ġfat": 8389,
      "Ġfag": 8390,
      "Ġfled": 8391,
      "Ġfors": 8392,
      "Ġfish": 8393,
      "Ġfence": 8394,
      "Ġfine": 8395,
      "Ġfrac": 8396,
      "Ġfend": 8397,
      "Ġflock": 8398,
      "Ġfell": 8399,
      "Ġfps": 8400,
      "Ġfick": 8401,
      "Ġfast": 8402,
      "Ġfiled": 8403,
      "Ġfame": 8404,
      "Ġfuses": 8405,
      "Ġfill": 8406,
      "Ġfuse": 8407,
      "Ġfiling": 8408,
      "Ġfused": 8409,
      "Ġfight": 8410,
      "Ġfans": 8411,
      "Ġfusing": 8412,
      "Ġfiring": 8413,
      "Ġfrid": 8414,
      "Ġfelling": 8415,
      "Ġfpu": 8416,
      "Ġfitting": 8417,
      "Ġflying": 8418,
      "Ġfought": 8419,
      "Ġfligh": 8420,
      "Ġfaded": 8421,
      "Ġflies": 8422,
      "Ġfatal": 8423,
      "Ġfstream": 8424,
      "Ġfades": 8425,
      "Ġfrust": 8426,
      "Ġfusion": 8427,
      "Ġfading": 8428,
      "Ġfounding": 8429,
      "Ġfounded": 8430,
      "Ġfelt": 8431,
      "Ġfaces": 8432,
      "Ġflocks": 8433,
      "Ġflocked": 8434,
      "Ġfenced": 8435,
      "Ġfitted": 8436,
      "Ġfounds": 8437,
      "Ġfallen": 8438,
      "Ġfpg": 8439,
      "Ġfrom": 8440,
      "Ġfacing": 8441,
      "Ġfacts": 8442,
      "Ġfather": 8443,
      "Ġfont": 8444,
      "Ġfumble": 8445,
      "Ġfaced": 8446,
      "Ġfouri": 8447,
      "Ġfogs": 8448,
      "Ġflung": 8449,
      "Ġftp": 8450,
      "Ġfumbles": 8451,
      "Ġfounder": 8452,
      "Ġfscan": 8453,
      "Ġffmp": 8454,
      "Ġflur": 8455,
      "Ġfsb": 8456,
      "Ġfonts": 8457,
      "Ġfervour": 8458,
      "Ġfestivity": 8459,
      "lition": 8460,
      "lible": 8461,
      "liate": 8462,
      "lict": 8463,
      "lici": 8464,
      "liked": 8465,
      "ligible": 8466,
      "lizz": 8467,
      "literal": 8468,
      "lihoods": 8469,
      "lizable": 8470,
      "literation": 8471,
      "limited": 8472,
      "liferation": 8473,
      "Ġef": 8474,
      "Ġeg": 8475,
      "Ġeat": 8476,
      "Ġeating": 8477,
      "Ġecom": 8478,
      "Ġeach": 8479,
      "Ġeval": 8480,
      "Ġepi": 8481,
      "Ġemit": 8482,
      "Ġease": 8483,
      "Ġebook": 8484,
      "Ġeases": 8485,
      "Ġeof": 8486,
      "Ġeased": 8487,
      "Ġether": 8488,
      "Ġeight": 8489,
      "Ġeasing": 8490,
      "Ġeaten": 8491,
      "Ġeats": 8492,
      "Ġelicit": 8493,
      "Ġemission": 8494,
      "Ġecu": 8495,
      "Ġeld": 8496,
      "Ġeluded": 8497,
      "Ġemitted": 8498,
      "Ġebooks": 8499,
      "Ġelude": 8500,
      "Ġeludes": 8501,
      "Ġelusive": 8502,
      "Ġepic": 8503,
      "Ġemissions": 8504,
      "Ġemitting": 8505,
      "Ġeither": 8506,
      "Ġemits": 8507,
      "Ġeuro": 8508,
      "Ġevoke": 8509,
      "Ġeucli": 8510,
      "Ġeyes": 8511,
      "Ġunri": 8512,
      "Ġunan": 8513,
      "Ġunble": 8514,
      "Ġunver": 8515,
      "Ġunable": 8516,
      "Ġunran": 8517,
      "Ġunten": 8518,
      "Ġunbi": 8519,
      "Ġunfi": 8520,
      "Ġunci": 8521,
      "Ġunbo": 8522,
      "Ġunlin": 8523,
      "Ġunful": 8524,
      "Ġunform": 8525,
      "Ġunip": 8526,
      "Ġunlic": 8527,
      "Ġunless": 8528,
      "Ġunos": 8529,
      "Ġunion": 8530,
      "Ġunmo": 8531,
      "Ġuntain": 8532,
      "Ġunach": 8533,
      "Ġunbu": 8534,
      "Ġunary": 8535,
      "Ġungu": 8536,
      "Ġunvis": 8537,
      "Ġunite": 8538,
      "Ġunins": 8539,
      "Ġunload": 8540,
      "Ġunab": 8541,
      "Ġunmi": 8542,
      "Ġunto": 8543,
      "Ġuntermin": 8544,
      "Ġunne": 8545,
      "Ġunuse": 8546,
      "Ġunhi": 8547,
      "Ġunused": 8548,
      "Ġunstruct": 8549,
      "Ġunions": 8550,
      "Ġuntur": 8551,
      "Ġunbox": 8552,
      "Ġunchar": 8553,
      "Ġunchan": 8554,
      "Ġuntyp": 8555,
      "Ġundire": 8556,
      "Ġunlist": 8557,
      "Ġunnam": 8558,
      "Ġunvalid": 8559,
      "Ġunaf": 8560,
      "Ġunending": 8561,
      "Ġunrespon": 8562,
      "Ġunloads": 8563,
      "Ġunloading": 8564,
      "Ġunloaded": 8565,
      "Ġuncomple": 8566,
      "Ġunhel": 8567,
      "Ġunbound": 8568,
      "Ġunsigned": 8569,
      "Ġunlink": 8570,
      "Ġunlocks": 8571,
      "Ġunlocked": 8572,
      "Ġunaff": 8573,
      "Ġunhash": 8574,
      "Ġuntemp": 8575,
      "Ġunenc": 8576,
      "Ġunsized": 8577,
      "Ġunmarked": 8578,
      "Ġuncharged": 8579,
      "Ġunlists": 8580,
      "Ġunnorm": 8581,
      "Ġunordered": 8582,
      "Ġunusable": 8583,
      "Ġuncheck": 8584,
      "Ġunocc": 8585,
      "Ġunvalued": 8586,
      "Ġunbuilt": 8587,
      "Ġungen": 8588,
      "Ġunlisted": 8589,
      "Ġunrolling": 8590,
      "Ġunrolled": 8591,
      "Ġunsto": 8592,
      "Ġunmentioned": 8593,
      "Ġuntypical": 8594,
      "Ġunjust": 8595,
      "Ġunnat": 8596,
      "Ġunzip": 8597,
      "Ġunaligned": 8598,
      "Ġunison": 8599,
      "Ġuncere": 8600,
      "Ġunstudi": 8601,
      "Ġundue": 8602,
      "Ġunqualified": 8603,
      "Ġunaware": 8604,
      "Ġunjus": 8605,
      "Ġunvarying": 8606,
      "Ġunenligh": 8607,
      "Ġunorgan": 8608,
      "Ġunlawful": 8609,
      "Ġunlimited": 8610,
      "omes": 8611,
      "omla": 8612,
      "omation": 8613,
      "omable": 8614,
      "omest": 8615,
      "omine": 8616,
      "omark": 8617,
      "ometric": 8618,
      "ompu": 8619,
      "Ġtb": 8620,
      "Ġtmp": 8621,
      "Ġtut": 8622,
      "Ġtow": 8623,
      "Ġtok": 8624,
      "Ġtos": 8625,
      "Ġtown": 8626,
      "Ġtore": 8627,
      "Ġtls": 8628,
      "Ġtone": 8629,
      "Ġtout": 8630,
      "Ġtying": 8631,
      "Ġtold": 8632,
      "Ġtxt": 8633,
      "Ġtues": 8634,
      "Ġtones": 8635,
      "Ġtpu": 8636,
      "Ġtops": 8637,
      "Ġtdd": 8638,
      "Ġtune": 8639,
      "Ġtink": 8640,
      "Ġtorn": 8641,
      "Ġtfs": 8642,
      "Ġtrying": 8643,
      "Ġtiny": 8644,
      "Ġtcp": 8645,
      "Ġtsql": 8646,
      "Ġtoward": 8647,
      "Ġtfx": 8648,
      "Ġtogether": 8649,
      "Ġtfid": 8650,
      "Ġtkinter": 8651,
      "ril": 8652,
      "rip": 8653,
      "rial": 8654,
      "river": 8655,
      "rich": 8656,
      "riers": 8657,
      "riment": 8658,
      "rimed": 8659,
      "riages": 8660,
      "ritten": 8661,
      "rivile": 8662,
      "riendly": 8663,
      "rilateral": 8664,
      "ritekit": 8665,
      "rioriti": 8666,
      "Ġbing": 8667,
      "Ġbent": 8668,
      "Ġbmp": 8669,
      "Ġbol": 8670,
      "Ġbst": 8671,
      "Ġbag": 8672,
      "Ġbod": 8673,
      "Ġbow": 8674,
      "Ġbru": 8675,
      "Ġboun": 8676,
      "Ġblu": 8677,
      "Ġbard": 8678,
      "Ġbion": 8679,
      "Ġblog": 8680,
      "Ġbary": 8681,
      "Ġbatch": 8682,
      "Ġbite": 8683,
      "Ġbud": 8684,
      "Ġbust": 8685,
      "Ġbend": 8686,
      "Ġbash": 8687,
      "Ġbell": 8688,
      "Ġbold": 8689,
      "Ġbuses": 8690,
      "Ġbases": 8691,
      "Ġburs": 8692,
      "Ġbased": 8693,
      "Ġboring": 8694,
      "Ġbans": 8695,
      "Ġbif": 8696,
      "Ġbasing": 8697,
      "Ġbesi": 8698,
      "Ġbilling": 8699,
      "Ġbade": 8700,
      "Ġbilled": 8701,
      "Ġbdd": 8702,
      "Ġbends": 8703,
      "Ġbands": 8704,
      "Ġbought": 8705,
      "Ġbatched": 8706,
      "Ġbending": 8707,
      "Ġbert": 8708,
      "Ġborn": 8709,
      "Ġbrand": 8710,
      "Ġbowed": 8711,
      "Ġbatching": 8712,
      "Ġbatches": 8713,
      "Ġbows": 8714,
      "Ġbird": 8715,
      "Ġbounding": 8716,
      "Ġbounded": 8717,
      "Ġbests": 8718,
      "Ġbaff": 8719,
      "Ġbstr": 8720,
      "Ġbounds": 8721,
      "Ġbalanced": 8722,
      "Ġbordered": 8723,
      "Ġbidden": 8724,
      "Ġbsd": 8725,
      "Ġbtree": 8726,
      "Ġbalance": 8727,
      "Ġblogs": 8728,
      "Ġbrings": 8729,
      "Ġbalances": 8730,
      "Ġbalancing": 8731,
      "Ġbeware": 8732,
      "Ġbarely": 8733,
      "Ġborders": 8734,
      "Ġbsod": 8735,
      "Ġbtw": 8736,
      "Ġberno": 8737,
      "Ġbunch": 8738,
      "Ġblizz": 8739,
      "anted": 8740,
      "antic": 8741,
      "antes": 8742,
      "antation": 8743,
      "anger": 8744,
      "anumer": 8745,
      "anban": 8746,
      "anuary": 8747,
      "lore": 8748,
      "lots": 8749,
      "lover": 8750,
      "loqu": 8751,
      "loat": 8752,
      "lout": 8753,
      "lored": 8754,
      "lodi": 8755,
      "loved": 8756,
      "loud": 8757,
      "local": 8758,
      "loqui": 8759,
      "loscope": 8760,
      "user": 8761,
      "usation": 8762,
      "usive": 8763,
      "usions": 8764,
      "ushed": 8765,
      "ustice": 8766,
      "usibility": 8767,
      "usband": 8768,
      "ussian": 8769,
      "Ġole": 8770,
      "Ġour": 8771,
      "Ġoop": 8772,
      "Ġopa": 8773,
      "Ġopt": 8774,
      "Ġoust": 8775,
      "Ġoath": 8776,
      "Ġowe": 8777,
      "Ġoops": 8778,
      "Ġoem": 8779,
      "Ġouting": 8780,
      "Ġousted": 8781,
      "Ġodious": 8782,
      "Ġought": 8783,
      "Ġothers": 8784,
      "Ġodbc": 8785,
      "Ġoems": 8786,
      "Ġolder": 8787,
      "tsheet": 8788,
      "tscreen": 8789,
      "tstr": 8790,
      "Ġwent": 8791,
      "Ġwol": 8792,
      "Ġwet": 8793,
      "Ġwest": 8794,
      "Ġwine": 8795,
      "Ġwore": 8796,
      "Ġwand": 8797,
      "Ġwise": 8798,
      "Ġwlan": 8799,
      "Ġwick": 8800,
      "Ġwill": 8801,
      "Ġwound": 8802,
      "Ġweld": 8803,
      "Ġwiring": 8804,
      "Ġwished": 8805,
      "Ġwond": 8806,
      "Ġwelf": 8807,
      "Ġwright": 8808,
      "Ġwilled": 8809,
      "Ġwishing": 8810,
      "Ġwaking": 8811,
      "Ġwoken": 8812,
      "Ġwatched": 8813,
      "Ġwaded": 8814,
      "Ġwatching": 8815,
      "Ġwatches": 8816,
      "Ġwishes": 8817,
      "Ġwounding": 8818,
      "Ġwounded": 8819,
      "Ġwakes": 8820,
      "Ġwomen": 8821,
      "Ġworship": 8822,
      "Ġwisely": 8823,
      "Ġwsd": 8824,
      "Ġwrote": 8825,
      "Ġwreaking": 8826,
      "Ġwiser": 8827,
      "Ġwcf": 8828,
      "Ġwpf": 8829,
      "Ġwww": 8830,
      "Ġwysi": 8831,
      "Ġwestern": 8832,
      "Ġwisest": 8833,
      "ecim": 8834,
      "ectation": 8835,
      "ecies": 8836,
      "ecking": 8837,
      "ectly": 8838,
      "ecured": 8839,
      "ectors": 8840,
      "ecided": 8841,
      "ectious": 8842,
      "ecision": 8843,
      "ecurity": 8844,
      "ecoming": 8845,
      "ectual": 8846,
      "eclaring": 8847,
      "ecahedron": 8848,
      "eccable": 8849,
      "icine": 8850,
      "icular": 8851,
      "icking": 8852,
      "icuous": 8853,
      "icians": 8854,
      "icorp": 8855,
      "icompu": 8856,
      "Ġcone": 8857,
      "Ġconvi": 8858,
      "Ġconno": 8859,
      "Ġcontest": 8860,
      "Ġconception": 8861,
      "Ġcontained": 8862,
      "Ġconvolution": 8863,
      "Ġconforms": 8864,
      "Ġconcili": 8865,
      "Ġconsigned": 8866,
      "Ġconforming": 8867,
      "Ġcondolence": 8868,
      "vet": 8869,
      "vex": 8870,
      "vely": 8871,
      "vealed": 8872,
      "vember": 8873,
      "blematic": 8874,
      "Ġhp": 8875,
      "Ġhr": 8876,
      "Ġhis": 8877,
      "Ġhit": 8878,
      "Ġhid": 8879,
      "Ġhated": 8880,
      "Ġhates": 8881,
      "Ġhating": 8882,
      "Ġhint": 8883,
      "Ġhub": 8884,
      "Ġhite": 8885,
      "Ġhind": 8886,
      "Ġhist": 8887,
      "Ġhue": 8888,
      "Ġhav": 8889,
      "Ġhive": 8890,
      "Ġhits": 8891,
      "Ġhints": 8892,
      "Ġhones": 8893,
      "Ġheld": 8894,
      "Ġhiring": 8895,
      "Ġhitting": 8896,
      "Ġhdd": 8897,
      "Ġhides": 8898,
      "Ġhinted": 8899,
      "Ġhours": 8900,
      "Ġhubs": 8901,
      "Ġhows": 8902,
      "Ġhinting": 8903,
      "Ġhunt": 8904,
      "Ġhiding": 8905,
      "Ġhidden": 8906,
      "Ġhsql": 8907,
      "Ġhush": 8908,
      "Ġhull": 8909,
      "Ġhtaccess": 8910,
      "Ġhcl": 8911,
      "Ġhindered": 8912,
      "Ġhusband": 8913,
      "itly": 8914,
      "itmq": 8915,
      "verb": 8916,
      "verty": 8917,
      "versing": 8918,
      "verings": 8919,
      "ulp": 8920,
      "ulli": 8921,
      "ulder": 8922,
      "ulsed": 8923,
      "ullied": 8924,
      "ultory": 8925,
      "sites": 8926,
      "sify": 8927,
      "sight": 8928,
      "size": 8929,
      "sitional": 8930,
      "sizing": 8931,
      "sighted": 8932,
      "silon": 8933,
      "cels": 8934,
      "ceive": 8935,
      "terings": 8936,
      "ento": 8937,
      "entures": 8938,
      "entrop": 8939,
      "chance": 8940,
      "chart": 8941,
      "chats": 8942,
      "chrome": 8943,
      "asp": 8944,
      "aster": 8945,
      "astic": 8946,
      "asmin": 8947,
      "astly": 8948,
      "asco": 8949,
      "asiness": 8950,
      "astidious": 8951,
      "assert": 8952,
      "Ġgb": 8953,
      "Ġgan": 8954,
      "Ġgat": 8955,
      "Ġgated": 8956,
      "Ġgap": 8957,
      "Ġgates": 8958,
      "Ġglu": 8959,
      "Ġgpt": 8960,
      "Ġgenti": 8961,
      "Ġgls": 8962,
      "Ġgone": 8963,
      "Ġgently": 8964,
      "Ġgist": 8965,
      "Ġgith": 8966,
      "Ġgps": 8967,
      "Ġgrun": 8968,
      "Ġgold": 8969,
      "Ġgau": 8970,
      "Ġgene": 8971,
      "Ġgarn": 8972,
      "Ġgpu": 8973,
      "Ġgdb": 8974,
      "Ġgrew": 8975,
      "Ġgaps": 8976,
      "Ġglass": 8977,
      "Ġgrant": 8978,
      "Ġgave": 8979,
      "Ġgstream": 8980,
      "Ġgrand": 8981,
      "Ġgian": 8982,
      "Ġgrams": 8983,
      "Ġglut": 8984,
      "Ġgnns": 8985,
      "Ġgpg": 8986,
      "Ġglasses": 8987,
      "Ġgather": 8988,
      "Ġgpus": 8989,
      "Ġgmail": 8990,
      "Ġghz": 8991,
      "Ġgwt": 8992,
      "Ġgzip": 8993,
      "Ġgrids": 8994,
      "Ġgitignore": 8995,
      "Ġgcc": 8996,
      "Ġgpten": 8997,
      "Ġgsm": 8998,
      "Ġgzipped": 8999,
      "Ġgonna": 9000,
      "Ġgerri": 9001,
      "Ġgorge": 9002,
      "Ġgrip": 9003,
      "Ġgulp": 9004,
      "esse": 9005,
      "essor": 9006,
      "essable": 9007,
      "Ġdeed": 9008,
      "Ġdear": 9009,
      "Ġdepo": 9010,
      "Ġdetes": 9011,
      "Ġdefi": 9012,
      "Ġdefy": 9013,
      "Ġdetain": 9014,
      "Ġdejec": 9015,
      "Ġdefied": 9016,
      "Ġdeals": 9017,
      "Ġdevis": 9018,
      "Ġdefies": 9019,
      "Ġdeteri": 9020,
      "Ġdeloc": 9021,
      "Ġdefying": 9022,
      "Ġdeposi": 9023,
      "Ġdears": 9024,
      "Ġdelay": 9025,
      "Ġdeprocess": 9026,
      "Ġdepos": 9027,
      "Ġdetained": 9028,
      "Ġdealing": 9029,
      "Ġdeforms": 9030,
      "Ġdeem": 9031,
      "Ġdetaining": 9032,
      "Ġdearly": 9033,
      "Ġdelicate": 9034,
      "Ġdelusion": 9035,
      "Ġdevices": 9036,
      "Ġdeforming": 9037,
      "Ġdelaying": 9038,
      "Ġdevalue": 9039,
      "Ġdevalues": 9040,
      "Ġdevalued": 9041,
      "Ġdearer": 9042,
      "Ġdevised": 9043,
      "Ġdelayed": 9044,
      "Ġdearest": 9045,
      "Ġdelays": 9046,
      "Ġdevise": 9047,
      "Ġdebian": 9048,
      "Ġdeedily": 9049,
      "atest": 9050,
      "ategor": 9051,
      "aterial": 9052,
      "izure": 9053,
      "izability": 9054,
      "Ġnn": 9055,
      "Ġnil": 9056,
      "Ġnos": 9057,
      "Ġnour": 9058,
      "Ġnative": 9059,
      "Ġnuts": 9060,
      "Ġnft": 9061,
      "Ġnational": 9062,
      "Ġnump": 9063,
      "Ġnif": 9064,
      "Ġnature": 9065,
      "Ġnought": 9066,
      "Ġngin": 9067,
      "Ġnods": 9068,
      "Ġnodes": 9069,
      "Ġnatively": 9070,
      "Ġndk": 9071,
      "Ġnaming": 9072,
      "Ġnamed": 9073,
      "Ġnfts": 9074,
      "Ġnlt": 9075,
      "Ġnope": 9076,
      "Ġnlp": 9077,
      "Ġnpm": 9078,
      "Ġntfs": 9079,
      "Ġnested": 9080,
      "Ġnomine": 9081,
      "url": 9082,
      "urking": 9083,
      "urning": 9084,
      "uristic": 9085,
      "urday": 9086,
      "urcates": 9087,
      "mpl": 9088,
      "mpty": 9089,
      "mptor": 9090,
      "mpered": 9091,
      "Ġiis": 9092,
      "Ġipo": 9093,
      "Ġiff": 9094,
      "Ġiam": 9095,
      "Ġids": 9096,
      "Ġiot": 9097,
      "Ġiron": 9098,
      "Ġipt": 9099,
      "Ġides": 9100,
      "Ġiee": 9101,
      "Ġionic": 9102,
      "Ġiphones": 9103,
      "Ġiframe": 9104,
      "Ġivy": 9105,
      "Ġiphone": 9106,
      "Ġipython": 9107,
      "Ġiaas": 9108,
      "Ġibm": 9109,
      "Ġdish": 9110,
      "Ġdisres": 9111,
      "Ġdisable": 9112,
      "Ġdiscom": 9113,
      "Ġdistri": 9114,
      "Ġdispa": 9115,
      "Ġdissing": 9116,
      "Ġdispi": 9117,
      "Ġdisks": 9118,
      "Ġdispos": 9119,
      "Ġdishes": 9120,
      "Ġdispose": 9121,
      "Ġdisposed": 9122,
      "Ġdistance": 9123,
      "Ġdistant": 9124,
      "Ġdisposition": 9125,
      "Ġdisables": 9126,
      "Ġdisposes": 9127,
      "Ġdisposing": 9128,
      "Ġdispositions": 9129,
      "Ġdisabilities": 9130,
      "Ġdislike": 9131,
      "Ġdistances": 9132,
      "Ġdisservice": 9133,
      "Ġdischarged": 9134,
      "Ġdismal": 9135,
      "Ġdisordered": 9136,
      "Ġdistantly": 9137,
      "Ġdischarge": 9138,
      "Ġdisposable": 9139,
      "Ġdisinformation": 9140,
      "Ġdisutility": 9141,
      "Ġdisassoci": 9142,
      "Ġdisdain": 9143,
      "Ġdisingen": 9144,
      "Ġdisentang": 9145,
      "Ġdisliked": 9146,
      "Ġexit": 9147,
      "Ġexqu": 9148,
      "Ġextri": 9149,
      "Ġextin": 9150,
      "Ġexist": 9151,
      "Ġexisten": 9152,
      "Ġexits": 9153,
      "Ġexited": 9154,
      "Ġexists": 9155,
      "Ġexif": 9156,
      "Ġexpose": 9157,
      "Ġexposed": 9158,
      "Ġexisted": 9159,
      "Ġexult": 9160,
      "Ġexposition": 9161,
      "Ġexisting": 9162,
      "Ġexiting": 9163,
      "Ġexert": 9164,
      "Ġexposes": 9165,
      "Ġexample": 9166,
      "Ġexposing": 9167,
      "Ġexpositions": 9168,
      "Ġexistence": 9169,
      "Ġexacted": 9170,
      "Ġexamples": 9171,
      "Ġexhibit": 9172,
      "Ġexabytes": 9173,
      "Ġexacting": 9174,
      "resting": 9175,
      "resol": 9176,
      "resnet": 9177,
      "Ġsue": 9178,
      "Ġsum": 9179,
      "Ġsure": 9180,
      "Ġsuing": 9181,
      "Ġsues": 9182,
      "Ġsued": 9183,
      "Ġsuit": 9184,
      "Ġsuite": 9185,
      "Ġsums": 9186,
      "Ġsupre": 9187,
      "Ġsuited": 9188,
      "Ġsudo": 9189,
      "Ġsurely": 9190,
      "Ġsuitable": 9191,
      "Ġsumma": 9192,
      "olen": 9193,
      "olor": 9194,
      "olver": 9195,
      "olded": 9196,
      "olently": 9197,
      "olishing": 9198,
      "olerable": 9199,
      "olvent": 9200,
      "ollection": 9201,
      "qued": 9202,
      "qually": 9203,
      "quity": 9204,
      "queness": 9205,
      "quately": 9206,
      "quiring": 9207,
      "qualities": 9208,
      "queries": 9209,
      "ersand": 9210,
      "ersuadable": 9211,
      "ppings": 9212,
      "pported": 9213,
      "aton": 9214,
      "athe": 9215,
      "attle": 9216,
      "atuation": 9217,
      "attack": 9218,
      "aturated": 9219,
      "ilst": 9220,
      "ilty": 9221,
      "ilful": 9222,
      "iltered": 9223,
      "ilingly": 9224,
      "iltering": 9225,
      "illable": 9226,
      "illance": 9227,
      "illover": 9228,
      "dev": 9229,
      "dean": 9230,
      "derest": 9231,
      "devices": 9232,
      "utu": 9233,
      "uttal": 9234,
      "cken": 9235,
      "ckily": 9236,
      "cketing": 9237,
      "stm": 9238,
      "stop": 9239,
      "strate": 9240,
      "story": 9241,
      "starts": 9242,
      "stora": 9243,
      "strained": 9244,
      "stores": 9245,
      "street": 9246,
      "strophe": 9247,
      "Ġcoming": 9248,
      "Ġcomes": 9249,
      "Ġcombo": 9250,
      "Ġcomfy": 9251,
      "Ġcomma": 9252,
      "Ġcomments": 9253,
      "Ġcommis": 9254,
      "Ġcompos": 9255,
      "Ġcommented": 9256,
      "Ġcompose": 9257,
      "Ġcommenting": 9258,
      "Ġcomposes": 9259,
      "Ġcomposing": 9260,
      "Ġcommentary": 9261,
      "Ġcommissions": 9262,
      "Ġcompositions": 9263,
      "Ġcomposable": 9264,
      "igmas": 9265,
      "redata": 9266,
      "adb": 9267,
      "added": 9268,
      "adays": 9269,
      "adecim": 9270,
      "Ġprove": 9271,
      "Ġprose": 9272,
      "Ġprotra": 9273,
      "Ġproves": 9274,
      "Ġproph": 9275,
      "Ġpropen": 9276,
      "Ġproven": 9277,
      "Ġproved": 9278,
      "Ġproving": 9279,
      "Ġpropped": 9280,
      "Ġprobe": 9281,
      "Ġprotest": 9282,
      "Ġprovable": 9283,
      "Ġpropose": 9284,
      "Ġproposed": 9285,
      "Ġproposition": 9286,
      "Ġproposes": 9287,
      "Ġproposing": 9288,
      "Ġprofile": 9289,
      "Ġpromised": 9290,
      "Ġpropositions": 9291,
      "Ġprovably": 9292,
      "Ġprotru": 9293,
      "Ġprofits": 9294,
      "Ġprovised": 9295,
      "Ġprovocation": 9296,
      "Ġprouds": 9297,
      "Ġprouded": 9298,
      "Ġprophe": 9299,
      "Ġprovise": 9300,
      "Ġprohibit": 9301,
[...]
