{
  "version": "1.0",
  "truncation": null,
  "padding": null,
  "added_tokens": [
    {
      "id": 0,
      "content": "</s>",
      "single_word": false,
      "lstrip": false,
      "rstrip": false,
      "normalized": false,
      "special": true
    }
  ],
  "normalizer": null,
  "pre_tokenizer": {
    "type": "ByteLevel",
    "add_prefix_space": false,
    "trim_offsets": true,
    "use_regex": true
  },
  "post_processor": null,
  "decoder": {
    "type": "ByteLevel",
    "add_prefix_space": true,
    "trim_offsets": true,
    "use_regex": true
  },
  "model": {
    "type": "BPE",
    "dropout": null,
    "unk_token": null,
    "continuing_subword_prefix": null,
    "end_of_word_suffix": null,
    "fuse_unk": false,
    "byte_fallback": false,
    "ignore_merges": false,
    "vocab": {
      "</s>": 0,
      "!": 1,
      "\"": 2,
      "#": 3,
      "$": 4,
      "%": 5,
      "&": 6,
      "'": 7,
      "(": 8,
      ")": 9,
      "*": 10,
      "+": 11,
      ",": 12,
      "-": 13,
      ".": 14,
      "/": 15,
      "0": 16,
      "1": 17,
      "2": 18,
      "3": 19,
      "4": 20,
      "5": 21,
      "6": 22,
      "7": 23,
      "8": 24,
      "9": 25,
      ":": 26,
      ";": 27,
      "<": 28,
      "=": 29,
      ">": 30,
      "?": 31,
      "@": 32,
      "A": 33,
      "B": 34,
      "C": 35,
      "D": 36,
      "E": 37,
      "F": 38,
      "G": 39,
      "H": 40,
      "I": 41,
      "J": 42,
      "K": 43,
      "L": 44,
      "M": 45,
      "N": 46,
      "O": 47,
      "P": 48,
      "Q": 49,
      "R": 50,
      "S": 51,
      "T": 52,
      "U": 53,
      "V": 54,
      "W": 55,
      "X": 56,
      "Y": 57,
      "Z": 58,
      "[": 59,
      "\\": 60,
      "]": 61,
      "^": 62,
      "_": 63,
      "`": 64,
      "a": 65,
      "b": 66,
      "c": 67,
      "d": 68,
      "e": 69,
      "f": 70,
      "g": 71,
      "h": 72,
      "i": 73,
      "j": 74,
      "k": 75,
      "l": 76,
      "m": 77,
      "n": 78,
      "o": 79,
      "p": 80,
      "q": 81,
      "r": 82,
      "s": 83,
      "t": 84,
      "u": 85,
      "v": 86,
      "w": 87,
      "x": 88,
      "y": 89,
      "z": 90,
      "{": 91,
      "|": 92,
      "}": 93,
      "~": 94,
      "¡": 95,
      "¢": 96,
      "£": 97,
      "¤": 98,
      "¥": 99,
      "¦": 100,
      "§": 101,
      "¨": 102,
      "©": 103,
      "ª": 104,
      "«": 105,
      "¬": 106,
      "®": 107,
      "¯": 108,
      "°": 109,
      "±": 110,
      "²": 111,
      "³": 112,
      "´": 113,
      "µ": 114,
      "¶": 115,
      "·": 116,
      "¸": 117,
      "¹": 118,
      "º": 119,
      "»": 120,
      "¼": 121,
      "½": 122,
      "¾": 123,
      "¿": 124,
      "À": 125,
      "Á": 126,
      "Â": 127,
      "Ã": 128,
      "Ä": 129,
      "Å": 130,
      "Æ": 131,
      "Ç": 132,
      "È": 133,
      "É": 134,
      "Ê": 135,
      "Ë": 136,
      "Ì": 137,
      "Í": 138,
      "Î": 139,
      "Ï": 140,
      "Ð": 141,
      "Ñ": 142,
      "Ò": 143,
      "Ó": 144,
      "Ô": 145,
      "Õ": 146,
      "Ö": 147,
      "×": 148,
      "Ø": 149,
      "Ù": 150,
      "Ú": 151,
      "Û": 152,
      "Ü": 153,
      "Ý": 154,
      "Þ": 155,
      "ß": 156,
      "à": 157,
      "á": 158,
      "â": 159,
      "ã": 160,
      "ä": 161,
      "å": 162,
      "æ": 163,
      "ç": 164,
      "è": 165,
      "é": 166,
      "ê": 167,
      "ë": 168,
      "ì": 169,
      "í": 170,
      "î": 171,
      "ï": 172,
      "ð": 173,
      "ñ": 174,
      "ò": 175,
      "ó": 176,
      "ô": 177,
      "õ": 178,
      "ö": 179,
      "÷": 180,
      "ø": 181,
      "ù": 182,
      "ú": 183,
      "û": 184,
      "ü": 185,
      "ý": 186,
      "þ": 187,
      "ÿ": 188,
      "Ā": 189,
      "ā": 190,
      "Ă": 191,
      "ă": 192,
      "Ą": 193,
      "ą": 194,
      "Ć": 195,
      "ć": 196,
      "Ĉ": 197,
      "ĉ": 198,
      "Ċ": 199,
      "ċ": 200,
      "Č": 201,
      "č": 202,
      "Ď": 203,
      "ď": 204,
      "Đ": 205,
      "đ": 206,
      "Ē": 207,
      "ē": 208,
      "Ĕ": 209,
      "ĕ": 210,
      "Ė": 211,
      "ė": 212,
      "Ę": 213,
      "ę": 214,
      "Ě": 215,
      "ě": 216,
      "Ĝ": 217,
      "ĝ": 218,
      "Ğ": 219,
      "ğ": 220,
      "Ġ": 221,
      "ġ": 222,
      "Ģ": 223,
      "ģ": 224,
      "Ĥ": 225,
      "ĥ": 226,
      "Ħ": 227,
      "ħ": 228,
      "Ĩ": 229,
      "ĩ": 230,
      "Ī": 231,
      "ī": 232,
      "Ĭ": 233,
      "ĭ": 234,
      "Į": 235,
      "į": 236,
      "İ": 237,
      "ı": 238,
      "Ĳ": 239,
      "ĳ": 240,
      "Ĵ": 241,
      "ĵ": 242,
      "Ķ": 243,
      "ķ": 244,
      "ĸ": 245,
      "Ĺ": 246,
      "ĺ": 247,
      "Ļ": 248,
      "ļ": 249,
      "Ľ": 250,
      "ľ": 251,
      "Ŀ": 252,
      "ŀ": 253,
      "Ł": 254,
      "ł": 255,
      "Ń": 256,
      "in": 257,
      "er": 258,
      "ed": 259,
      "es": 260,
      "on": 261,
      "ti": 262,
      "ing": 263,
      "en": 264,
      "al": 265,
      "at": 266,
      "or": 267,
      "re": 268,
      "Ġs": 269,
      "an": 270,
      "ar": 271,
      "is": 272,
      "Ġc": 273,
      "tion": 274,
      "ĠS": 275,
      "le": 276,
      "it": 277,
      "ĠC": 278,
      "as": 279,
      "ic": 280,
      "ro": 281,
      "Ġp": 282,
      "ly": 283,
      "Ġd": 284,
      "ra": 285,
      "un": 286,
      "ĠP": 287,
      "ent": 288,
      "ul": 289,
      "ec": 290,
      "ĠA": 291,
      "el": 292,
      "om": 293,
      "ation": 294,
      "ĠR": 295,
      "ĠD": 296,
      "ac": 297,
      "Ġm": 298,
      "ab": 299,
      "us": 300,
      "ers": 301,
      "il": 302,
      "Ġt": 303,
      "ur": 304,
      "ĠM": 305,
      "ol": 306,
      "et": 307,
      "ess": 308,
      "Ġre": 309,
      "Ġf": 310,
      "ĠT": 311,
      "ĠI": 312,
      "ut": 313,
      "Ġb": 314,
      "ri": 315,
      "ĠE": 316,
      "iz": 317,
      "Ġin": 318,
      "lo": 319,
      "ĠF": 320,
      "em": 321,
      "ĠB": 322,
      "ad": 323,
      "ig": 324,
      "ve": 325,
      "ter": 326,
      "ch": 327,
      "id": 328,
      "am": 329,
      "st": 330,
      "Ġh": 331,
      "Ġw": 332,
      "ag": 333,
      "ity": 334,
      "ĠIn": 335,
      "ce": 336,
      "im": 337,
      "ts": 338,
      "Ġun": 339,
      "ap": 340,
      "ver": 341,
      "ĠH": 342,
      "ate": 343,
      "able": 344,
      "tic": 345,
      "um": 346,
      "Ġe": 347,
      "ĠL": 348,
      "Ġg": 349,
      "ot": 350,
      "od": 351,
      "op": 352,
      "up": 353,
      "ĠO": 354,
      "ir": 355,
      "ĠU": 356,
      "os": 357,
      "ated": 358,
      "Ġn": 359,
      "est": 360,
      "ĠW": 361,
      "if": 362,
      "qu": 363,
      "ub": 364,
      "ĠG": 365,
      "pl": 366,
      "Ġcon": 367,
      "ĠRe": 368,
      "ow": 369,
      "ct": 370,
      "ally": 371,
      "ion": 372,
      "ist": 373,
      "ĠN": 374,
      "Ġo": 375,
      "Ġr": 376,
      "Ġst": 377,
      "Ġl": 378,
      "tive": 379,
      "omp": 380,
      "end": 381,
      "og": 382,
      "ran": 383,
      "ĠCon": 384,
      "oc": 385,
      "ĠUn": 386,
      "ted": 387,
      "ep": 388,
      "ff": 389,
      "ting": 390,
      "ay": 391,
      "ous": 392,
      "ating": 393,
      "ased": 394,
      "ass": 395,
      "ip": 396,
      "ens": 397,
      "ain": 398,
      "and": 399,
      "Ġv": 400,
      "orm": 401,
      "igh": 402,
      "ĠSt": 403,
      "ak": 404,
      "ulti": 405,
      "th": 406,
      "Ġa": 407,
      "ment": 408,
      "uc": 409,
      "Ġex": 410,
      "ates": 411,
      "ard": 412,
      "'s": 413,
      "ations": 414,
      "ies": 415,
      "iv": 416,
      "ĠV": 417,
      "ud": 418,
      "aliz": 419,
      "ors": 420,
      "ling": 421,
      "Ġpro": 422,
      "ib": 423,
      "oun": 424,
      "ef": 425,
      "ks": 426,
      "ex": 427,
      "ug": 428,
      "ine": 429,
      "Ġdis": 430,
      "led": 431,
      "ph": 432,
      "ant": 433,
      "Ġsp": 434,
      "ĠEx": 435,
      "enc": 436,
      "ew": 437,
      "tim": 438,
      "based": 439,
      "Ġch": 440,
      "ack": 441,
      "der": 442,
      "yp": 443,
      "tions": 444,
      "her": 445,
      "av": 446,
      "pro": 447,
      "ĠPro": 448,
      "all": 449,
      "ear": 450,
      "ness": 451,
      "ang": 452,
      "iti": 453,
      "eb": 454,
      "ility": 455,
      "ev": 456,
      "ress": 457,
      "les": 458,
      "rac": 459,
      "eg": 460,
      "our": 461,
      "ish": 462,
      "Ġsh": 463,
      "ect": 464,
      "ok": 465,
      "age": 466,
      "ell": 467,
      "ure": 468,
      "ss": 469,
      "ĠSp": 470,
      "ĠCh": 471,
      "ast": 472,
      "ram": 473,
      "con": 474,
      "ĠEn": 475,
      "ĠMulti": 476,
      "ill": 477,
      "ive": 478,
      "per": 479,
      "ĠDis": 480,
      "ust": 481,
      "low": 482,
      "form": 483,
      "rans": 484,
      "Ġj": 485,
      "ance": 486,
      "ence": 487,
      "als": 488,
      "ric": 489,
      "ful": 490,
      "alis": 491,
      "ati": 492,
      "res": 493,
      "Ġim": 494,
      "ator": 495,
      "ach": 496,
      "Ġsub": 497,
      "anc": 498,
      "king": 499,
      "ĠSh": 500,
      "ign": 501,
      "ru": 502,
      "Ġsc": 503,
      "ind": 504,
      "ort": 505,
      "omm": 506,
      "less": 507,
      "erv": 508,
      "olog": 509,
      "ron": 510,
      "loc": 511,
      "Ġpre": 512,
      "ized": 513,
      "Ġac": 514,
      "Ġad": 515,
      "art": 516,
      "Ġres": 517,
      "ative": 518,
      "enti": 519,
      "ability": 520,
      "app": 521,
      "ĠAn": 522,
      "Ġth": 523,
      "ry": 524,
      "ord": 525,
      "sc": 526,
      "ight": 527,
      "row": 528,
      "cl": 529,
      "oin": 530,
      "ven": 531,
      "rad": 532,
      "vers": 533,
      "ail": 534,
      "Ġcomp": 535,
      "ash": 536,
      "own": 537,
      "ire": 538,
      "ical": 539,
      "ied": 540,
      "Ġan": 541,
      "ge": 542,
      "Ġover": 543,
      "Ġk": 544,
      "bo": 545,
      "se": 546,
      "ath": 547,
      "rain": 548,
      "Ġrec": 549,
      "to": 550,
      "Ġco": 551,
      "min": 552,
      "sp": 553,
      "ĠAd": 554,
      "fer": 555,
      "are": 556,
      "pos": 557,
      "ise": 558,
      "elf": 559,
      "ound": 560,
      "ary": 561,
      "ents": 562,
      "Ġmulti": 563,
      "ĠIm": 564,
      "ial": 565,
      "pt": 566,
      "ost": 567,
      "ĠRec": 568,
      "ll": 569,
      "ĠK": 570,
      "Ġnon": 571,
      "rib": 572,
      "ari": 573,
      "ĠComp": 574,
      "ically": 575,
      "ys": 576,
      "cess": 577,
      "Ġinter": 578,
      "ked": 579,
      "of": 580,
      "out": 581,
      "ĠJ": 582,
      "Ġro": 583,
      "ality": 584,
      "atch": 585,
      "ĠSc": 586,
      "und": 587,
      "red": 588,
      "ves": 589,
      "eter": 590,
      "act": 591,
      "ĠTh": 592,
      "Ġar": 593,
      "Ġle": 594,
      "ons": 595,
      "tif": 596,
      "ĠSub": 597,
      "ĠRes": 598,
      "ide": 599,
      "yn": 600,
      "Ġcont": 601,
      "Ġen": 602,
      "ize": 603,
      "ious": 604,
      "ular": 605,
      "ext": 606,
      "ble": 607,
      "ings": 608,
      "ĠPre": 609,
      "ific": 610,
      "Ġem": 611,
      "ore": 612,
      "ĠNon": 613,
      "Ġqu": 614,
      "att": 615,
      "ĠInter": 616,
      "ob": 617,
      "pp": 618,
      "lect": 619,
      "ice": 620,
      "Ġdec": 621,
      "ugh": 622,
      "ition": 623,
      "raph": 624,
      "ets": 625,
      "Ġcl": 626,
      "ech": 627,
      "ĠAc": 628,
      "ree": 629,
      "ions": 630,
      "aw": 631,
      "ener": 632,
      "amp": 633,
      "one": 634,
      "ork": 635,
      "ite": 636,
      "ĠCo": 637,
      "Ġpar": 638,
      "eat": 639,
      "ull": 640,
      "iss": 641,
      "ient": 642,
      "uff": 643,
      "Ġal": 644,
      "ans": 645,
      "Ġfl": 646,
      "ĠCont": 647,
      "ue": 648,
      "ying": 649,
      "ross": 650,
      "ee": 651,
      "ĠAr": 652,
      "ĠQ": 653,
      "Ġpl": 654,
      "Ġint": 655,
      "ities": 656,
      "Ġper": 657,
      "Based": 658,
      "atic": 659,
      "old": 660,
      "tiv": 661,
      "Ġind": 662,
      "air": 663,
      "ction": 664,
      "ix": 665,
      "Ġlo": 666,
      "ators": 667,
      "ead": 668,
      "Ġop": 669,
      "Ġtrans": 670,
      "oll": 671,
      "ution": 672,
      "ile": 673,
      "ong": 674,
      "ning": 675,
      "Ġaut": 676,
      "over": 677,
      "its": 678,
      "Ġob": 679,
      "ber": 680,
      "Ġsw": 681,
      "icro": 682,
      "izing": 683,
      "ax": 684,
      "iew": 685,
      "ual": 686,
      "ĠDec": 687,
      "eep": 688,
      "ym": 689,
      "ĠCl": 690,
      "ĠPar": 691,
      "ruct": 692,
      "vel": 693,
      "ism": 694,
      "ick": 695,
      "oot": 696,
      "rin": 697,
      "ĠAl": 698,
      "Ġout": 699,
      "ty": 700,
      "Ġimp": 701,
      "ures": 702,
      "arm": 703,
      "Ġrep": 704,
      "ged": 705,
      "duc": 706,
      "sh": 707,
      "ĠAut": 708,
      "ably": 709,
      "ization": 710,
      "ement": 711,
      "eed": 712,
      "te": 713,
      "Ġup": 714,
      "ĠPl": 715,
      "Ġfor": 716,
      "ey": 717,
      "ps": 718,
      "Ġab": 719,
      "eness": 720,
      "ace": 721,
      "ĠOver": 722,
      "ible": 723,
      "ised": 724,
      "ract": 725,
      "rig": 726,
      "Ġwh": 727,
      "af": 728,
      "ging": 729,
      "tit": 730,
      "ory": 731,
      "ase": 732,
      "ĠTrans": 733,
      "ising": 734,
      "ration": 735,
      "ĠEm": 736,
      "Ġweb": 737,
      "ĠInt": 738,
      "por": 739,
      "ith": 740,
      "eal": 741,
      "jec": 742,
      "lin": 743,
      "ring": 744,
      "read": 745,
      "plic": 746,
      "ake": 747,
      "ult": 748,
      "ool": 749,
      "tain": 750,
      "Ġsl": 751,
      "rid": 752,
      "ments": 753,
      "ĠQu": 754,
      "vol": 755,
      "Ġap": 756,
      "Ġinf": 757,
      "tically": 758,
      "Ġass": 759,
      "comp": 760,
      "ele": 761,
      "ou": 762,
      "ood": 763,
      "ped": 764,
      "ward": 765,
      "ater": 766,
      "ark": 767,
      "ists": 768,
      "ier": 769,
      "val": 770,
      "ond": 771,
      "alized": 772,
      "rit": 773,
      "Ġsup": 774,
      "Ġins": 775,
      "ĠFl": 776,
      "ency": 777,
      "ges": 778,
      "Ġit": 779,
      "ĠPer": 780,
      "rel": 781,
      "ited": 782,
      "ured": 783,
      "oint": 784,
      "ne": 785,
      "Ġam": 786,
      "ics": 787,
      "ode": 788,
      "ograph": 789,
      "ered": 790,
      "reak": 791,
      "ock": 792,
      "Ġor": 793,
      "Ġdep": 794,
      "Ġref": 795,
      "ays": 796,
      "time": 797,
      "Ġdes": 798,
      "ently": 799,
      "ale": 800,
      "Ġcom": 801,
      "Ġmis": 802,
      "str": 803,
      "ages": 804,
      "ĠOb": 805,
      "Ġcons": 806,
      "eas": 807,
      "ream": 808,
      "Ġdef": 809,
      "Ġmin": 810,
      "Ġreg": 811,
      "Ġexp": 812,
      "cri": 813,
      "ering": 814,
      "ises": 815,
      "Ġcomm": 816,
      "izes": 817,
      "ik": 818,
      "orn": 819,
      "ĠAI": 820,
      "umm": 821,
      "ov": 822,
      "ĠAt": 823,
      "els": 824,
      "ush": 825,
      "alization": 826,
      "now": 827,
      "ple": 828,
      "ata": 829,
      "rec": 830,
      "ild": 831,
      "ute": 832,
      "load": 833,
      "ĠOp": 834,
      "Ġacc": 835,
      "lic": 836,
      "Ġbl": 837,
      "ched": 838,
      "line": 839,
      "Ġra": 840,
      "Ġph": 841,
      "ously": 842,
      "iness": 843,
      "ants": 844,
      "ome": 845,
      "urn": 846,
      "Ġund": 847,
      "lock": 848,
      "ping": 849,
      "ser": 850,
      "ars": 851,
      "ĠSup": 852,
      "ational": 853,
      "ĠFor": 854,
      "ĠInf": 855,
      "ified": 856,
      "alize": 857,
      "ĠSelf": 858,
      "Ġdem": 859,
      "ĠAss": 860,
      "cep": 861,
      "ĠOut": 862,
      "alizing": 863,
      "ook": 864,
      "par": 865,
      "ten": 866,
      "Ġapp": 867,
      "ĠSw": 868,
      "riv": 869,
      "ade": 870,
      "ĠHigh": 871,
      "ĠWh": 872,
      "ĠCons": 873,
      "ger": 874,
      "man": 875,
      "eck": 876,
      "Ġrel": 877,
      "aps": 878,
      "Ġconf": 879,
      "ia": 880,
      "ĠDef": 881,
      "aus": 882,
      "cre": 883,
      "for": 884,
      "view": 885,
      "ern": 886,
      "Ġsm": 887,
      "Ġmod": 888,
      "urs": 889,
      "umb": 890,
      "ĠReg": 891,
      "ances": 892,
      "vent": 893,
      "ines": 894,
      "Ġself": 895,
      "ision": 896,
      "aster": 897,
      "Ġdist": 898,
      "Ġred": 899,
      "eet": 900,
      "eak": 901,
      "gan": 902,
      "ues": 903,
      "uct": 904,
      "yst": 905,
      "Ġent": 906,
      "Ġatt": 907,
      "rag": 908,
      "raw": 909,
      "ĠMod": 910,
      "spec": 911,
      "Ġy": 912,
      "Ġag": 913,
      "ored": 914,
      "rop": 915,
      "ĠAb": 916,
      "eld": 917,
      "ĠDep": 918,
      "uring": 919,
      "ĠInd": 920,
      "irc": 921,
      "eh": 922,
      "serv": 923,
      "oring": 924,
      "Ġsn": 925,
      "ĠCross": 926,
      "ĠPh": 927,
      "ĠBl": 928,
      "ame": 929,
      "struct": 930,
      "ĠRep": 931,
      "med": 932,
      "rup": 933,
      "ters": 934,
      "ins": 935,
      "ery": 936,
      "Ġsk": 937,
      "ann": 938,
      "ĠAm": 939,
      "Ġai": 940,
      "az": 941,
      "ced": 942,
      "equ": 943,
      "ject": 944,
      "ined": 945,
      "ening": 946,
      "ats": 947,
      "Ġcr": 948,
      "ĠAp": 949,
      "riven": 950,
      "ify": 951,
      "tively": 952,
      "ension": 953,
      "nec": 954,
      "Ġas": 955,
      "ened": 956,
      "Ġcol": 957,
      "ĠSl": 958,
      "iting": 959,
      "ĠCom": 960,
      "ĠRel": 961,
      "emb": 962,
      "ĠRef": 963,
      "ending": 964,
      "ology": 965,
      "io": 966,
      "off": 967,
      "arn": 968,
      "ases": 969,
      "oss": 970,
      "ude": 971,
      "ĠExp": 972,
      "evel": 973,
      "ian": 974,
      "arg": 975,
      "itch": 976,
      "ĠComm": 977,
      "elling": 978,
      "Ġmicro": 979,
      "Ġhigh": 980,
      "ĠOr": 981,
      "rand": 982,
      "ĠAcc": 983,
      "ware": 984,
      "ict": 985,
      "ĠDist": 986,
      "Ġrem": 987,
      "Ġret": 988,
      "los": 989,
      "oci": 990,
      "process": 991,
      "ever": 992,
      "oo": 993,
      "ĠSk": 994,
      "eless": 995,
      "ately": 996,
      "yper": 997,
      "atis": 998,
      "ĠY": 999,
      "ink": 1000,
      "atter": 1001,
      "Ġdo": 1002,
      "Ġunder": 1003,
      "ips": 1004,
      "uck": 1005,
      "gram": 1006,
      "net": 1007,
      "ties": 1008,
      "eng": 1009,
      "reg": 1010,
      "Ġsur": 1011,
      "unction": 1012,
      "ulated": 1013,
      "Ġmon": 1014,
      "urb": 1015,
      "ĠMis": 1016,
      "tics": 1017,
      "iff": 1018,
      "hor": 1019,
      "oy": 1020,
      "Ġel": 1021,
      "Ġus": 1022,
      "ingly": 1023,
      "ret": 1024,
      "Ġcor": 1025,
      "iter": 1026,
      "ĠCol": 1027,
      "acks": 1028,
      "Ġtra": 1029,
      "ĠMin": 1030,
      "rim": 1031,
      "ystem": 1032,
      "ely": 1033,
      "mod": 1034,
      "ough": 1035,
      "Ġenc": 1036,
      "ĠSm": 1037,
      "Ġdi": 1038,
      "ĠMicro": 1039,
      "ences": 1040,
      "fully": 1041,
      "Ġdel": 1042,
      "ends": 1043,
      "ffic": 1044,
      "Ġext": 1045,
      "ished": 1046,
      "board": 1047,
      "eigh": 1048,
      "til": 1049,
      "tiz": 1050,
      "Ġpo": 1051,
      "ulation": 1052,
      "ĠDi": 1053,
      "Ġman": 1054,
      "used": 1055,
      "Ġspec": 1056,
      "ĠImp": 1057,
      "ave": 1058,
      "co": 1059,
      "eam": 1060,
      "yth": 1061,
      "inu": 1062,
      "order": 1063,
      "rol": 1064,
      "ented": 1065,
      "ulate": 1066,
      "abil": 1067,
      "Ġtw": 1068,
      "ural": 1069,
      "ĠMan": 1070,
      "tical": 1071,
      "ĠUp": 1072,
      "ose": 1073,
      "iffer": 1074,
      "ification": 1075,
      "cc": 1076,
      "ox": 1077,
      "esc": 1078,
      "Ġcap": 1079,
      "Ġcross": 1080,
      "rap": 1081,
      "omin": 1082,
      "Ġgl": 1083,
      "ĠConf": 1084,
      "struc": 1085,
      "com": 1086,
      "rate": 1087,
      "ray": 1088,
      "ĠRet": 1089,
      "etric": 1090,
      "ements": 1091,
      "ump": 1092,
      "ower": 1093,
      "here": 1094,
      "echn": 1095,
      "pec": 1096,
      "run": 1097,
      "sy": 1098,
      "Ġer": 1099,
      "Ġir": 1100,
      "ones": 1101,
      "alk": 1102,
      "rom": 1103,
      "Ġdev": 1104,
      "uted": 1105,
      "ĠIns": 1106,
      "cept": 1107,
      "Ġuns": 1108,
      "atory": 1109,
      "irect": 1110,
      "let": 1111,
      "ĠCor": 1112,
      "ĠRem": 1113,
      "erson": 1114,
      "urr": 1115,
      "hip": 1116,
      "miss": 1117,
      "work": 1118,
      "roll": 1119,
      "round": 1120,
      "ection": 1121,
      "ĠAg": 1122,
      "ĠApp": 1123,
      "use": 1124,
      "Ġinv": 1125,
      "ches": 1126,
      "ands": 1127,
      "ively": 1128,
      "ming": 1129,
      "oid": 1130,
      "rated": 1131,
      "word": 1132,
      "ĠSur": 1133,
      "ask": 1134,
      "asing": 1135,
      "Ġdown": 1136,
      "rif": 1137,
      "log": 1138,
      "irst": 1139,
      "ended": 1140,
      "ivers": 1141,
      "ivid": 1142,
      "ĠExt": 1143,
      "righ": 1144,
      "ms": 1145,
      "ually": 1146,
      "tig": 1147,
      "lex": 1148,
      "ites": 1149,
      "ĠPo": 1150,
      "oms": 1151,
      "ĠDem": 1152,
      "ĠTw": 1153,
      "Ġback": 1154,
      "Ġinc": 1155,
      "tered": 1156,
      "imension": 1157,
      "umer": 1158,
      "Ġequ": 1159,
      "Ġrest": 1160,
      "Ġdisc": 1161,
      "ype": 1162,
      "cont": 1163,
      "ĠAtt": 1164,
      "ield": 1165,
      "oil": 1166,
      "wor": 1167,
      "int": 1168,
      "ared": 1169,
      "itting": 1170,
      "Ġpres": 1171,
      "Ġmet": 1172,
      "Ġter": 1173,
      "ime": 1174,
      "other": 1175,
      "ender": 1176,
      "Ġaff": 1177,
      "ishing": 1178,
      "he": 1179,
      "ie": 1180,
      "ved": 1181,
      "Ġz": 1182,
      "inc": 1183,
      "inn": 1184,
      "iles": 1185,
      "Ġform": 1186,
      "ĠEl": 1187,
      "Ġunf": 1188,
      "Ġev": 1189,
      "ops": 1190,
      "play": 1191,
      "ount": 1192,
      "clus": 1193,
      "ĠAuto": 1194,
      "aun": 1195,
      "eer": 1196,
      "ior": 1197,
      "itive": 1198,
      "itions": 1199,
      "ole": 1200,
      "Ġsyn": 1201,
      "ank": 1202,
      "istic": 1203,
      "ulating": 1204,
      "ĠMon": 1205,
      "igu": 1206,
      "tering": 1207,
      "ums": 1208,
      "uman": 1209,
      "Ġge": 1210,
      "ups": 1211,
      "ĠWeb": 1212,
      "ĠUnd": 1213,
      "akes": 1214,
      "etermin": 1215,
      "gor": 1216,
      "hes": 1217,
      "ns": 1218,
      "ued": 1219,
      "ze": 1220,
      "educ": 1221,
      "estim": 1222,
      "tis": 1223,
      "arity": 1224,
      "Ġcoll": 1225,
      "lev": 1226,
      "ĠCap": 1227,
      "ices": 1228,
      "uses": 1229,
      "ĠMet": 1230,
      "loy": 1231,
      "ĠBack": 1232,
      "ching": 1233,
      "ider": 1234,
      "Ġwell": 1235,
      "Ġgu": 1236,
      "ote": 1237,
      "oph": 1238,
      "ifying": 1239,
      "ĠGe": 1240,
      "ector": 1241,
      "ĠSpec": 1242,
      "ĠEnc": 1243,
      "ustom": 1244,
      "ential": 1245,
      "Ġemb": 1246,
      "down": 1247,
      "iev": 1248,
      "Ġon": 1249,
      "ination": 1250,
      "lear": 1251,
      "ĠCr": 1252,
      "Ġdet": 1253,
      "ĠTra": 1254,
      "ries": 1255,
      "chron": 1256,
      "ampl": 1257,
      "ĠLow": 1258,
      "ĠOn": 1259,
      "Ġno": 1260,
      "aking": 1261,
      "ource": 1262,
      "Ġleg": 1263,
      "tivity": 1264,
      "sych": 1265,
      "duct": 1266,
      "driven": 1267,
      "een": 1268,
      "eav": 1269,
      "put": 1270,
      "rut": 1271,
      "yc": 1272,
      "Ġend": 1273,
      "aly": 1274,
      "rew": 1275,
      "Ġsol": 1276,
      "level": 1277,
      "acy": 1278,
      "ables": 1279,
      "erst": 1280,
      "ili": 1281,
      "illing": 1282,
      "Ġtop": 1283,
      "Ġreb": 1284,
      "ĠId": 1285,
      "empl": 1286,
      "agn": 1287,
      "ĠLo": 1288,
      "ense": 1289,
      "ains": 1290,
      "alizes": 1291,
      "ibility": 1292,
      "ugg": 1293,
      "alised": 1294,
      "tific": 1295,
      "iously": 1296,
      "volution": 1297,
      "nowled": 1298,
      "evelop": 1299,
      "'t": 1300,
      "eight": 1301,
      "ily": 1302,
      "pr": 1303,
      "pers": 1304,
      "ving": 1305,
      "orient": 1306,
      "Ġdat": 1307,
      "ĠDo": 1308,
      "ĠDes": 1309,
      "ifies": 1310,
      "quir": 1311,
      "ours": 1312,
      "ĠEnd": 1313,
      "ĠDisc": 1314,
      "alism": 1315,
      "ological": 1316,
      "rained": 1317,
      "actor": 1318,
      "ike": 1319,
      "by": 1320,
      "back": 1321,
      "cent": 1322,
      "oul": 1323,
      "ror": 1324,
      "test": 1325,
      "vis": 1326,
      "way": 1327,
      "Ġu": 1328,
      "erg": 1329,
      "ests": 1330,
      "ene": 1331,
      "aling": 1332,
      "Ġcal": 1333,
      "ĠRo": 1334,
      "ĠDel": 1335,
      "aces": 1336,
      "abor": 1337,
      "ilt": 1338,
      "uting": 1339,
      "ĠEqu": 1340,
      "Ġinst": 1341,
      "ided": 1342,
      "Ġoff": 1343,
      "Ġchar": 1344,
      "specific": 1345,
      "augh": 1346,
      "lay": 1347,
      "me": 1348,
      "rating": 1349,
      "zed": 1350,
      "ĠZ": 1351,
      "Ġloc": 1352,
      "ining": 1353,
      "ingle": 1354,
      "reat": 1355,
      "Ġsim": 1356,
      "Ġsym": 1357,
      "aring": 1358,
      "Ġcur": 1359,
      "tional": 1360,
      "ĠSim": 1361,
      "ĠSyn": 1362,
      "lec": 1363,
      "lement": 1364,
      "road": 1365,
      "raf": 1366,
      "ĠRest": 1367,
      "acter": 1368,
      "Ġmo": 1369,
      "Ġmar": 1370,
      "ĠText": 1371,
      "rip": 1372,
      "ameter": 1373,
      "Ġgo": 1374,
      "ĠNo": 1375,
      "ĠUnder": 1376,
      "ards": 1377,
      "eful": 1378,
      "alls": 1379,
      "rack": 1380,
      "atively": 1381,
      "Ġsuper": 1382,
      "St": 1383,
      "aff": 1384,
      "eu": 1385,
      "ky": 1386,
      "ld": 1387,
      "point": 1388,
      "ras": 1389,
      "sec": 1390,
      "writ": 1391,
      "Ġver": 1392,
      "inter": 1393,
      "atur": 1394,
      "rect": 1395,
      "ane": 1396,
      "ĠColl": 1397,
      "Ġde": 1398,
      "rab": 1399,
      "unn": 1400,
      "ulates": 1401,
      "eler": 1402,
      "acc": 1403,
      "ĠTer": 1404,
      "ĠForm": 1405,
      "ĠInc": 1406,
      "Ġunc": 1407,
      "Ġgener": 1408,
      "ĠGu": 1409,
      "Ġvis": 1410,
      "ives": 1411,
      "iber": 1412,
      "encies": 1413,
      "ills": 1414,
      "alising": 1415,
      "gress": 1416,
      "ience": 1417,
      "ots": 1418,
      "rust": 1419,
      "yl": 1420,
      "arch": 1421,
      "aries": 1422,
      "itation": 1423,
      "itted": 1424,
      "eling": 1425,
      "ĠRed": 1426,
      "Ġmed": 1427,
      "utes": 1428,
      "izer": 1429,
      "ides": 1430,
      "Ġhand": 1431,
      "ument": 1432,
      "ĠWell": 1433,
      "angu": 1434,
      "ishes": 1435,
      "alise": 1436,
      "Ġann": 1437,
      "box": 1438,
      "raining": 1439,
      "imensional": 1440,
      "In": 1441,
      "ean": 1442,
      "flow": 1443,
      "get": 1444,
      "iers": 1445,
      "iqu": 1446,
      "mar": 1447,
      "Ġi": 1448,
      "Ġrad": 1449,
      "reh": 1450,
      "Ġsumm": 1451,
      "roup": 1452,
      "Ġpred": 1453,
      "rable": 1454,
      "uls": 1455,
      "elled": 1456,
      "Ġrecon": 1457,
      "Ġfin": 1458,
      "riend": 1459,
      "ĠEv": 1460,
      "ids": 1461,
      "Ġwor": 1462,
      "Ġwork": 1463,
      "aging": 1464,
      "ĠInv": 1465,
      "Ġunb": 1466,
      "Ġunp": 1467,
      "ested": 1468,
      "ĠGener": 1469,
      "ows": 1470,
      "ogn": 1471,
      "ĠUns": 1472,
      "iving": 1473,
      "antly": 1474,
      "oft": 1475,
      "eek": 1476,
      "ooth": 1477,
      "related": 1478,
      "ehav": 1479,
      "Up": 1480,
      "aim": 1481,
      "ding": 1482,
      "dition": 1483,
      "hib": 1484,
      "port": 1485,
      "Ġtim": 1486,
      "Ġall": 1487,
      "ere": 1488,
      "Ġcy": 1489,
      "ĠSn": 1490,
      "asting": 1491,
      "ĠPres": 1492,
      "ĠAff": 1493,
      "ĠDown": 1494,
      "ĠData": 1495,
      "using": 1496,
      "ads": 1497,
      "tern": 1498,
      "chem": 1499,
      "aged": 1500,
      "iment": 1501,
      "ĠHyper": 1502,
      "epar": 1503,
      "ived": 1504,
      "udes": 1505,
      "Ġdiss": 1506,
      "resh": 1507,
      "igned": 1508,
      "class": 1509,
      "ails": 1510,
      "Ġlog": 1511,
      "aut": 1512,
      "bit": 1513,
      "cing": 1514,
      "ially": 1515,
      "press": 1516,
      "tes": 1517,
      "Ġast": 1518,
      "erc": 1519,
      "alf": 1520,
      "anti": 1521,
      "ĠSol": 1522,
      "roc": 1523,
      "Ġpop": 1524,
      "entr": 1525,
      "ĠDet": 1526,
      "usion": 1527,
      "ils": 1528,
      "Ġtext": 1529,
      "Ġfull": 1530,
      "chang": 1531,
      "amb": 1532,
      "agon": 1533,
      "ĠInst": 1534,
      "ĠOff": 1535,
      "ĠOne": 1536,
      "ĠWor": 1537,
      "ibly": 1538,
      "ears": 1539,
      "resp": 1540,
      "Ġsubs": 1541,
      "atching": 1542,
      "ces": 1543,
      "iable": 1544,
      "lu": 1545,
      "ler": 1546,
      "ule": 1547,
      "ways": 1548,
      "zing": 1549,
      "Ġid": 1550,
      "Ġlow": 1551,
      "ont": 1552,
      "onic": 1553,
      "alle": 1554,
      "alog": 1555,
      "Ġsign": 1556,
      "Ġcar": 1557,
      "itable": 1558,
      "ĠCal": 1559,
      "rough": 1560,
      "rav": 1561,
      "unic": 1562,
      "acing": 1563,
      "oler": 1564,
      "Ġflo": 1565,
      "ĠTop": 1566,
      "loud": 1567,
      "emp": 1568,
      "char": 1569,
      "Ġunt": 1570,
      "ĠHand": 1571,
      "Ġelect": 1572,
      "ĠLL": 1573,
      "ĠLoc": 1574,
      "irt": 1575,
      "ires": 1576,
      "ĠGl": 1577,
      "aining": 1578,
      "the": 1579,
      "ava": 1580,
      "anced": 1581,
      "ĠAnn": 1582,
      "rade": 1583,
      "ashing": 1584,
      "book": 1585,
      "echan": 1586,
      "Ġappro": 1587,
      "ĠSuper": 1588,
      "day": 1589,
      "ees": 1590,
      "iver": 1591,
      "ium": 1592,
      "mer": 1593,
      "ren": 1594,
      "voc": 1595,
      "onom": 1596,
      "ales": 1597,
      "reed": 1598,
      "isc": 1599,
      "Ġcri": 1600,
      "Ġcod": 1601,
      "Ġpass": 1602,
      "eled": 1603,
      "illed": 1604,
      "ĠMo": 1605,
      "ĠMed": 1606,
      "ollow": 1607,
      "lob": 1608,
      "ĠFin": 1609,
      "ĠLong": 1610,
      "ublic": 1611,
      "isted": 1612,
      "epend": 1613,
      "Ġaw": 1614,
      "ĠVer": 1615,
      "Ġprot": 1616,
      "ounter": 1617,
      "ront": 1618,
      "rows": 1619,
      "pped": 1620,
      "atically": 1621,
      "ouch": 1622,
      "right": 1623,
      "oriented": 1624,
      "eti": 1625,
      "free": 1626,
      "ians": 1627,
      "oes": 1628,
      "rates": 1629,
      "Ġti": 1630,
      "ention": 1631,
      "requ": 1632,
      "Ġser": 1633,
      "ĠCur": 1634,
      "Ġdeb": 1635,
      "ung": 1636,
      "ĠAll": 1637,
      "iled": 1638,
      "iling": 1639,
      "rior": 1640,
      "ĠFull": 1641,
      "ceed": 1642,
      "ody": 1643,
      "Ġovers": 1644,
      "ained": 1645,
      "Ġexc": 1646,
      "Ġprof": 1647,
      "earch": 1648,
      "oke": 1649,
      "ĠEnt": 1650,
      "aches": 1651,
      "Ġarch": 1652,
      "pping": 1653,
      "crimin": 1654,
      "cript": 1655,
      "ĠOpen": 1656,
      "ength": 1657,
      "au": 1658,
      "bed": 1659,
      "comm": 1660,
      "eap": 1661,
      "fram": 1662,
      "path": 1663,
      "ql": 1664,
      "tle": 1665,
      "uz": 1666,
      "uild": 1667,
      "ertain": 1668,
      "onym": 1669,
      "tible": 1670,
      "allow": 1671,
      "atri": 1672,
      "rem": 1673,
      "lean": 1674,
      "roph": 1675,
      "Ġpol": 1676,
      "Ġpost": 1677,
      "ĠPost": 1678,
      "ected": 1679,
      "ĠRad": 1680,
      "uss": 1681,
      "Ġtri": 1682,
      "Ġtyp": 1683,
      "ĠMar": 1684,
      "Ġbe": 1685,
      "ĠElect": 1686,
      "Ġhom": 1687,
      "ticip": 1688,
      "oted": 1689,
      "oting": 1690,
      "ired": 1691,
      "Ġconc": 1692,
      "rant": 1693,
      "ĠVis": 1694,
      "ypt": 1695,
      "ressed": 1696,
      "oken": 1697,
      "ĠChar": 1698,
      "ologically": 1699,
      "rowd": 1700,
      "pose": 1701,
      "posed": 1702,
      "ĠArch": 1703,
      "ography": 1704,
      "anguage": 1705,
      "'d": 1706,
      "eor": 1707,
      "light": 1708,
      "xim": 1709,
      "ingu": 1710,
      "Ġse": 1711,
      "Ġsqu": 1712,
      "Ġcirc": 1713,
      "ĠSe": 1714,
      "leg": 1715,
      "ĠCy": 1716,
      "Ġdest": 1717,
      "race": 1718,
      "ulations": 1719,
      "Ġbo": 1720,
      "riev": 1721,
      "ĠBi": 1722,
      "iding": 1723,
      "ident": 1724,
      "Ġhyper": 1725,
      "ĠLeg": 1726,
      "otes": 1727,
      "ope": 1728,
      "Ġneg": 1729,
      "aint": 1730,
      "anding": 1731,
      "Ġval": 1732,
      "mented": 1733,
      "earing": 1734,
      "raction": 1735,
      "cons": 1736,
      "connec": 1737,
      "forming": 1738,
      "Ġresp": 1739,
      "ashes": 1740,
      "Ġkey": 1741,
      "ounded": 1742,
      "tify": 1743,
      "Ġopen": 1744,
      "axim": 1745,
      "ought": 1746,
      "PT": 1747,
      "bs": 1748,
      "bing": 1749,
      "code": 1750,
      "des": 1751,
      "dle": 1752,
      "gu": 1753,
      "ls": 1754,
      "oing": 1755,
      "uit": 1756,
      "uch": 1757,
      "Ġx": 1758,
      "Ġis": 1759,
      "tice": 1760,
      "ather": 1761,
      "organ": 1762,
      "Ġsec": 1763,
      "Ġsem": 1764,
      "leep": 1765,
      "ĠCar": 1766,
      "Ġder": 1767,
      "Ġdig": 1768,
      "rations": 1769,
      "une": 1770,
      "unct": 1771,
      "ĠPred": 1772,
      "Ġrev": 1773,
      "Ġrein": 1774,
      "uter": 1775,
      "ading": 1776,
      "oder": 1777,
      "oper": 1778,
      "osition": 1779,
      "ife": 1780,
      "Ġren": 1781,
      "Ġlong": 1782,
      "andom": 1783,
      "inear": 1784,
      "enced": 1785,
      "prov": 1786,
      "produc": 1787,
      "aching": 1788,
      "ancy": 1789,
      "entif": 1790,
      "ashed": 1791,
      "irection": 1792,
      "position": 1793,
      "atched": 1794,
      "ynam": 1795,
      "Ġeng": 1796,
      "rink": 1797,
      "ealth": 1798,
      "atisf": 1799,
      "crib": 1800,
      "hood": 1801,
      "iest": 1802,
      "iance": 1803,
      "lass": 1804,
      "pag": 1805,
      "rus": 1806,
      "rast": 1807,
      "uation": 1808,
      "uous": 1809,
      "zes": 1810,
      "Ġat": 1811,
      "Ġec": 1812,
      "Ġill": 1813,
      "only": 1814,
      "tives": 1815,
      "enet": 1816,
      "alled": 1817,
      "orts": 1818,
      "orph": 1819,
      "ĠSqu": 1820,
      "ĠSumm": 1821,
      "ĠCirc": 1822,
      "Ġpers": 1823,
      "ĠPass": 1824,
      "ĠAs": 1825,
      "ĠDev": 1826,
      "ĠDeep": 1827,
      "Ġmem": 1828,
      "aby": 1829,
      "ĠTim": 1830,
      "Ġbi": 1831,
      "Ġbar": 1832,
      "rive": 1833,
      "ĠFlo": 1834,
      "ames": 1835,
      "Ġhard": 1836,
      "Ġhyp": 1837,
      "Ġhead": 1838,
      "ager": 1839,
      "ĠHard": 1840,
      "ategor": 1841,
      "ĠLog": 1842,
      "ott": 1843,
      "esting": 1844,
      "ĠWork": 1845,
      "Ġocc": 1846,
      "thes": 1847,
      "iveness": 1848,
      "Ġprov": 1849,
      "ourn": 1850,
      "oking": 1851,
      "resent": 1852,
      "lessly": 1853,
      "Ġadd": 1854,
      "apping": 1855,
      "ĠAnti": 1856,
      "Ġanti": 1857,
      "ĠKey": 1858,
      "arily": 1859,
      "Ġabs": 1860,
      "ception": 1861,
      "aul": 1862,
      "bal": 1863,
      "bol": 1864,
      "lig": 1865,
      "mers": 1866,
      "oop": 1867,
      "pre": 1868,
      "pass": 1869,
      "utions": 1870,
      "uality": 1871,
      "vity": 1872,
      "wise": 1873,
      "ature": 1874,
      "ores": 1875,
      "itor": 1876,
      "asc": 1877,
      "asts": 1878,
      "rog": 1879,
      "Ġpur": 1880,
      "lying": 1881,
      "ects": 1882,
      "ecting": 1883,
      "elt": 1884,
      "aced": 1885,
      "abl": 1886,
      "Ġteam": 1887,
      "olution": 1888,
      "ession": 1889,
      "ĠIr": 1890,
      "ĠIs": 1891,
      "uts": 1892,
      "utter": 1893,
      "ament": 1894,
      "apt": 1895,
      "otor": 1896,
      "ird": 1897,
      "oses": 1898,
      "Ġne": 1899,
      "rang": 1900,
      "ĠConc": 1901,
      "ouse": 1902,
      "ipped": 1903,
      "andard": 1904,
      "uccess": 1905,
      "Ġprom": 1906,
      "acking": 1907,
      "ĠProf": 1908,
      "ĠProt": 1909,
      "ressing": 1910,
      "ĠDiss": 1911,
      "alises": 1912,
      "ached": 1913,
      "ancing": 1914,
      "inding": 1915,
      "ordin": 1916,
      "claim": 1917,
      "oints": 1918,
      "sequ": 1919,
      "rains": 1920,
      "ĠAdd": 1921,
      "arian": 1922,
      "atches": 1923,
      "tified": 1924,
      "Ġclass": 1925,
      "ixed": 1926,
      "plication": 1927,
      "ĠAppro": 1928,
      "ython": 1929,
      "En": 1930,
      "NN": 1931,
      "ned": 1932,
      "oice": 1933,
      "pow": 1934,
      "Ġsuff": 1935,
      "ĠSer": 1936,
      "asted": 1937,
      "Ġpe": 1938,
      "ĠPol": 1939,
      "eth": 1940,
      "ĠTri": 1941,
      "ĠIll": 1942,
      "Ġbreak": 1943,
      "Ġiniti": 1944,
      "lot": 1945,
      "ĠBe": 1946,
      "ĠBreak": 1947,
      "amed": 1948,
      "Ġhum": 1949,
      "Ġunm": 1950,
      "opy": 1951,
      "range": 1952,
      "Ġvol": 1953,
      "ights": 1954,
      "ival": 1955,
      "uding": 1956,
      "efined": 1957,
      "ĠExc": 1958,
      "acked": 1959,
      "aves": 1960,
      "ĠProm": 1961,
      "ĠCheck": 1962,
      "forms": 1963,
      "apped": 1964,
      "veness": 1965,
      "ailing": 1966,
      "Ġkn": 1967,
      "ĠResp": 1968,
      "Ġauto": 1969,
      "Ġcomb": 1970,
      "Ġuser": 1971,
      "ifferenti": 1972,
      "learning": 1973,
      "'ll": 1974,
      "32": 1975,
      "Driven": 1976,
      "gn": 1977,
      "head": 1978,
      "js": 1979,
      "nov": 1980,
      "oks": 1981,
      "pri": 1982,
      "ral": 1983,
      "uilt": 1984,
      "vari": 1985,
      "ero": 1986,
      "estion": 1987,
      "ony": 1988,
      "oned": 1989,
      "alling": 1990,
      "reen": 1991,
      "ares": 1992,
      "Ġcre": 1993,
      "ĠSign": 1994,
      "ĠSym": 1995,
      "ital": 1996,
      "ither": 1997,
      "asm": 1998,
      "room": 1999,
      "Ġpsych": 2000,
      "unk": 2001,
      "unt": 2002,
      "usp": 2003,
      "Ġtechn": 2004,
      "urity": 2005,
      "utable": 2006,
      "Ġbel": 2007,
      "emin": 2008,
      "Ġwin": 2009,
      "imin": 2010,
      "Ġunw": 2011,
      "vert": 2012,
      "very": 2013,
      "ĠReal": 2014,
      "isting": 2015,
      "Ġstra": 2016,
      "ĠUnf": 2017,
      "aying": 2018,
      "ipping": 2019,
      "Ġav": 2020,
      "Ġaud": 2021,
      "ĠVal": 2022,
      "encing": 2023,
      "Ġshort": 2024,
      "formation": 2025,
      "ĠShort": 2026,
      "ologist": 2027,
      "scrib": 2028,
      "verse": 2029,
      "ounds": 2030,
      "ĠRecon": 2031,
      "airs": 2032,
      "Ġoper": 2033,
      "Ġoptim": 2034,
      "ĠClass": 2035,
      "afe": 2036,
      "ĠOptim": 2037,
      "Ġdoub": 2038,
      "eighb": 2039,
      "struction": 2040,
      "nowledge": 2041,
      "'ve": 2042,
      "64": 2043,
      "Pro": 2044,
      "aid": 2045,
      "dimensional": 2046,
      "hol": 2047,
      "iation": 2048,
      "ios": 2049,
      "itim": 2050,
      "pace": 2051,
      "ris": 2052,
      "ryp": 2053,
      "uated": 2054,
      "Ġang": 2055,
      "Ġone": 2056,
      "oning": 2057,
      "ench": 2058,
      "orted": 2059,
      "Ġseg": 2060,
      "Ġsoci": 2061,
      "Ġcan": 2062,
      "Ġcustom": 2063,
      "lection": 2064,
      "astic": 2065,
      "Ġdeep": 2066,
      "Ġdata": 2067,
      "ĠPop": 2068,
      "ĠAst": 2069,
      "omes": 2070,
      "uster": 2071,
      "ety": 2072,
      "Ġfac": 2073,
      "ĠIP": 2074,
      "ems": 2075,
      "ĠBo": 2076,
      "ader": 2077,
      "ades": 2078,
      "step": 2079,
      "apor": 2080,
      "tick": 2081,
      "umps": 2082,
      "Ġgr": 2083,
      "odes": 2084,
      "oding": 2085,
      "uplic": 2086,
      "iring": 2087,
      "ĠUs": 2088,
      "osp": 2089,
      "Ġnar": 2090,
      "Ġnet": 2091,
      "Ġnew": 2092,
      "ples": 2093,
      "plan": 2094,
      "place": 2095,
      "Ġcong": 2096,
      "Ġconst": 2097,
      "ĠUnc": 2098,
      "mental": 2099,
      "Ġexper": 2100,
      "udd": 2101,
      "resses": 2102,
      "oked": 2103,
      "fulness": 2104,
      "alistic": 2105,
      "achine": 2106,
      "inded": 2107,
      "rong": 2108,
      "ailed": 2109,
      "ĠSubs": 2110,
      "Ġplay": 2111,
      "racted": 2112,
      "service": 2113,
      "ooks": 2114,
      "Ġpoly": 2115,
      "uzz": 2116,
      "aj": 2117,
      "be": 2118,
      "break": 2119,
      "fter": 2120,
      "gy": 2121,
      "host": 2122,
      "iate": 2123,
      "ials": 2124,
      "mit": 2125,
      "pet": 2126,
      "text": 2127,
      "zation": 2128,
      "Ġing": 2129,
      "Ġide": 2130,
      "ert": 2131,
      "aled": 2132,
      "reas": 2133,
      "reath": 2134,
      "isation": 2135,
      "Ġcat": 2136,
      "ĠSec": 2137,
      "ĠCri": 2138,
      "iction": 2139,
      "Ġden": 2140,
      "unc": 2141,
      "under": 2142,
      "ĠPy": 2143,
      "ecess": 2144,
      "ective": 2145,
      "ĠDat": 2146,
      "ĠMem": 2147,
      "eting": 2148,
      "etting": 2149,
      "ĠFac": 2150,
      "chool": 2151,
      "Ġhel": 2152,
      "Ġhear": 2153,
      "agement": 2154,
      "ĠHead": 2155,
      "Ġgrad": 2156,
      "oded": 2157,
      "ĠUser": 2158,
      "osc": 2159,
      "ubl": 2160,
      "owed": 2161,
      "ĠNe": 2162,
      "ĠNeg": 2163,
      "ĠConst": 2164,
      "enses": 2165,
      "ensor": 2166,
      "ensive": 2167,
      "ainer": 2168,
      "thread": 2169,
      "uded": 2170,
      "ĠExper": 2171,
      "ells": 2172,
      "rick": 2173,
      "atives": 2174,
      "ache": 2175,
      "inds": 2176,
      "Ġpret": 2177,
      "Ġacqu": 2178,
      "ords": 2179,
      "scale": 2180,
      "ribution": 2181,
      "tifying": 2182,
      "Ġemp": 2183,
      "Ġdecomp": 2184,
      "aws": 2185,
      "eature": 2186,
      "Ġautom": 2187,
      "ĠEmb": 2188,
      "jective": 2189,
      "ographic": 2190,
      "Ġorgan": 2191,
      "processing": 2192,
      "ĠPoly": 2193,
      "ependent": 2194,
      "++": 2195,
      "bound": 2196,
      "gener": 2197,
      "hed": 2198,
      "hen": 2199,
      "iol": 2200,
      "iated": 2201,
      "mark": 2202,
      "oon": 2203,
      "och": 2204,
      "pret": 2205,
      "sour": 2206,
      "uing": 2207,
      "Ġve": 2208,
      "onal": 2209,
      "onder": 2210,
      "orting": 2211,
      "ories": 2212,
      "orrow": 2213,
      "Ġsid": 2214,
      "arp": 2215,
      "ĠSem": 2216,
      "ĠSingle": 2217,
      "lete": 2218,
      "itated": 2219,
      "ĠCre": 2220,
      "ich": 2221,
      "roid": 2222,
      "roub": 2223,
      "Ġprin": 2224,
      "rage": 2225,
      "ĠPsych": 2226,
      "ultic": 2227,
      "ĠAir": 2228,
      "ĠAud": 2229,
      "ometric": 2230,
      "ĠDig": 2231,
      "abled": 2232,
      "urring": 2233,
      "eters": 2234,
      "etry": 2235,
      "Ġread": 2236,
      "Ġbur": 2237,
      "ĠEr": 2238,
      "izations": 2239,
      "ĠBar": 2240,
      "idity": 2241,
      "ams": 2242,
      "stall": 2243,
      "Ġher": 2244,
      "agram": 2245,
      "ume": 2246,
      "ĠOper": 2247,
      "ĠOcc": 2248,
      "irm": 2249,
      "osed": 2250,
      "ĠGo": 2251,
      "Ġcond": 2252,
      "ĠNar": 2253,
      "Ġrub": 2254,
      "aintain": 2255,
      "Ġvari": 2256,
      "Ġview": 2257,
      "Ġair": 2258,
      "mentation": 2259,
      "ĠVol": 2260,
      "ression": 2261,
      "racy": 2262,
      "ellig": 2263,
      "illion": 2264,
      "Ġsubt": 2265,
      "ervice": 2266,
      "rying": 2267,
      "ounding": 2268,
      "vestig": 2269,
      "Ġarm": 2270,
      "ularity": 2271,
      "ifications": 2272,
      "ample": 2273,
      "ulls": 2274,
      "ĠDecomp": 2275,
      "ithm": 2276,
      "lines": 2277,
      "Ġcompl": 2278,
      "Ġminim": 2279,
      "losed": 2280,
      "words": 2281,
      "ould": 2282,
      "riendly": 2283,
      "rioriti": 2284,
      "Level": 2285,
      "Net": 2286,
      "To": 2287,
      "ault": 2288,
      "ball": 2289,
      "cip": 2290,
      "ded": 2291,
      "develop": 2292,
      "eel": 2293,
      "etic": 2294,
      "eech": 2295,
      "face": 2296,
      "gers": 2297,
      "grad": 2298,
      "ke": 2299,
      "lab": 2300,
      "like": 2301,
      "rest": 2302,
      "uce": 2303,
      "wh": 2304,
      "Ġed": 2305,
      "Ġrid": 2306,
      "atform": 2307,
      "Ġsystem": 2308,
      "arly": 2309,
      "leas": 2310,
      "Ġpriv": 2311,
      "Ġperson": 2312,
      "Ġdiv": 2313,
      "Ġdiff": 2314,
      "ĠRen": 2315,
      "ĠDeb": 2316,
      "action": 2317,
      "activ": 2318,
      "Ġmer": 2319,
      "Ġmid": 2320,
      "usiness": 2321,
      "ĠMid": 2322,
      "ett": 2323,
      "Ġreass": 2324,
      "Ġfre": 2325,
      "ĠTime": 2326,
      "loss": 2327,
      "ĠFirst": 2328,
      "ematic": 2329,
      "aded": 2330,
      "chain": 2331,
      "aming": 2332,
      "Ġhon": 2333,
      "ĠIniti": 2334,
      "aph": 2335,
      "ĠHel": 2336,
      "umber": 2337,
      "opol": 2338,
      "ĠUl": 2339,
      "Ġnot": 2340,
      "ift": 2341,
      "ifier": 2342,
      "ĠGrad": 2343,
      "ĠGPT": 2344,
      "ĠNew": 2345,
      "ĠUnt": 2346,
      "ther": 2347,
      "ĠVari": 2348,
      "Ġprogram": 2349,
      "ugs": 2350,
      "Ġcheck": 2351,
      "ressive": 2352,
      "alisation": 2353,
      "Ġimm": 2354,
      "ĠKn": 2355,
      "outs": 2356,
      "Ġinteg": 2357,
      "Ġtransl": 2358,
      "ĠPlay": 2359,
      "titution": 2360,
      "wards": 2361,
      "onds": 2362,
      "Ġregular": 2363,
      "crip": 2364,
      "ĠComb": 2365,
      "ĠMinim": 2366,
      "fficient": 2367,
      "Ġcapit": 2368,
      "mission": 2369,
      "tification": 2370,
      "euro": 2371,
      "atrix": 2372,
      "Sc": 2373,
      "dom": 2374,
      "fig": 2375,
      "function": 2376,
      "hand": 2377,
      "ients": 2378,
      "iency": 2379,
      "lar": 2380,
      "lers": 2381,
      "list": 2382,
      "ml": 2383,
      "mon": 2384,
      "oti": 2385,
      "pi": 2386,
      "rat": 2387,
      "side": 2388,
      "uate": 2389,
      "vision": 2390,
      "yle": 2391,
      "Ġ3": 2392,
      "Ġesc": 2393,
      "inking": 2394,
      "inning": 2395,
      "atable": 2396,
      "Ġspl": 2397,
      "Ġsex": 2398,
      "Ġsingle": 2399,
      "arant": 2400,
      "ister": 2401,
      "istically": 2402,
      "itter": 2403,
      "itate": 2404,
      "ĠCent": 2405,
      "icks": 2406,
      "Ġpy": 2407,
      "uned": 2408,
      "ĠPur": 2409,
      "ĠPrin": 2410,
      "ĠPerson": 2411,
      "ulf": 2412,
      "ules": 2413,
      "ulator": 2414,
      "ĠAw": 2415,
      "ationally": 2416,
      "acts": 2417,
      "Ġmor": 2418,
      "Ġte": 2419,
      "eted": 2420,
      "ether": 2421,
      "essing": 2422,
      "Ġreal": 2423,
      "Ġrepro": 2424,
      "ĠTyp": 2425,
      "ĠTechn": 2426,
      "utr": 2427,
      "Ġbet": 2428,
      "izers": 2429,
      "ĠBel": 2430,
      "stream": 2431,
      "Ġhar": 2432,
      "Ġharm": 2433,
      "Ġwar": 2434,
      "ĠHom": 2435,
      "ĠHyp": 2436,
      "tices": 2437,
      "Ġgen": 2438,
      "othes": 2439,
      "oster": 2440,
      "query": 2441,
      "Ġconv": 2442,
      "istent": 2443,
      "istence": 2444,
      "ĠNet": 2445,
      "Ġrer": 2446,
      "enders": 2447,
      "rants": 2448,
      "Ġexpl": 2449,
      "orship": 2450,
      "ugging": 2451,
      "Ġdisp": 2452,
      "ĠExpl": 2453,
      "ework": 2454,
      "angle": 2455,
      "formed": 2456,
      "lessness": 2457,
      "ologies": 2458,
      "ologists": 2459,
      "entially": 2460,
      "posing": 2461,
      "Ġrot": 2462,
      "Ġquan": 2463,
      "lected": 2464,
      "ĠContext": 2465,
      "Ġauthor": 2466,
      "portion": 2467,
      "ported": 2468,
      "plex": 2469,
      "loaded": 2470,
      "ĠPhot": 2471,
      "rupt": 2472,
      "ĠOrgan": 2473,
      "ividu": 2474,
      "ampling": 2475,
      "Ġcyber": 2476,
      "16": 2477,
      "OS": 2478,
      "PU": 2479,
      "Time": 2480,
      "aith": 2481,
      "core": 2482,
      "case": 2483,
      "do": 2484,
      "fact": 2485,
      "greg": 2486,
      "hod": 2487,
      "ief": 2488,
      "key": 2489,
      "map": 2490,
      "rass": 2491,
      "rite": 2492,
      "rush": 2493,
      "table": 2494,
      "vir": 2495,
      "weight": 2496,
      "ĠX": 2497,
      "Ġod": 2498,
      "Ġram": 2499,
      "Ġration": 2500,
      "inct": 2501,
      "ester": 2502,
      "enef": 2503,
      "orrect": 2504,
      "Ġsil": 2505,
      "Ġsens": 2506,
      "Ġsoft": 2507,
      "Ġcrowd": 2508,
      "ĠSoci": 2509,
      "itect": 2510,
      "ĠCat": 2511,
      "ĠCan": 2512,
      "ĠCustom": 2513,
      "Ġpen": 2514,
      "Ġprac": 2515,
      "rative": 2516,
      "uning": 2517,
      "ĠPay": 2518,
      "ulators": 2519,
      "ĠDe": 2520,
      "ĠDiff": 2521,
      "Ġtem": 2522,
      "etch": 2523,
      "essed": 2524,
      "Ġfast": 2525,
      "Ġfire": 2526,
      "Ġbef": 2527,
      "izable": 2528,
      "iders": 2529,
      "amm": 2530,
      "Ġhe": 2531,
      "Ġunin": 2532,
      "aper": 2533,
      "ĠHuman": 2534,
      "umin": 2535,
      "umes": 2536,
      "umble": 2537,
      "Ġgrand": 2538,
      "Ġglob": 2539,
      "Ġnorm": 2540,
      "ĠWar": 2541,
      "ĠRev": 2542,
      "ĠRead": 2543,
      "istor": 2544,
      "ĠNorm": 2545,
      "ocused": 2546,
      "ocument": 2547,
      "Ġvoc": 2548,
      "ĠStra": 2549,
      "aked": 2550,
      "Ġexh": 2551,
      "Ġproduc": 2552,
      "ugged": 2553,
      "antas": 2554,
      "aving": 2555,
      "avig": 2556,
      "ange": 2557,
      "ractive": 2558,
      "aste": 2559,
      "ĠEng": 2560,
      "alists": 2561,
      "Ġadv": 2562,
      "rowser": 2563,
      "books": 2564,
      "yster": 2565,
      "ĠSubt": 2566,
      "ission": 2567,
      "olds": 2568,
      "Ġindust": 2569,
      "Ġobserv": 2570,
      "ructure": 2571,
      "ĠInteg": 2572,
      "jection": 2573,
      "link": 2574,
      "ĠQuan": 2575,
      "Ġamb": 2576,
      "Ġdesign": 2577,
      "Ġphot": 2578,
      "Ġdemon": 2579,
      "ause": 2580,
      "rolled": 2581,
      "ycle": 2582,
      "erstand": 2583,
      "raft": 2584,
      "written": 2585,
      "ĠLLM": 2586,
      "hentic": 2587,
      "Ch": 2588,
      "dev": 2589,
      "fort": 2590,
      "graph": 2591,
      "keep": 2592,
      "made": 2593,
      "metric": 2594,
      "oup": 2595,
      "pol": 2596,
      "part": 2597,
      "set": 2598,
      "tra": 2599,
      "ture": 2600,
      "ux": 2601,
      "wer": 2602,
      "Ġq": 2603,
      "Ġip": 2604,
      "Ġrac": 2605,
      "Ġenti": 2606,
      "Ġtime": 2607,
      "inite": 2608,
      "onent": 2609,
      "inger": 2610,
      "enn": 2611,
      "alist": 2612,
      "alys": 2613,
      "aten": 2614,
      "orable": 2615,
      "Ġsal": 2616,
      "Ġcer": 2617,
      "Ġcounter": 2618,
      "ĠSuff": 2619,
      "icted": 2620,
      "Ġped": 2621,
      "Ġpan": 2622,
      "Ġpay": 2623,
      "enting": 2624,
      "ĠAct": 2625,
      "omb": 2626,
      "ĠRob": 2627,
      "ĠDer": 2628,
      "ĠDen": 2629,
      "ĠDest": 2630,
      "acted": 2631,
      "acting": 2632,
      "Ġmag": 2633,
      "Ġmust": 2634,
      "usc": 2635,
      "ilit": 2636,
      "Ġtr": 2637,
      "Ġtot": 2638,
      "Ġtest": 2639,
      "ury": 2640,
      "ĠMer": 2641,
      "ĠMob": 2642,
      "olid": 2643,
      "Ġrequ": 2644,
      "utt": 2645,
      "utor": 2646,
      "Ġby": 2647,
      "Ġbro": 2648,
      "Ġbeg": 2649,
      "Ġblock": 2650,
      "Ġbook": 2651,
      "ried": 2652,
      "river": 2653,
      "ĠEd": 2654,
      "izz": 2655,
      "Ġincomp": 2656,
      "ĠFre": 2657,
      "ĠFast": 2658,
      "ember": 2659,
      "ĠBlock": 2660,
      "stage": 2661,
      "agin": 2662,
      "agger": 2663,
      "imil": 2664,
      "ĠHe": 2665,
      "ĠHer": 2666,
      "ĠHon": 2667,
      "ĠHar": 2668,
      "ĠLe": 2669,
      "otyp": 2670,
      "ĠOvers": 2671,
      "irl": 2672,
      "osing": 2673,
      "plied": 2674,
      "ĠRein": 2675,
      "owing": 2676,
      "Ġstar": 2677,
      "Ġstyl": 2678,
      "ĠConv": 2679,
      "ocra": 2680,
      "ayed": 2681,
      "Ġvib": 2682,
      "ĠStar": 2683,
      "ivity": 2684,
      "earning": 2685,
      "Ġjava": 2686,
      "ruit": 2687,
      "erved": 2688,
      "Ġadj": 2689,
      "aths": 2690,
      "minist": 2691,
      "ference": 2692,
      "ysic": 2693,
      "awn": 2694,
      "armed": 2695,
      "arming": 2696,
      "ĠTransl": 2697,
      "ĠEmp": 2698,
      "ealing": 2699,
      "valu": 2700,
      "ocker": 2701,
      "Ġdesp": 2702,
      "ĠObserv": 2703,
      "Ġmini": 2704,
      "loading": 2705,
      "riving": 2706,
      "forward": 2707,
      "ĠRegular": 2708,
      "Ġasc": 2709,
      "engine": 2710,
      "ĠTwo": 2711,
      "works": 2712,
      "Ġsynchron": 2713,
      "ruth": 2714,
      "Ġcharacter": 2715,
      "Ġvisu": 2716,
      "allel": 2717,
      "ĠCyber": 2718,
      "powered": 2719,
      "Or": 2720,
      "PS": 2721,
      "QL": 2722,
      "aug": 2723,
      "fall": 2724,
      "figu": 2725,
      "gle": 2726,
      "iant": 2727,
      "itively": 2728,
      "land": 2729,
      "language": 2730,
      "matic": 2731,
      "otion": 2732,
      "oic": 2733,
      "oom": 2734,
      "trac": 2735,
      "xic": 2736,
      "Ġur": 2737,
      "Ġens": 2738,
      "Ġand": 2739,
      "eder": 2740,
      "tious": 2741,
      "till": 2742,
      "tiveness": 2743,
      "orc": 2744,
      "orch": 2745,
      "Ġso": 2746,
      "Ġsnow": 2747,
      "Ġsequ": 2748,
      "iser": 2749,
      "Ġcent": 2750,
      "Ġclo": 2751,
      "ĠSal": 2752,
      "ĠSil": 2753,
      "ĠSens": 2754,
      "lets": 2755,
      "itations": 2756,
      "ĠCer": 2757,
      "icient": 2758,
      "ros": 2759,
      "Ġpart": 2760,
      "Ġprim": 2761,
      "Ġdil": 2762,
      "Ġdram": 2763,
      "Ġdial": 2764,
      "Ġdirect": 2765,
      "ĠPers": 2766,
      "ĠPrac": 2767,
      "ĠPrim": 2768,
      "ĠAv": 2769,
      "ĠRot": 2770,
      "Ġmut": 2771,
      "Ġmark": 2772,
      "Ġmechan": 2773,
      "Ġmaxim": 2774,
      "user": 2775,
      "usting": 2776,
      "ilos": 2777,
      "Ġto": 2778,
      "Ġtre": 2779,
      "Ġther": 2780,
      "Ġtech": 2781,
      "ĠMark": 2782,
      "ols": 2783,
      "Ġrever": 2784,
      "Ġfav": 2785,
      "Ġfoot": 2786,
      "Ġfirst": 2787,
      "ĠTeam": 2788,
      "Ġboot": 2789,
      "rief": 2790,
      "ĠEsc": 2791,
      "ĠFire": 2792,
      "ĠBit": 2793,
      "igen": 2794,
      "chest": 2795,
      "check": 2796,
      "idly": 2797,
      "Ġhuman": 2798,
      "Ġwind": 2799,
      "Ġwater": 2800,
      "ims": 2801,
      "ĠHear": 2802,
      "Ġep": 2803,
      "Ġeff": 2804,
      "oped": 2805,
      "Ġconj": 2806,
      "Ġconce": 2807,
      "ogle": 2808,
      "rance": 2809,
      "ept": 2810,
      "assemb": 2811,
      "iproc": 2812,
      "ĠState": 2813,
      "aken": 2814,
      "through": 2815,
      "ucks": 2816,
      "Ġexec": 2817,
      "arding": 2818,
      "ivil": 2819,
      "ounted": 2820,
      "expl": 2821,
      "phr": 2822,
      "phones": 2823,
      "Ġspeed": 2824,
      "aved": 2825,
      "ĠProv": 2826,
      "ĠProduc": 2827,
      "ĠProgram": 2828,
      "eared": 2829,
      "racts": 2830,
      "ĠSpeed": 2831,
      "rame": 2832,
      "rams": 2833,
      "lows": 2834,
      "Ġact": 2835,
      "rown": 2836,
      "version": 2837,
      "seud": 2838,
      "ĠAdv": 2839,
      "poses": 2840,
      "ĠImm": 2841,
      "ĠImage": 2842,
      "Ġrob": 2843,
      "ynchron": 2844,
      "amps": 2845,
      "eats": 2846,
      "Ġperm": 2847,
      "ĠAutom": 2848,
      "racting": 2849,
      "ports": 2850,
      "jected": 2851,
      "valid": 2852,
      "loads": 2853,
      "force": 2854,
      "Ġsmart": 2855,
      "ĠAbs": 2856,
      "Ġcolon": 2857,
      "coming": 2858,
      "ampled": 2859,
      "Ġutil": 2860,
      "change": 2861,
      "ĠVisu": 2862,
      "irectional": 2863,
      "'re": 2864,
      "20": 2865,
      "Con": 2866,
      "On": 2867,
      "Off": 2868,
      "Spec": 2869,
      "Th": 2870,
      "ait": 2871,
      "aver": 2872,
      "bers": 2873,
      "born": 2874,
      "de": 2875,
      "ds": 2876,
      "den": 2877,
      "fl": 2878,
      "fit": 2879,
      "field": 2880,
      "gg": 2881,
      "gling": 2882,
      "iating": 2883,
      "iates": 2884,
      "iking": 2885,
      "pu": 2886,
      "rill": 2887,
      "tree": 2888,
      "ufact": 2889,
      "Ġ.": 2890,
      "Ġ2": 2891,
      "Ġart": 2892,
      "eries": 2893,
      "tition": 2894,
      "alib": 2895,
      "alities": 2896,
      "rection": 2897,
      "anking": 2898,
      "Ġcall": 2899,
      "Ġcry": 2900,
      "ĠSequ": 2901,
      "ĠSoft": 2902,
      "learn": 2903,
      "ĠCounter": 2904,
      "asion": 2905,
      "asks": 2906,
      "icity": 2907,
      "icked": 2908,
      "rob": 2909,
      "roduc": 2910,
      "rooms": 2911,
      "Ġport": 2912,
      "Ġposs": 2913,
      "Ġpublic": 2914,
      "Ġded": 2915,
      "Ġdetermin": 2916,
      "uns": 2917,
      "unch": 2918,
      "ĠPe": 2919,
      "ĠPed": 2920,
      "ĠPan": 2921,
      "ecks": 2922,
      "eline": 2923,
      "omen": 2924,
      "acity": 2925,
      "abit": 2926,
      "iler": 2927,
      "Ġtool": 2928,
      "Ġtele": 2929,
      "urred": 2930,
      "ĠMix": 2931,
      "ĠMaxim": 2932,
      "oles": 2933,
      "Ġreform": 2934,
      "Ġrefer": 2935,
      "Ġfe": 2936,
      "Ġfile": 2937,
      "Ġfunction": 2938,
      "Ġfactor": 2939,
      "ĠTem": 2940,
      "ĠTher": 2941,
      "ĠTele": 2942,
      "Ġbit": 2943,
      "Ġblo": 2944,
      "Ġburn": 2945,
      "Ġbroad": 2946,
      "ĠEff": 2947,
      "Ġincon": 2948,
      "ĠFine": 2949,
      "ĠFoot": 2950,
      "ĠFollow": 2951,
      "ĠBur": 2952,
      "ĠBeg": 2953,
      "idence": 2954,
      "amin": 2955,
      "amer": 2956,
      "Ġhapp": 2957,
      "Ġhash": 2958,
      "Ġwith": 2959,
      "ags": 2960,
      "apse": 2961,
      "umping": 2962,
      "Ġgra": 2963,
      "ĠOw": 2964,
      "irth": 2965,
      "ĠWind": 2966,
      "iform": 2967,
      "ĠGen": 2968,
      "plom": 2969,
      "ĠRefer": 2970,
      "Ġrandom": 2971,
      "Ġstart": 2972,
      "Ġlab": 2973,
      "Ġlif": 2974,
      "Ġlib": 2975,
      "ocation": 2976,
      "asses": 2977,
      "Ġvers": 2978,
      "ĠStart": 2979,
      "aker": 2980,
      "thy": 2981,
      "Ġafter": 2982,
      "arded": 2983,
      "Ġdiscre": 2984,
      "ĠExec": 2985,
      "propag": 2986,
      "allen": 2987,
      "angs": 2988,
      "anging": 2989,
      "ouring": 2990,
      "okes": 2991,
      "ĠChat": 2992,
      "ĠDiscre": 2993,
      "lowing": 2994,
      "Ġjs": 2995,
      "igning": 2996,
      "locks": 2997,
      "locking": 2998,
      "Ġresc": 2999,
      "Ġthread": 3000,
      "rowing": 3001,
      "ribute": 3002,
      "Ġintern": 3003,
      "tifies": 3004,
      "Ġcontext": 3005,
      "Ġcontinu": 3006,
      "iousness": 3007,
      "lecting": 3008,
      "away": 3009,
      "ĠArm": 3010,
      "atics": 3011,
      "ixel": 3012,
      "Ġobl": 3013,
      "rint": 3014,
      "shot": 3015,
      "ship": 3016,
      "Ġabst": 3017,
      "jects": 3018,
      "eleb": 3019,
      "value": 3020,
      "chedul": 3021,
      "ĠAbst": 3022,
      "ĠBlack": 3023,
      "anned": 3024,
      "Ġcrypt": 3025,
      "itches": 3026,
      "boards": 3027,
      "ordered": 3028,
      "continu": 3029,
      "working": 3030,
      "inner": 3031,
      "gorithm": 3032,
      "ĠDoub": 3033,
      "rehens": 3034,
      "Ġsummar": 3035,
      "respond": 3036,
      "Specific": 3037,
      "Free": 3038,
      "Mod": 3039,
      "Of": 3040,
      "Sh": 3041,
      "backs": 3042,
      "cases": 3043,
      "date": 3044,
      "dles": 3045,
      "defined": 3046,
      "ft": 3047,
      "gen": 3048,
      "hing": 3049,
      "ij": 3050,
      "ias": 3051,
      "itic": 3052,
      "ipl": 3053,
      "iors": 3054,
      "li": 3055,
      "lation": 3056,
      "ma": 3057,
      "mind": 3058,
      "mitted": 3059,
      "ner": 3060,
      "nown": 3061,
      "ove": 3062,
      "points": 3063,
      "rud": 3064,
      "site": 3065,
      "tt": 3066,
      "top": 3067,
      "uals": 3068,
      "zer": 3069,
      "Ġant": 3070,
      "Ġult": 3071,
      "erve": 3072,
      "onents": 3073,
      "oration": 3074,
      "reens": 3075,
      "Ġsom": 3076,
      "Ġstim": 3077,
      "Ġserv": 3078,
      "Ġsepar": 3079,
      "Ġsusp": 3080,
      "anks": 3081,
      "arts": 3082,
      "arse": 3083,
      "Ġcoun": 3084,
      "Ġcentr": 3085,
      "Ġclean": 3086,
      "ĠSpl": 3087,
      "ĠSeg": 3088,
      "ĠSystem": 3089,
      "ĠSepar": 3090,
      "itating": 3091,
      "itors": 3092,
      "itness": 3093,
      "ĠCloud": 3094,
      "asp": 3095,
      "asy": 3096,
      "icate": 3097,
      "icking": 3098,
      "Ġpain": 3099,
      "Ġpunct": 3100,
      "Ġdw": 3101,
      "Ġdon": 3102,
      "Ġdele": 3103,
      "Ġdraw": 3104,
      "unes": 3105,
      "unity": 3106,
      "ĠPriv": 3107,
      "ĠPoss": 3108,
      "ully": 3109,
      "elves": 3110,
      "omer": 3111,
      "ompl": 3112,
      "ĠDiv": 3113,
      "ĠDial": 3114,
      "ĠDifferenti": 3115,
      "Ġmel": 3116,
      "Ġmac": 3117,
      "Ġmater": 3118,
      "usted": 3119,
      "ilities": 3120,
      "Ġtrad": 3121,
      "Ġthere": 3122,
      "ĠMachine": 3123,
      "ette": 3124,
      "Ġreact": 3125,
      "Ġfil": 3126,
      "Ġfam": 3127,
      "Ġfram": 3128,
      "Ġfantas": 3129,
      "ĠTr": 3130,
      "ĠTre": 3131,
      "ĠTool": 3132,
      "ĠIt": 3133,
      "utation": 3134,
      "utting": 3135,
      "Ġbehav": 3136,
      "ĠEp": 3137,
      "Ġinform": 3138,
      "Ġincre": 3139,
      "Ġinnov": 3140,
      "ĠFeed": 3141,
      "empt": 3142,
      "ĠBroad": 3143,
      "ĠBehav": 3144,
      "adem": 3145,
      "igor": 3146,
      "vex": 3147,
      "storm": 3148,
      "Ġhor": 3149,
      "Ġhow": 3150,
      "Ġhost": 3151,
      "agging": 3152,
      "ĠInform": 3153,
      "aping": 3154,
      "ĠHarm": 3155,
      "ĠHalf": 3156,
      "uming": 3157,
      "umped": 3158,
      "ĠLook": 3159,
      "ods": 3160,
      "opes": 3161,
      "oping": 3162,
      "ĠUtil": 3163,
      "Ġneed": 3164,
      "ĠWater": 3165,
      "ifiers": 3166,
      "que": 3167,
      "Ġconver": 3168,
      "Ġconnec": 3169,
      "ĠReb": 3170,
      "ĠNot": 3171,
      "Ġrun": 3172,
      "Ġstr": 3173,
      "Ġstud": 3174,
      "Ġstream": 3175,
      "Ġstabil": 3176,
      "Ġll": 3177,
      "Ġlight": 3178,
      "ĠConver": 3179,
      "occ": 3180,
      "ocking": 3181,
      "ocial": 3182,
      "assing": 3183,
      "ipher": 3184,
      "Ġvac": 3185,
      "Ġvector": 3186,
      "ighter": 3187,
      "ighting": 3188,
      "ĠStand": 3189,
      "ĠStud": 3190,
      "ĠView": 3191,
      "alizations": 3192,
      "Ġproc": 3193,
      "exper": 3194,
      "pher": 3195,
      "alluc": 3196,
      "itig": 3197,
      "ractions": 3198,
      "Ġshow": 3199,
      "ectors": 3200,
      "asters": 3201,
      "ĠEnter": 3202,
      "Ġjav": 3203,
      "atized": 3204,
      "resolution": 3205,
      "Ġimper": 3206,
      "ignment": 3207,
      "located": 3208,
      "Ġactiv": 3209,
      "ĠAnaly": 3210,
      "screen": 3211,
      "vention": 3212,
      "Ġanaly": 3213,
      "athematic": 3214,
      "Ġrecomp": 3215,
      "ĠAdj": 3216,
      "poss": 3217,
      "Ġqual": 3218,
      "amping": 3219,
      "eater": 3220,
      "ĠContinu": 3221,
      "olding": 3222,
      "Ġobs": 3223,
      "titude": 3224,
      "ĠTransform": 3225,
      "tains": 3226,
      "Ġinflu": 3227,
      "oura": 3228,
      "Ġiter": 3229,
      "Ġminer": 3230,
      "ushes": 3231,
      "plement": 3232,
      "linear": 3233,
      "parameter": 3234,
      "Ġmodern": 3235,
      "umbling": 3236,
      "umbled": 3237,
      "ĠModel": 3238,
      "ĠAmb": 3239,
      "tized": 3240,
      "tization": 3241,
      "abilities": 3242,
      "irected": 3243,
      "Ġtermin": 3244,
      "ĠCapit": 3245,
      "Ġlegitim": 3246,
      "tifications": 3247,
      "prise": 3248,
      "layer": 3249,
      "Ġsymbol": 3250,
      "ĠSynchron": 3251,
      "Ġcrimin": 3252,
      "connected": 3253,
      "whel": 3254,
      "viron": 3255,
      "Ġandroid": 3256,
      "ilosoph": 3257,
      "Ex": 3258,
      "LO": 3259,
      "Learning": 3260,
      "Point": 3261,
      "aur": 3262,
      "bling": 3263,
      "come": 3264,
      "dig": 3265,
      "dependent": 3266,
      "eff": 3267,
      "elect": 3268,
      "eets": 3269,
      "friendly": 3270,
      "gent": 3271,
      "house": 3272,
      "iat": 3273,
      "joy": 3274,
      "long": 3275,
      "mp": 3276,
      "mas": 3277,
      "nn": 3278,
      "oos": 3279,
      "overs": 3280,
      "pan": 3281,
      "ply": 3282,
      "pens": 3283,
      "page": 3284,
      "rum": 3285,
      "rator": 3286,
      "sup": 3287,
      "sized": 3288,
      "source": 3289,
      "uations": 3290,
      "uits": 3291,
      "vc": 3292,
      "weigh": 3293,
      "ween": 3294,
      "Ġri": 3295,
      "Ġest": 3296,
      "inf": 3297,
      "inal": 3298,
      "inity": 3299,
      "inder": 3300,
      "erts": 3301,
      "alc": 3302,
      "atural": 3303,
      "ref": 3304,
      "Ġsti": 3305,
      "Ġsql": 3306,
      "Ġsuccess": 3307,
      "any": 3308,
      "anes": 3309,
      "arks": 3310,
      "Ġcro": 3311,
      "Ġcra": 3312,
      "Ġcloud": 3313,
      "Ġcategor": 3314,
      "ĠSid": 3315,
      "ĠStim": 3316,
      "ĠClo": 3317,
      "ĠCod": 3318,
      "ĠClean": 3319,
      "ĠCrowd": 3320,
      "ason": 3321,
      "asive": 3322,
      "icit": 3323,
      "icts": 3324,
      "icious": 3325,
      "rost": 3326,
      "Ġpun": 3327,
      "Ġpath": 3328,
      "Ġpower": 3329,
      "Ġdeg": 3330,
      "Ġdeter": 3331,
      "Ġdiffer": 3332,
      "Ġdevelop": 3333,
      "Ġdifferenti": 3334,
      "rays": 3335,
      "ĠPen": 3336,
      "ĠPort": 3337,
      "ĠPick": 3338,
      "ĠPower": 3339,
      "enter": 3340,
      "entle": 3341,
      "ults": 3342,
      "ulting": 3343,
      "ections": 3344,
      "ĠRun": 3345,
      "ĠDon": 3346,
      "ĠDil": 3347,
      "ĠDeg": 3348,
      "ĠDele": 3349,
      "ĠDetermin": 3350,
      "active": 3351,
      "activity": 3352,
      "Ġmig": 3353,
      "Ġmist": 3354,
      "Ġmob": 3355,
      "Ġmaster": 3356,
      "Ġmean": 3357,
      "Ġmotor": 3358,
      "Ġmultic": 3359,
      "abric": 3360,
      "ership": 3361,
      "Ġtab": 3362,
      "Ġtroub": 3363,
      "urt": 3364,
      "urpose": 3365,
      "olic": 3366,
      "esses": 3367,
      "Ġreh": 3368,
      "Ġrepl": 3369,
      "Ġflow": 3370,
      "Ġfals": 3371,
      "Ġfree": 3372,
      "Ġfix": 3373,
      "ĠTo": 3374,
      "ĠTake": 3375,
      "ĠIter": 3376,
      "uture": 3377,
      "Ġbal": 3378,
      "Ġbas": 3379,
      "Ġbot": 3380,
      "Ġbest": 3381,
      "Ġbusiness": 3382,
      "rier": 3383,
      "ript": 3384,
      "ĠEar": 3385,
      "Ġinher": 3386,
      "Ġinfer": 3387,
      "ĠFals": 3388,
      "ĠFree": 3389,
      "emed": 3390,
      "emon": 3391,
      "ĠBal": 3392,
      "ĠBas": 3393,
      "ĠBet": 3394,
      "vey": 3395,
      "term": 3396,
      "termin": 3397,
      "idn": 3398,
      "ama": 3399,
      "amper": 3400,
      "start": 3401,
      "stanti": 3402,
      "Ġwe": 3403,
      "Ġwid": 3404,
      "ague": 3405,
      "agne": 3406,
      "ĠIncomp": 3407,
      "ape": 3408,
      "apes": 3409,
      "appro": 3410,
      "vertis": 3411,
      "ĠHor": 3412,
      "ĠHum": 3413,
      "ĠHash": 3414,
      "ĠHost": 3415,
      "Ġey": 3416,
      "Ġear": 3417,
      "ĠLive": 3418,
      "Ġgre": 3419,
      "osex": 3420,
      "Ġneighb": 3421,
      "ubs": 3422,
      "ĠGraph": 3423,
      "Ġconn": 3424,
      "ĠRequ": 3425,
      "Ġstep": 3426,
      "Ġstand": 3427,
      "Ġstandard": 3428,
      "Ġlim": 3429,
      "Ġlist": 3430,
      "Ġland": 3431,
      "rank": 3432,
      "ĠCond": 3433,
      "ĠCong": 3434,
      "ocus": 3435,
      "ĠUnb": 3436,
      "ĠUnp": 3437,
      "ainable": 3438,
      "ander": 3439,
      "ĠStream": 3440,
      "ĠStabil": 3441,
      "ĠVers": 3442,
      "ĠVib": 3443,
      "Ġprocess": 3444,
      "ounts": 3445,
      "Ġdisapp": 3446,
      "phas": 3447,
      "phone": 3448,
      "Ġspect": 3449,
      "ĠExh": 3450,
      "ews": 3451,
      "Ġchat": 3452,
      "anger": 3453,
      "races": 3454,
      "eller": 3455,
      "performing": 3456,
      "ativity": 3457,
      "atization": 3458,
      "Ġimpro": 3459,
      "achable": 3460,
      "igns": 3461,
      "erves": 3462,
      "ronoun": 3463,
      "locked": 3464,
      "Ġaccess": 3465,
      "ĠAnalog": 3466,
      "scrip": 3467,
      "oinc": 3468,
      "Ġke": 3469,
      "Ġrecogn": 3470,
      "outh": 3471,
      "ĠJava": 3472,
      "Ġenumer": 3473,
      "ularly": 3474,
      "Ġquad": 3475,
      "attle": 3476,
      "ĠIntern": 3477,
      "ĠActiv": 3478,
      "amped": 3479,
      "Ġinters": 3480,
      "Ġindex": 3481,
      "Ġindividu": 3482,
      "Ġsweet": 3483,
      "eeps": 3484,
      "vels": 3485,
      "Ġoutl": 3486,
      "Ġrepresent": 3487,
      "ĠPlug": 3488,
      "Ġforg": 3489,
      "jecting": 3490,
      "links": 3491,
      "plications": 3492,
      "ooling": 3493,
      "Ġinfl": 3494,
      "oods": 3495,
      "Ġdepend": 3496,
      "ĠAtten": 3497,
      "Ġblack": 3498,
      "eaks": 3499,
      "services": 3500,
      "structed": 3501,
      "ĠRepresent": 3502,
      "attern": 3503,
      "Ġtraum": 3504,
      "ĠMini": 3505,
      "ĠSmart": 3506,
      "Ġspeci": 3507,
      "rolling": 3508,
      "rapol": 3509,
      "rayed": 3510,
      "urrence": 3511,
      "Ġcalc": 3512,
      "lections": 3513,
      "ĠTermin": 3514,
      "Ġradic": 3515,
      "pression": 3516,
      "ĠCalc": 3517,
      "frame": 3518,
      "ĠCharacter": 3519,
      "design": 3520,
      "Ġsemi": 3521,
      "ynamic": 3522,
      "ĠSummar": 3523,
      "Ġneutr": 3524,
      "omestic": 3525,
      "ospit": 3526,
      "Ġheart": 3527,
      "ĠUltra": 3528,
      "Dimensional": 3529,
      "Out": 3530,
      "SD": 3531,
      "ae": 3532,
      "auc": 3533,
      "bow": 3534,
      "bled": 3535,
      "bles": 3536,
      "care": 3537,
      "ders": 3538,
      "data": 3539,
      "draw": 3540,
      "eating": 3541,
      "fix": 3542,
      "gles": 3543,
      "ground": 3544,
      "hop": 3545,
      "hips": 3546,
      "iec": 3547,
      "iom": 3548,
      "iability": 3549,
      "known": 3550,
      "mitting": 3551,
      "na": 3552,
      "norm": 3553,
      "oly": 3554,
      "otic": 3555,
      "oard": 3556,
      "pe": 3557,
      "rent": 3558,
      "size": 3559,
      "training": 3560,
      "ui": 3561,
      "utive": 3562,
      "uration": 3563,
      "vable": 3564,
      "vious": 3565,
      "xy": 3566,
      "Ġign": 3567,
      "Ġtick": 3568,
      "Ġosc": 3569,
      "iny": 3570,
      "inated": 3571,
      "onenti": 3572,
      "tial": 3573,
      "tile": 3574,
      "ortion": 3575,
      "orpor": 3576,
      "Ġset": 3577,
      "Ġster": 3578,
      "Ġsav": 3579,
      "Ġseas": 3580,
      "Ġsquir": 3581,
      "anted": 3582,
      "arter": 3583,
      "arrass": 3584,
      "ison": 3585,
      "istics": 3586,
      "Ġcop": 3587,
      "Ġcanc": 3588,
      "Ġcare": 3589,
      "Ġcred": 3590,
      "Ġcode": 3591,
      "ĠSo": 3592,
      "ĠSing": 3593,
      "ĠSuccess": 3594,
      "letion": 3595,
      "itarian": 3596,
      "asking": 3597,
      "icon": 3598,
      "ication": 3599,
      "iciency": 3600,
      "rolog": 3601,
      "Ġpat": 3602,
      "Ġpet": 3603,
      "Ġpri": 3604,
      "Ġpig": 3605,
      "Ġperv": 3606,
      "Ġpict": 3607,
      "Ġprioriti": 3608,
      "Ġdb": 3609,
      "Ġdr": 3610,
      "Ġdro": 3611,
      "Ġdeal": 3612,
      "Ġdream": 3613,
      "Ġdomin": 3614,
      "rapping": 3615,
      "ĠPain": 3616,
      "ĠPart": 3617,
      "ental": 3618,
      "ulous": 3619,
      "ulling": 3620,
      "ulative": 3621,
      "ecked": 3622,
      "oment": 3623,
      "ĠRub": 3624,
      "ĠDiffer": 3625,
      "ĠDesc": 3626,
      "ĠDomin": 3627,
      "ĠDirect": 3628,
      "Ġmil": 3629,
      "Ġmain": 3630,
      "Ġmill": 3631,
      "Ġmix": 3632,
      "Ġmagn": 3633,
      "Ġmaj": 3634,
      "ilation": 3635,
      "ilot": 3636,
      "ilog": 3637,
      "Ġtake": 3638,
      "Ġtype": 3639,
      "urance": 3640,
      "urry": 3641,
      "urning": 3642,
      "ĠMel": 3643,
      "ĠMac": 3644,
      "ĠMaster": 3645,
      "ĠMagn": 3646,
      "ĠMean": 3647,
      "ĠMechan": 3648,
      "olved": 3649,
      "Ġrevolution": 3650,
      "Ġfund": 3651,
      "Ġfollow": 3652,
      "Ġfront": 3653,
      "ĠTe": 3654,
      "ĠTrad": 3655,
      "ĠThere": 3656,
      "ĠTempl": 3657,
      "ĠIT": 3658,
      "Ġbra": 3659,
      "Ġbul": 3660,
      "riented": 3661,
      "ĠEs": 3662,
      "ĠEy": 3663,
      "ĠEth": 3664,
      "Ġintim": 3665,
      "Ġincl": 3666,
      "Ġinsp": 3667,
      "ĠFil": 3668,
      "ĠFund": 3669,
      "ĠFact": 3670,
      "ĠFix": 3671,
      "ĠFactor": 3672,
      "ĠFeature": 3673,
      "emory": 3674,
      "ĠBlo": 3675,
      "ĠBig": 3676,
      "idate": 3677,
      "sts": 3678,
      "stop": 3679,
      "standing": 3680,
      "Ġhot": 3681,
      "Ġhalf": 3682,
      "Ġwide": 3683,
      "Ġweak": 3684,
      "Ġweigh": 3685,
      "Ġwhere": 3686,
      "Ġwalk": 3687,
      "agged": 3688,
      "ĠIncre": 3689,
      "ĠInnov": 3690,
      "Ġunre": 3691,
      "Ġuncon": 3692,
      "api": 3693,
      "ĠHow": 3694,
      "ĠHapp": 3695,
      "ticism": 3696,
      "umented": 3697,
      "Ġevent": 3698,
      "ĠLat": 3699,
      "ĠLab": 3700,
      "ĠLim": 3701,
      "ĠLight": 3702,
      "Ġgran": 3703,
      "Ġgraph": 3704,
      "Ġgame": 3705,
      "Ġground": 3706,
      "otation": 3707,
      "opath": 3708,
      "osis": 3709,
      "Ġnan": 3710,
      "esty": 3711,
      "ĠWe": 3712,
      "ĠWith": 3713,
      "ĠGrand": 3714,
      "ĠGround": 3715,
      "ĠGroup": 3716,
      "Ġconvers": 3717,
      "ĠReform": 3718,
      "istant": 3719,
      "istribution": 3720,
      "ĠNeighb": 3721,
      "Ġlat": 3722,
      "Ġlay": 3723,
      "Ġlive": 3724,
      "Ġlaw": 3725,
      "Ġlik": 3726,
      "Ġliter": 3727,
      "ogs": 3728,
      "ĠConj": 3729,
      "ocks": 3730,
      "ouses": 3731,
      "assed": 3732,
      "ensed": 3733,
      "Ġvirt": 3734,
      "Ġviol": 3735,
      "ighted": 3736,
      "ĠStr": 3737,
      "ĠStyl": 3738,
      "menting": 3739,
      "ivable": 3740,
      "ĠVector": 3741,
      "udg": 3742,
      "alizer": 3743,
      "lings": 3744,
      "Ġproduct": 3745,
      "ounting": 3746,
      "uge": 3747,
      "Ġdisg": 3748,
      "Ġdiscrimin": 3749,
      "phere": 3750,
      "ewing": 3751,
      "times": 3752,
      "earn": 3753,
      "earest": 3754,
      "nesses": 3755,
      "anged": 3756,
      "angled": 3757,
      "itivity": 3758,
      "oured": 3759,
      "ishment": 3760,
      "astes": 3761,
      "ĠDisapp": 3762,
      "ĠDiscrimin": 3763,
      "formance": 3764,
      "Ġsubd": 3765,
      "inders": 3766,
      "ortun": 3767,
      "erving": 3768,
      "ervised": 3769,
      "rone": 3770,
      "rons": 3771,
      "location": 3772,
      "Ġprec": 3773,
      "Ġprem": 3774,
      "Ġadap": 3775,
      "Ġresid": 3776,
      "orded": 3777,
      "orders": 3778,
      "scaling": 3779,
      "oins": 3780,
      "ointed": 3781,
      "Ġcompos": 3782,
      "Ġcomputer": 3783,
      "ashion": 3784,
      "irec": 3785,
      "Ġans": 3786,
      "Ġany": 3787,
      "Ġanim": 3788,
      "positions": 3789,
      "ĠRecogn": 3790,
      "ĠKnowledge": 3791,
      "ysical": 3792,
      "Ġround": 3793,
      "Ġlem": 3794,
      "ĠResid": 3795,
      "ideo": 3796,
      "Ġque": 3797,
      "Ġquick": 3798,
      "Ġdecre": 3799,
      "Ġpartic": 3800,
      "Ġparameter": 3801,
      "eeing": 3802,
      "ĠQue": 3803,
      "ĠQual": 3804,
      "Ġperpet": 3805,
      "olded": 3806,
      "Ġautoc": 3807,
      "overn": 3808,
      "overed": 3809,
      "overing": 3810,
      "Ġoblig": 3811,
      "berry": 3812,
      "axes": 3813,
      "axis": 3814,
      "rins": 3815,
      "rints": 3816,
      "Ġimplement": 3817,
      "arms": 3818,
      "ĠAuthor": 3819,
      "Ġups": 3820,
      "Ġforb": 3821,
      "ractable": 3822,
      "jections": 3823,
      "lined": 3824,
      "lining": 3825,
      "reading": 3826,
      "ĠQuad": 3827,
      "ĠQuestion": 3828,
      "elec": 3829,
      "ierarch": 3830,
      "valued": 3831,
      "riter": 3832,
      "Ġamor": 3833,
      "Ġorig": 3834,
      "Ġdeprec": 3835,
      "Ġmisc": 3836,
      "ĠObject": 3837,
      "Ġexplo": 3838,
      "Ġcommunic": 3839,
      "oved": 3840,
      "oving": 3841,
      "ushed": 3842,
      "ushing": 3843,
      "urns": 3844,
      "urned": 3845,
      "server": 3846,
      "ceptions": 3847,
      "views": 3848,
      "ropy": 3849,
      "ĠIndex": 3850,
      "structing": 3851,
      "rupted": 3852,
      "anner": 3853,
      "Ġasp": 3854,
      "ĠCompl": 3855,
      "offs": 3856,
      "Ġmonopol": 3857,
      "tility": 3858,
      "tize": 3859,
      "tizing": 3860,
      "Ġmanip": 3861,
      "cohol": 3862,
      "ĠManip": 3863,
      "structs": 3864,
      "ĠRetriev": 3865,
      "pected": 3866,
      "rome": 3867,
      "ĠDemon": 3868,
      "control": 3869,
      "controll": 3870,
      "clusive": 3871,
      "tism": 3872,
      "Ġcollabor": 3873,
      "ycles": 3874,
      "ĠIde": 3875,
      "nowledg": 3876,
      "testing": 3877,
      "aught": 3878,
      "Ġmotiv": 3879,
      "Ġgoogle": 3880,
      "efully": 3881,
      "rably": 3882,
      "Ġpopular": 3883,
      "Ġapproxim": 3884,
      "requency": 3885,
      "Ġrespons": 3886,
      "Ġdigiti": 3887,
      "abyte": 3888,
      "abytes": 3889,
      "Ġhypothes": 3890,
      "Ġoccup": 3891,
      "ĠApproxim": 3892,
      "Ġcanon": 3893,
      "unctions": 3894,
      "Ġindustri": 3895,
      "device": 3896,
      "Order": 3897,
      "AM": 3898,
      "AR": 3899,
      "Ar": 3900,
      "ID": 3901,
      "Line": 3902,
      "Oriented": 3903,
      "RM": 3904,
      "TM": 3905,
      "Text": 3906,
      "behav": 3907,
      "cast": 3908,
      "dling": 3909,
      "eated": 3910,
      "eans": 3911,
      "efficient": 3912,
      "fusc": 3913,
      "gence": 3914,
      "grade": 3915,
      "hyth": 3916,
      "iration": 3917,
      "kit": 3918,
      "kill": 3919,
      "lated": 3920,
      "lif": 3921,
      "men": 3922,
      "mal": 3923,
      "mic": 3924,
      "otiv": 3925,
      "py": 3926,
      "rer": 3927,
      "sm": 3928,
      "ton": 3929,
      "tly": 3930,
      "tech": 3931,
      "tml": 3932,
      "uating": 3933,
      "uates": 3934,
      "ualized": 3935,
      "Ġut": 3936,
      "Ġion": 3937,
      "Ġtit": 3938,
      "Ġlock": 3939,
      "Ġie": 3940,
      "Ġeduc": 3941,
      "Ġestim": 3942,
      "inate": 3943,
      "inating": 3944,
      "inations": 3945,
      "erce": 3946,
      "erated": 3947,
      "erge": 3948,
      "tire": 3949,
      "enomen": 3950,
      "orks": 3951,
      "orrel": 3952,
      "Ġsing": 3953,
      "Ġsle": 3954,
      "Ġsad": 3955,
      "Ġsof": 3956,
      "Ġschem": 3957,
      "Ġsleep": 3958,
      "Ġsatisf": 3959,
      "arted": 3960,
      "arge": 3961,
      "around": 3962,
      "isions": 3963,
      "Ġcle": 3964,
      "Ġcart": 3965,
      "Ġcaus": 3966,
      "Ġcount": 3967,
      "Ġcopy": 3968,
      "ĠSom": 3969,
      "ĠSet": 3970,
      "ĠSex": 3971,
      "ĠSnow": 3972,
      "ĠSusp": 3973,
      "itates": 3974,
      "itched": 3975,
      "ĠCro": 3976,
      "ĠCart": 3977,
      "ĠCare": 3978,
      "ĠCred": 3979,
      "ĠCode": 3980,
      "ĠCategor": 3981,
      "icated": 3982,
      "rok": 3983,
      "rous": 3984,
      "Ġpot": 3985,
      "Ġpow": 3986,
      "Ġpick": 3987,
      "Ġday": 3988,
      "Ġdens": 3989,
      "Ġdark": 3990,
      "Ġdrag": 3991,
      "Ġdrop": 3992,
      "Ġdivers": 3993,
      "ravel": 3994,
      "unning": 3995,
      "ĠPC": 3996,
      "ĠPri": 3997,
      "ĠPig": 3998,
      "ĠPow": 3999,
      "ĠPath": 4000,
      "ulatory": 4001,
      "ecd": 4002,
      "ĠAsc": 4003,
      "elines": 4004,
      "ometer": 4005,
      "ometry": 4006,
      "ĠRer": 4007,
      "ĠRac": 4008,
      "ĠRain": 4009,
      "ĠRout": 4010,
      "ĠRandom": 4011,
      "ĠDeter": 4012,
      "ĠDraw": 4013,
      "ĠDrop": 4014,
      "ĠDevelop": 4015,
      "actions": 4016,
      "Ġms": 4017,
      "Ġment": 4018,
      "Ġmess": 4019,
      "Ġmind": 4020,
      "Ġmiss": 4021,
      "Ġmeas": 4022,
      "Ġmother": 4023,
      "usts": 4024,
      "ilers": 4025,
      "ilder": 4026,
      "Ġten": 4027,
      "Ġtrac": 4028,
      "Ġtempl": 4029,
      "Ġtooth": 4030,
      "Ġtoler": 4031,
      "Ġtouch": 4032,
      "Ġtoken": 4033,
      "ĠMig": 4034,
      "ĠMist": 4035,
      "ĠMater": 4036,
      "ĠMeas": 4037,
      "older": 4038,
      "olving": 4039,
      "etri": 4040,
      "Ġrece": 4041,
      "Ġreim": 4042,
      "Ġfail": 4043,
      "Ġfact": 4044,
      "Ġfore": 4045,
      "Ġfeed": 4046,
      "Ġfrag": 4047,
      "ĠTrac": 4048,
      "ĠTree": 4049,
      "ĠType": 4050,
      "ĠTensor": 4051,
      "ĠID": 4052,
      "ĠIgn": 4053,
      "uth": 4054,
      "uters": 4055,
      "Ġble": 4056,
      "Ġbew": 4057,
      "ĠEst": 4058,
      "Ġinj": 4059,
      "Ġinn": 4060,
      "Ġinvestig": 4061,
      "ĠFam": 4062,
      "ĠFav": 4063,
      "ĠFram": 4064,
      "ĠFrag": 4065,
      "ĠFront": 4066,
      "emble": 4067,
      "ĠBul": 4068,
      "ĠBest": 4069,
      "ĠBoot": 4070,
      "ĠBook": 4071,
      "aders": 4072,
      "chiev": 4073,
      "ametric": 4074,
      "stud": 4075,
      "style": 4076,
      "Ġhes": 4077,
      "Ġhun": 4078,
      "Ġhop": 4079,
      "Ġhair": 4080,
      "Ġwed": 4081,
      "Ġwher": 4082,
      "ĠInfer": 4083,
      "ĠInstruction": 4084,
      "ĠInvestig": 4085,
      "Ġunh": 4086,
      "Ġunex": 4087,
      "Ġevol": 4088,
      "ĠLif": 4089,
      "ĠLay": 4090,
      "ĠLand": 4091,
      "ĠLiter": 4092,
      "Ġget": 4093,
      "Ġgig": 4094,
      "Ġgpt": 4095,
      "Ġgroup": 4096,
      "otype": 4097,
      "ople": 4098,
      "optim": 4099,
      "ĠOct": 4100,
      "ĠOld": 4101,
      "ĠUr": 4102,
      "ĠUps": 4103,
      "ostic": 4104,
      "Ġnull": 4105,
      "Ġnumer": 4106,
      "Ġnecess": 4107,
      "Ġneuro": 4108,
      "ĠWin": 4109,
      "ĠWild": 4110,
      "ĠWeak": 4111,
      "ĠWalk": 4112,
      "ĠGre": 4113,
      "ĠGran": 4114,
      "pling": 4115,
      "plies": 4116,
      "Ġconven": 4117,
      "ctor": 4118,
      "ĠNeed": 4119,
      "ĠNumer": 4120,
      "ĠNeuro": 4121,
      "Ġoct": 4122,
      "Ġoffic": 4123,
      "Ġris": 4124,
      "Ġstat": 4125,
      "Ġstri": 4126,
      "Ġlin": 4127,
      "Ġliv": 4128,
      "Ġliber": 4129,
      "ogene": 4130,
      "ranked": 4131,
      "ĠConnec": 4132,
      "ocal": 4133,
      "ocol": 4134,
      "ocked": 4135,
      "ĠUnin": 4136,
      "ipe": 4137,
      "Ġvs": 4138,
      "Ġvacc": 4139,
      "Ġvapor": 4140,
      "ultiv": 4141,
      "uction": 4142,
      "Ġexped": 4143,
      "ĠViol": 4144,
      "udge": 4145,
      "Ġprob": 4146,
      "ugges": 4147,
      "Ġdisag": 4148,
      "phab": 4149,
      "antage": 4150,
      "ewed": 4151,
      "ĠProcess": 4152,
      "aller": 4153,
      "ango": 4154,
      "ebook": 4155,
      "even": 4156,
      "ellers": 4157,
      "asty": 4158,
      "ĠEns": 4159,
      "ĠDisp": 4160,
      "Ġjus": 4161,
      "ancies": 4162,
      "Ġscr": 4163,
      "Ġscar": 4164,
      "index": 4165,
      "ommod": 4166,
      "Ġprefer": 4167,
      "Ġadm": 4168,
      "ĠAnt": 4169,
      "ĠAny": 4170,
      "ĠAnim": 4171,
      "Ġthought": 4172,
      "scope": 4173,
      "clude": 4174,
      "ointing": 4175,
      "Ġcompar": 4176,
      "Ġanalog": 4177,
      "Ġoverd": 4178,
      "Ġrecomm": 4179,
      "touch": 4180,
      "spect": 4181,
      "ĠAdap": 4182,
      "ĠImper": 4183,
      "ĠRece": 4184,
      "ĠCompar": 4185,
      "ĠCompos": 4186,
      "ĠComputer": 4187,
      "ysics": 4188,
      "Ġroll": 4189,
      "ĠSci": 4190,
      "Ġarg": 4191,
      "Ġlearn": 4192,
      "ĠResource": 4193,
      "blem": 4194,
      "ĠPrec": 4195,
      "Ġquestion": 4196,
      "Ġdecor": 4197,
      "Ġclim": 4198,
      "ĠAccess": 4199,
      "Ġparticip": 4200,
      "eather": 4201,
      "iently": 4202,
      "uffed": 4203,
      "aired": 4204,
      "Ġtransform": 4205,
      "eeping": 4206,
      "ymmetric": 4207,
      "ĠParameter": 4208,
      "ĠParticip": 4209,
      "ringing": 4210,
      "plicated": 4211,
      "ultural": 4212,
      "ride": 4213,
      "ateral": 4214,
      "rels": 4215,
      "Ġampl": 4216,
      "ocket": 4217,
      "Ġorient": 4218,
      "Ġaccum": 4219,
      "Ġacceler": 4220,
      "Ġphp": 4221,
      "ĠInflu": 4222,
      "Ġapprec": 4223,
      "ernel": 4224,
      "Ġmodel": 4225,
      "venting": 4226,
      "Ġdistrib": 4227,
      "Ġatten": 4228,
      "ĠModern": 4229,
      "ĠDepend": 4230,
      "ĠDepth": 4231,
      "annel": 4232,
      "ĠAmpl": 4233,
      "aze": 4234,
      "ĠExplo": 4235,
      "ĠCommunic": 4236,
      "ĠAccum": 4237,
      "ĠAcceler": 4238,
      "ĠDistrib": 4239,
      "losure": 4240,
      "ĠColon": 4241,
      "ystems": 4242,
      "Ġdiver": 4243,
      "ĠDiver": 4244,
      "Ġtwo": 4245,
      "runc": 4246,
      "Ġirrit": 4247,
      "tigh": 4248,
      "oiled": 4249,
      "inned": 4250,
      "playing": 4251,
      "cluster": 4252,
      "loyed": 4253,
      "ĠCrypt": 4254,
      "iliar": 4255,
      "ĠIdentif": 4256,
      "volutional": 4257,
      "prising": 4258,
      "Ġsimpl": 4259,
      "Ġsympath": 4260,
      "ĠSimpl": 4261,
      "lects": 4262,
      "writing": 4263,
      "Ġverb": 4264,
      "ĠCollabor": 4265,
      "Ġworld": 4266,
      "autom": 4267,
      "Ġidentif": 4268,
      "charge": 4269,
      "Ġcircum": 4270,
      "Ġengine": 4271,
      "Ġpersu": 4272,
      "Ġmemor": 4273,
      "ĠRespons": 4274,
      "Ġstraight": 4275,
      "Ġdouble": 4276,
      "Process": 4277,
      "Ġangular": 4278,
      "Ġexperiment": 4279,
      "generated": 4280,
      "ĠSemi": 4281,
      "Ġruby": 4282,
      "domain": 4283,
      "figured": 4284,
      "Ġsoftware": 4285,
      "ĠStraight": 4286,
      "Ġexhaus": 4287,
      "alysis": 4288,
      "Ġminiatur": 4289,
      "Ġcrystall": 4290,
      "Ġoscill": 4291,
      "ĠEstim": 4292,
      "By": 4293,
      "Cont": 4294,
      "Lay": 4295,
      "Sp": 4296,
      "The": 4297,
      "aution": 4298,
      "bre": 4299,
      "bility": 4300,
      "bio": 4301,
      "bows": 4302,
      "built": 4303,
      "brush": 4304,
      "browser": 4305,
      "cut": 4306,
      "cap": 4307,
      "ciss": 4308,
      "clock": 4309,
      "dled": 4310,
      "fect": 4311,
      "file": 4312,
      "first": 4313,
      "factor": 4314,
      "facing": 4315,
      "focused": 4316,
      "group": 4317,
      "grav": 4318,
      "het": 4319,
      "hanc": 4320,
      "ira": 4321,
      "iod": 4322,
      "iator": 4323,
      "iators": 4324,
      "ialized": 4325,
      "ialize": 4326,
      "ializing": 4327,
      "iasing": 4328,
      "iencies": 4329,
      "leness": 4330,
      "lists": 4331,
      "mos": 4332,
      "most": 4333,
      "matically": 4334,
      "native": 4335,
      "power": 4336,
      "rary": 4337,
      "rats": 4338,
      "sing": 4339,
      "safe": 4340,
      "tures": 4341,
      "turb": 4342,
      "task": 4343,
      "track": 4344,
      "uin": 4345,
      "ualization": 4346,
      "uously": 4347,
      "urable": 4348,
      "yles": 4349,
      "Ġic": 4350,
      "Ġif": 4351,
      "Ġack": 4352,
      "Ġach": 4353,
      "Ġown": 4354,
      "Ġeth": 4355,
      "ince": 4356,
      "inary": 4357,
      "erb": 4358,
      "eric": 4359,
      "erting": 4360,
      "erry": 4361,
      "tise": 4362,
      "enst": 4363,
      "enabled": 4364,
      "aler": 4365,
      "alks": 4366,
      "alking": 4367,
      "atom": 4368,
      "aters": 4369,
      "atures": 4370,
      "orp": 4371,
      "orer": 4372,
      "orous": 4373,
      "orrection": 4374,
      "repr": 4375,
      "Ġsed": 4376,
      "Ġsit": 4377,
      "Ġsuc": 4378,
      "Ġslow": 4379,
      "Ġsever": 4380,
      "anked": 4381,
      "anning": 4382,
      "arting": 4383,
      "Ġcos": 4384,
      "Ġcand": 4385,
      "Ġcour": 4386,
      "Ġcamp": 4387,
      "Ġclear": 4388,
      "Ġceleb": 4389,
      "ĠSter": 4390,
      "ĠSuc": 4391,
      "ĠSlow": 4392,
      "ĠSeas": 4393,
      "lead": 4394,
      "itt": 4395,
      "itar": 4396,
      "itory": 4397,
      "itude": 4398,
      "ĠCop": 4399,
      "ĠCand": 4400,
      "ĠCoun": 4401,
      "ĠCost": 4402,
      "ĠCamp": 4403,
      "ĠCaus": 4404,
      "ĠCount": 4405,
      "ĠCopy": 4406,
      "icting": 4407,
      "rot": 4408,
      "roy": 4409,
      "rovers": 4410,
      "Ġpc": 4411,
      "Ġpython": 4412,
      "Ġpleas": 4413,
      "lyph": 4414,
      "Ġdeduc": 4415,
      "raise": 4416,
      "rapped": 4417,
      "unky": 4418,
      "ĠPat": 4419,
      "ĠPun": 4420,
      "ĠPot": 4421,
      "ĠPoint": 4422,
      "ĠPublic": 4423,
      "ĠPrioriti": 4424,
      "ĠPseud": 4425,
      "ulus": 4426,
      "ulpt": 4427,
      "ĠAx": 4428,
      "elly": 4429,
      "eliness": 4430,
      "oming": 4431,
      "ĠRa": 4432,
      "ĠRation": 4433,
      "ĠRid": 4434,
      "ĠRound": 4435,
      "ĠRoll": 4436,
      "ĠDr": 4437,
      "ĠDed": 4438,
      "ĠDens": 4439,
      "ĠDark": 4440,
      "ĠDivers": 4441,
      "acement": 4442,
      "acerb": 4443,
      "Ġmat": 4444,
      "Ġmus": 4445,
      "Ġmass": 4446,
      "Ġmaintain": 4447,
      "usi": 4448,
      "usions": 4449,
      "erse": 4450,
      "Ġtry": 4451,
      "urer": 4452,
      "urers": 4453,
      "urally": 4454,
      "ĠMor": 4455,
      "ĠMent": 4456,
      "ĠMil": 4457,
      "ĠMut": 4458,
      "ĠMag": 4459,
      "ĠMain": 4460,
      "ĠMill": 4461,
      "ĠMiss": 4462,
      "ĠMultic": 4463,
      "ĠMaintain": 4464,
      "olk": 4465,
      "oled": 4466,
      "olar": 4467,
      "olves": 4468,
      "olith": 4469,
      "etched": 4470,
      "essim": 4471,
      "Ġrej": 4472,
      "Ġrew": 4473,
      "Ġrear": 4474,
      "Ġreproduc": 4475,
      "Ġfra": 4476,
      "Ġfade": 4477,
      "Ġflex": 4478,
      "Ġfresh": 4479,
      "Ġfaith": 4480,
      "ĠTen": 4481,
      "ĠTick": 4482,
      "ĠTask": 4483,
      "ĠToler": 4484,
      "ĠTouch": 4485,
      "ĠToken": 4486,
      "ĠTroub": 4487,
      "utur": 4488,
      "utors": 4489,
      "uttered": 4490,
      "Ġbre": 4491,
      "Ġbig": 4492,
      "Ġbeh": 4493,
      "Ġboy": 4494,
      "Ġbott": 4495,
      "Ġbenef": 4496,
      "ĠEc": 4497,
      "ĠEcon": 4498,
      "ĠEvent": 4499,
      "ĠElev": 4500,
      "ĠEvery": 4501,
      "Ġinh": 4502,
      "Ġincons": 4503,
      "ĠFlow": 4504,
      "ĠFail": 4505,
      "ĠFunction": 4506,
      "ĠFixed": 4507,
      "emn": 4508,
      "ĠBle": 4509,
      "ĠBra": 4510,
      "ĠBott": 4511,
      "ĠBenef": 4512,
      "adic": 4513,
      "adox": 4514,
      "tery": 4515,
      "idable": 4516,
      "idates": 4517,
      "amming": 4518,
      "ammer": 4519,
      "ameters": 4520,
      "station": 4521,
      "sters": 4522,
      "Ġhy": 4523,
      "Ġhous": 4524,
      "Ġhome": 4525,
      "Ġhands": 4526,
      "Ġword": 4527,
      "Ġwatch": 4528,
      "agers": 4529,
      "ĠIncon": 4530,
      "ĠInduc": 4531,
      "image": 4532,
      "Ġunst": 4533,
      "Ġuncomp": 4534,
      "aped": 4535,
      "apers": 4536,
      "aphor": 4537,
      "ĠHot": 4538,
      "ticle": 4539,
      "umph": 4540,
      "uments": 4541,
      "Ġelev": 4542,
      "Ġevery": 4543,
      "ĠList": 4544,
      "ĠLib": 4545,
      "ĠLex": 4546,
      "ĠLaw": 4547,
      "ĠLead": 4548,
      "ĠLik": 4549,
      "ĠLiber": 4550,
      "ĠLife": 4551,
      "Ġgrav": 4552,
      "otal": 4553,
      "opping": 4554,
      "ĠOd": 4555,
      "ĠOpp": 4556,
      "ĠOrig": 4557,
      "irts": 4558,
      "Ġnight": 4559,
      "Ġnomin": 4560,
      "Ġnavig": 4561,
      "estep": 4562,
      "ĠWed": 4563,
      "ĠWid": 4564,
      "ĠWord": 4565,
      "ĠWeight": 4566,
      "ubric": 4567,
      "ĠGra": 4568,
      "ĠGig": 4569,
      "ĠGlob": 4570,
      "pled": 4571,
      "pless": 4572,
      "places": 4573,
      "Ġconqu": 4574,
      "Ġcondition": 4575,
      "ĠReh": 4576,
      "oward": 4577,
      "isters": 4578,
      "istry": 4579,
      "ĠNan": 4580,
      "ĠNomin": 4581,
      "ĠNavig": 4582,
      "Ġoc": 4583,
      "Ġless": 4584,
      "Ġlaugh": 4585,
      "Ġlinear": 4586,
      "ranqu": 4587,
      "ĠConce": 4588,
      "ĠCondition": 4589,
      "ipes": 4590,
      "ipper": 4591,
      "ensing": 4592,
      "anded": 4593,
      "Ġvic": 4594,
      "Ġvoice": 4595,
      "orms": 4596,
      "ĠStat": 4597,
      "ĠStri": 4598,
      "ĠStep": 4599,
      "akers": 4600,
      "Ġax": 4601,
      "Ġaver": 4602,
      "Ġaven": 4603,
      "Ġexam": 4604,
      "ivari": 4605,
      "ĠVoc": 4606,
      "ĠVeg": 4607,
      "ĠVirt": 4608,
      "ĠVoice": 4609,
      "uds": 4610,
      "Ġprop": 4611,
      "Ġprogress": 4612,
      "exam": 4613,
      "Ġdish": 4614,
      "Ġspir": 4615,
      "Ġspell": 4616,
      "Ġspati": 4617,
      "ĠExped": 4618,
      "ewise": 4619,
      "Ġchild": 4620,
      "Ġcheer": 4621,
      "ypes": 4622,
      "prot": 4623,
      "program": 4624,
      "ĠProb": 4625,
      "angles": 4626,
      "itives": 4627,
      "ebra": 4628,
      "Ġsharp": 4629,
      "oker": 4630,
      "ellular": 4631,
      "ĠSpect": 4632,
      "ĠSpeech": 4633,
      "asturb": 4634,
      "condition": 4635,
      "ĠEnumer": 4636,
      "illa": 4637,
      "riction": 4638,
      "ativeness": 4639,
      "Ġimag": 4640,
      "ĠShow": 4641,
      "ervis": 4642,
      "ronom": 4643,
      "Ġadminist": 4644,
      "Ġreson": 4645,
      "Ġthe": 4646,
      "ighty": 4647,
      "clim": 4648,
      "cluded": 4649,
      "verses": 4650,
      "Ġcompet": 4651,
      "Ġanonym": 4652,
      "Ġoverl": 4653,
      "Ġovert": 4654,
      "athers": 4655,
      "Ġreciproc": 4656,
      "toxic": 4657,
      "Ġcoup": 4658,
      "space": 4659,
      "isely": 4660,
      "ĠImpro": 4661,
      "ĠRecomm": 4662,
      "arious": 4663,
      "arians": 4664,
      "ĠCompet": 4665,
      "ofing": 4666,
      "outing": 4667,
      "ĠJus": 4668,
      "ĠScar": 4669,
      "Ġarbit": 4670,
      "Ġlet": 4671,
      "tifier": 4672,
      "tifiable": 4673,
      "ĠResc": 4674,
      "Ġcontainer": 4675,
      "ĠPrem": 4676,
      "ĠInternet": 4677,
      "obility": 4678,
      "ppy": 4679,
      "Ġdece": 4680,
      "ĠAck": 4681,
      "ĠCoup": 4682,
      "Ġparas": 4683,
      "Ġparallel": 4684,
      "eaters": 4685,
      "uffing": 4686,
      "Ġalle": 4687,
      "Ġalloc": 4688,
      "Ġaltern": 4689,
      "Ġflu": 4690,
      "eeks": 4691,
      "Ġintens": 4692,
      "olders": 4693,
      "Ġinduc": 4694,
      "Ġauthentic": 4695,
      "Ġobjec": 4696,
      "Ġobject": 4697,
      "Ġswitch": 4698,
      "ĠDecor": 4699,
      "ructured": 4700,
      "isms": 4701,
      "ĠAltern": 4702,
      "ĠAutoc": 4703,
      "teen": 4704,
      "Ġforward": 4705,
      "ractor": 4706,
      "Ġwhat": 4707,
      "ĠEmbed": 4708,
      "porter": 4709,
      "porting": 4710,
      "ithme": 4711,
      "ealed": 4712,
      "plicit": 4713,
      "ulture": 4714,
      "ools": 4715,
      "volving": 4716,
      "Ġassemb": 4717,
      "Ġassoci": 4718,
      "Ġitem": 4719,
      "ĠPerm": 4720,
      "ographer": 4721,
      "ographers": 4722,
      "ographical": 4723,
      "ographically": 4724,
      "Ġmissp": 4725,
      "Ġconstit": 4726,
      "Ġcommon": 4727,
      "orns": 4728,
      "Ġundes": 4729,
      "Ġunders": 4730,
      "ĠForg": 4731,
      "ĠInfl": 4732,
      "ĠAssoci": 4733,
      "rivial": 4734,
      "management": 4735,
      "viewing": 4736,
      "umbles": 4737,
      "Ġentertain": 4738,
      "Ġaggreg": 4739,
      "ropic": 4740,
      "ĠIndust": 4741,
      "structure": 4742,
      "structured": 4743,
      "argin": 4744,
      "processor": 4745,
      "Ġsurv": 4746,
      "urban": 4747,
      "model": 4748,
      "models": 4749,
      "inux": 4750,
      "rape": 4751,
      "structions": 4752,
      "umpy": 4753,
      "urrent": 4754,
      "missions": 4755,
      "ĠAggreg": 4756,
      "ĠSurv": 4757,
      "oils": 4758,
      "integ": 4759,
      "Ġmethod": 4760,
      "Ġterror": 4761,
      "incarn": 4762,
      "player": 4763,
      "clusion": 4764,
      "Ġsynthes": 4765,
      "ĠMeta": 4766,
      "ĠMethod": 4767,
      "Ġembed": 4768,
      "Ġdeton": 4769,
      "Ġendeav": 4770,
      "ĠDesign": 4771,
      "quired": 4772,
      "centric": 4773,
      "ergy": 4774,
      "ĠSynthes": 4775,
      "lective": 4776,
      "euver": 4777,
      "security": 4778,
      "interpre": 4779,
      "aneous": 4780,
      "unny": 4781,
      "archy": 4782,
      "marks": 4783,
      "ĠiP": 4784,
      "Ġworks": 4785,
      "ambigu": 4786,
      "ĠWorks": 4787,
      "Ġcritic": 4788,
      "ĠMotiv": 4789,
      "ĠVerb": 4790,
      "rophy": 4791,
      "Ġnegoti": 4792,
      "organized": 4793,
      "ealthy": 4794,
      "cribed": 4795,
      "rusted": 4796,
      "Ġeconom": 4797,
      "Ġillust": 4798,
      "orphic": 4799,
      "ĠCircum": 4800,
      "ĠHardware": 4801,
      "ooping": 4802,
      "sequence": 4803,
      "ĠMemor": 4804,
      "Ġemploy": 4805,
      "hedron": 4806,
      "sourced": 4807,
      "ĠOccup": 4808,
      "development": 4809,
      "aphr": 4810,
      "titutional": 4811,
      "Scale": 4812,
      "functional": 4813,
      "graphs": 4814,
      "ĠMobile": 4815,
      "ocratic": 4816,
      "engineering": 4817,
      "ĠHeart": 4818,
      "Ġultra": 4819,
      "vironment": 4820,
      "agnetic": 4821,
      "reprene": 4822,
      "ĠEconom": 4823,
      "10": 4824,
      "AD": 4825,
      "AN": 4826,
      "AT": 4827,
      "Box": 4828,
      "Comp": 4829,
      "DB": 4830,
      "Data": 4831,
      "Flow": 4832,
      "GPT": 4833,
      "IS": 4834,
      "Im": 4835,
      "One": 4836,
      "PI": 4837,
      "Ps": 4838,
      "Qu": 4839,
      "Res": 4840,
      "Script": 4841,
      "SQL": 4842,
      "Use": 4843,
      "bar": 4844,
      "breed": 4845,
      "can": 4846,
      "casts": 4847,
      "da": 4848,
      "dk": 4849,
      "dep": 4850,
      "def": 4851,
      "determin": 4852,
      "eers": 4853,
      "eals": 4854,
      "ease": 4855,
      "eties": 4856,
      "fers": 4857,
      "falls": 4858,
      "go": 4859,
      "gled": 4860,
      "grid": 4861,
      "how": 4862,
      "hanced": 4863,
      "irac": 4864,
      "iour": 4865,
      "iably": 4866,
      "ialization": 4867,
      "iences": 4868,
      "ialism": 4869,
      "irable": 4870,
      "jac": 4871,
      "jango": 4872,
      "kward": 4873,
      "mate": 4874,
      "maps": 4875,
      "nal": 4876,
      "nect": 4877,
      "oves": 4878,
      "oever": 4879,
      "purpose": 4880,
      "rist": 4881,
      "rors": 4882,
      "sl": 4883,
      "sed": 4884,
      "sql": 4885,
      "tin": 4886,
      "uy": 4887,
      "uic": 4888,
      "vm": 4889,
      "vy": 4890,
      "walk": 4891,
      "ycl": 4892,
      "Ġell": 4893,
      "Ġrain": 4894,
      "Ġold": 4895,
      "Ġrip": 4896,
      "Ġtigh": 4897,
      "inks": 4898,
      "inator": 4899,
      "inition": 4900,
      "eral": 4901,
      "ertion": 4902,
      "erate": 4903,
      "erted": 4904,
      "error": 4905,
      "inging": 4906,
      "eners": 4907,
      "ala": 4908,
      "alyst": 4909,
      "atto": 4910,
      "rees": 4911,
      "reated": 4912,
      "Ġsun": 4913,
      "Ġslo": 4914,
      "Ġsand": 4915,
      "Ġsust": 4916,
      "Ġsick": 4917,
      "Ġseed": 4918,
      "Ġsne": 4919,
      "Ġsome": 4920,
      "Ġsearch": 4921,
      "anch": 4922,
      "antic": 4923,
      "anting": 4924,
      "Ġcut": 4925,
      "Ġcens": 4926,
      "Ġcav": 4927,
      "Ġcraw": 4928,
      "Ġcann": 4929,
      "Ġclos": 4930,
      "Ġcivil": 4931,
      "Ġcoinc": 4932,
      "ĠSan": 4933,
      "ĠSust": 4934,
      "ĠServ": 4935,
      "ĠSome": 4936,
      "ĠSever": 4937,
      "ĠSchem": 4938,
      "ĠSearch": 4939,
      "ĠSleep": 4940,
      "ĠSatisf": 4941,
      "ĠService": 4942,
      "lee": 4943,
      "lease": 4944,
      "itary": 4945,
      "itoring": 4946,
      "ĠCle": 4947,
      "ĠCra": 4948,
      "ĠCall": 4949,
      "ĠCour": 4950,
      "ĠCanc": 4951,
      "ĠCry": 4952,
      "ĠCentr": 4953,
      "ĠClosed": 4954,
      "ĠCPU": 4955,
      "ascript": 4956,
      "iced": 4957,
      "icle": 4958,
      "ictions": 4959,
      "icial": 4960,
      "rout": 4961,
      "Ġpin": 4962,
      "Ġpal": 4963,
      "Ġpul": 4964,
      "Ġpil": 4965,
      "Ġpack": 4966,
      "Ġpoint": 4967,
      "Ġpurs": 4968,
      "Ġpubl": 4969,
      "Ġdu": 4970,
      "Ġdam": 4971,
      "Ġdim": 4972,
      "Ġdict": 4973,
      "Ġdivid": 4974,
      "Ġdocument": 4975,
      "unks": 4976,
      "ĠPet": 4977,
      "ĠPack": 4978,
      "uli": 4979,
      "ulary": 4980,
      "ecl": 4981,
      "ecking": 4982,
      "ecurity": 4983,
      "eculi": 4984,
      "ĠAver": 4985,
      "ĠAug": 4986,
      "ĠAfter": 4987,
      "ĠARM": 4988,
      "ĠAchiev": 4989,
      "omed": 4990,
      "omain": 4991,
      "ĠRis": 4992,
      "ĠRay": 4993,
      "ĠDD": 4994,
      "ĠDw": 4995,
      "ĠDam": 4996,
      "ĠDim": 4997,
      "ĠDay": 4998,
      "ĠDead": 4999,
      "ĠDict": 5000,
      "ĠDivid": 5001,
      "access": 5002,
      "acious": 5003,
      "acrif": 5004,
      "Ġmeet": 5005,
      "Ġmachine": 5006,
      "abase": 5007,
      "abulary": 5008,
      "Ġtor": 5009,
      "Ġtro": 5010,
      "Ġtom": 5011,
      "Ġtru": 5012,
      "Ġtrain": 5013,
      "Ġtrib": 5014,
      "Ġtrig": 5015,
      "Ġturn": 5016,
      "Ġtough": 5017,
      "Ġtensor": 5018,
      "Ġtrick": 5019,
      "urious": 5020,
      "ĠMass": 5021,
      "ĠMeg": 5022,
      "ĠMust": 5023,
      "ĠMotor": 5024,
      "ĠMaj": 5025,
      "ĠMatrix": 5026,
      "olly": 5027,
      "olve": 5028,
      "etching": 5029,
      "etween": 5030,
      "Ġfu": 5031,
      "Ġfro": 5032,
      "Ġfine": 5033,
      "Ġfair": 5034,
      "Ġfract": 5035,
      "Ġfrust": 5036,
      "Ġfasc": 5037,
      "Ġfeature": 5038,
      "ĠTit": 5039,
      "ĠTest": 5040,
      "ĠTrain": 5041,
      "ĠTax": 5042,
      "ĠTrig": 5043,
      "ĠTrade": 5044,
      "uttering": 5045,
      "Ġban": 5046,
      "Ġbad": 5047,
      "Ġbow": 5048,
      "Ġboun": 5049,
      "Ġbacks": 5050,
      "Ġbrew": 5051,
      "Ġbuild": 5052,
      "Ġbreath": 5053,
      "Ġbrief": 5054,
      "rives": 5055,
      "ĠEll": 5056,
      "ĠEduc": 5057,
      "Ġinver": 5058,
      "Ġinvalid": 5059,
      "loop": 5060,
      "ĠFe": 5061,
      "ĠFu": 5062,
      "ĠFair": 5063,
      "ĠFace": 5064,
      "ĠFract": 5065,
      "ĠFLO": 5066,
      "eming": 5067,
      "ĠBy": 5068,
      "ĠBre": 5069,
      "ĠBrew": 5070,
      "ĠBuild": 5071,
      "ĠBreath": 5072,
      "adig": 5073,
      "idation": 5074,
      "ameless": 5075,
      "store": 5076,
      "Ġhur": 5077,
      "Ġheav": 5078,
      "Ġhospit": 5079,
      "Ġwa": 5080,
      "Ġwear": 5081,
      "Ġwarm": 5082,
      "Ġwrec": 5083,
      "Ġwild": 5084,
      "Ġweight": 5085,
      "Ġweek": 5086,
      "agent": 5087,
      "ĠInj": 5088,
      "ĠInher": 5089,
      "ĠInsp": 5090,
      "iments": 5091,
      "Ġunqu": 5092,
      "Ġunco": 5093,
      "Ġunivers": 5094,
      "apper": 5095,
      "ĠHy": 5096,
      "ĠHun": 5097,
      "ĠHair": 5098,
      "ĠHome": 5099,
      "ĠHands": 5100,
      "ĠHeav": 5101,
      "ticles": 5102,
      "umed": 5103,
      "Ġearn": 5104,
      "Ġevalu": 5105,
      "ĠLaugh": 5106,
      "ĠLinear": 5107,
      "Ġgar": 5108,
      "Ġgro": 5109,
      "Ġgam": 5110,
      "Ġgood": 5111,
      "othe": 5112,
      "oders": 5113,
      "opped": 5114,
      "ĠOsc": 5115,
      "ĠUt": 5116,
      "Ġnic": 5117,
      "estly": 5118,
      "ĠWide": 5119,
      "ĠWarm": 5120,
      "ĠWeigh": 5121,
      "ĠWeek": 5122,
      "ube": 5123,
      "ubbing": 5124,
      "ĠGro": 5125,
      "ĠGame": 5126,
      "platform": 5127,
      "Ġconsp": 5128,
      "ĠReass": 5129,
      "ĠRevolution": 5130,
      "ĠReproduc": 5131,
      "istance": 5132,
      "istrib": 5133,
      "istently": 5134,
      "ĠNight": 5135,
      "ĠNecess": 5136,
      "Ġstate": 5137,
      "Ġlaun": 5138,
      "Ġliqu": 5139,
      "endable": 5140,
      "ogen": 5141,
      "ĠConqu": 5142,
      "ocumented": 5143,
      "ĠUnw": 5144,
      "ĠUnivers": 5145,
      "ensions": 5146,
      "ensitive": 5147,
      "ainted": 5148,
      "ainting": 5149,
      "Ġvan": 5150,
      "ĠStandard": 5151,
      "aky": 5152,
      "thinking": 5153,
      "Ġaug": 5154,
      "Ġexempl": 5155,
      "ĠVan": 5156,
      "ĠVac": 5157,
      "ĠVacc": 5158,
      "orse": 5159,
      "Ġproject": 5160,
      "Ġprotest": 5161,
      "Ġprosec": 5162,
      "Ġprohib": 5163,
      "efer": 5164,
      "efore": 5165,
      "expression": 5166,
      "inearity": 5167,
      "Ġdisj": 5168,
      "Ġdism": 5169,
      "Ġdispro": 5170,
      "antation": 5171,
      "Ġspot": 5172,
      "Ġspread": 5173,
      "Ġchem": 5174,
      "dered": 5175,
      "avel": 5176,
      "product": 5177,
      "ĠProp": 5178,
      "ĠProgress": 5179,
      "earance": 5180,
      "angers": 5181,
      "event": 5182,
      "eview": 5183,
      "ressions": 5184,
      "ectable": 5185,
      "ellation": 5186,
      "ĠSpir": 5187,
      "ĠChem": 5188,
      "ĠChain": 5189,
      "ĠChild": 5190,
      "configu": 5191,
      "pered": 5192,
      "Ġjourn": 5193,
      "rict": 5194,
      "atile": 5195,
      "atize": 5196,
      "Ġimage": 5197,
      "Ġimprov": 5198,
      "achment": 5199,
      "ĠSharp": 5200,
      "Ġscrew": 5201,
      "Ġadop": 5202,
      "ĠAns": 5203,
      "ĠAnonym": 5204,
      "Ġthick": 5205,
      "Ġtheor": 5206,
      "cludes": 5207,
      "cluding": 5208,
      "oined": 5209,
      "ointer": 5210,
      "ailability": 5211,
      "Ġcompens": 5212,
      "Ġoverh": 5213,
      "Ġkind": 5214,
      "Ġcover": 5215,
      "Ġcook": 5216,
      "ysi": 5217,
      "Ġinterpol": 5218,
      "ĠJourn": 5219,
      "atcher": 5220,
      "ĠScr": 5221,
      "ĠThe": 5222,
      "Ġlever": 5223,
      "ync": 5224,
      "Ġcontent": 5225,
      "Ġcontrad": 5226,
      "Ġcontrib": 5227,
      "ĠPrefer": 5228,
      "Ġemig": 5229,
      "Ġemphas": 5230,
      "attention": 5231,
      "obe": 5232,
      "Ġdecon": 5233,
      "Ġdecentr": 5234,
      "itional": 5235,
      "ĠAcqu": 5236,
      "enerated": 5237,
      "ampions": 5238,
      "ĠCover": 5239,
      "uffs": 5240,
      "uffle": 5241,
      "Ġflip": 5242,
      "Ġflatter": 5243,
      "ĠContrad": 5244,
      "ĠContrib": 5245,
      "ĠArg": 5246,
      "ĠArbit": 5247,
      "Ġplan": 5248,
      "Ġplug": 5249,
      "Ġintellig": 5250,
      "Ġlook": 5251,
      "Ġtransp": 5252,
      "ĠDece": 5253,
      "ĠDecon": 5254,
      "eeper": 5255,
      "ĠClim": 5256,
      "ĠParallel": 5257,
      "ructures": 5258,
      "ĠAlloc": 5259,
      "ĠAlgorithm": 5260,
      "Ġimped": 5261,
      "duction": 5262,
      "ĠAuthentic": 5263,
      "ĠPlan": 5264,
      "Ġfores": 5265,
      "ĠOverl": 5266,
      "riger": 5267,
      "rational": 5268,
      "ĠIntellig": 5269,
      "ready": 5270,
      "plicate": 5271,
      "tained": 5272,
      "taining": 5273,
      "rides": 5274,
      "ridge": 5275,
      "volve": 5276,
      "volved": 5277,
      "Ġappl": 5278,
      "Ġinfring": 5279,
      "compan": 5280,
      "Ġsupers": 5281,
      "ĠFlu": 5282,
      "ĠFlip": 5283,
      "Ġamaz": 5284,
      "ockets": 5285,
      "Ġorchest": 5286,
      "Ġdepth": 5287,
      "aleont": 5288,
      "Ġcomment": 5289,
      "ĠObl": 5290,
      "Ġconsult": 5291,
      "eases": 5292,
      "Ġcommand": 5293,
      "ikit": 5294,
      "recision": 5295,
      "Ġrap": 5296,
      "ĠForward": 5297,
      "ĠAssemb": 5298,
      "cepts": 5299,
      "rived": 5300,
      "ĠHigher": 5301,
      "ĠWhat": 5302,
      "ĠConstit": 5303,
      "ĠConsult": 5304,
      "Ġconfig": 5305,
      "ĠDeform": 5306,
      "viewed": 5307,
      "Ġsmooth": 5308,
      "umbers": 5309,
      "ĠRegion": 5310,
      "vented": 5311,
      "Ġdistingu": 5312,
      "eaking": 5313,
      "Ġenter": 5314,
      "Ġyear": 5315,
      "ruption": 5316,
      "ruptions": 5317,
      "Ġcruc": 5318,
      "Ġcolor": 5319,
      "arget": 5320,
      "Ġmicros": 5321,
      "Ġhigher": 5322,
      "ĠOrchest": 5323,
      "rands": 5324,
      "randed": 5325,
      "ĠDistingu": 5326,
      "Ġretriev": 5327,
      "processed": 5328,
      "processors": 5329,
      "ĠYou": 5330,
      "Ġmonot": 5331,
      "iffs": 5332,
      "retched": 5333,
      "Ġcorrel": 5334,
      "Ġcorrect": 5335,
      "Ġcorrespond": 5336,
      "iterate": 5337,
      "Ġtravel": 5338,
      "ĠSmall": 5339,
      "Ġdiagn": 5340,
      "Ġdiplom": 5341,
      "Ġdeliber": 5342,
      "Ġdeliver": 5343,
      "ĠDiagn": 5344,
      "Ġmanif": 5345,
      "Ġspecial": 5346,
      "ĠMany": 5347,
      "comes": 5348,
      "umption": 5349,
      "ĠCorrel": 5350,
      "ĠCorrect": 5351,
      "urrency": 5352,
      "rolls": 5353,
      "ectional": 5354,
      "rified": 5355,
      "ields": 5356,
      "Ġmeteor": 5357,
      "Ġafford": 5358,
      "Ġzero": 5359,
      "incer": 5360,
      "inners": 5361,
      "ountable": 5362,
      "levant": 5363,
      "ĠMeteor": 5364,
      "ĠSpecial": 5365,
      "ĠEncoder": 5366,
      "downs": 5367,
      "ĠTravel": 5368,
      "rutin": 5369,
      "iliation": 5370,
      "uggling": 5371,
      "quiring": 5372,
      "ĠDeliber": 5373,
      "Ġinstall": 5374,
      "rafted": 5375,
      "interpret": 5376,
      "elerated": 5377,
      "Ġannot": 5378,
      "boxes": 5379,
      "ique": 5380,
      "marking": 5381,
      "ulsion": 5382,
      "ĠAfford": 5383,
      "auth": 5384,
      "author": 5385,
      "Ġaston": 5386,
      "changing": 5387,
      "ĠWorld": 5388,
      "Ġsubsid": 5389,
      "charged": 5390,
      "ĠLLa": 5391,
      "etition": 5392,
      "etitive": 5393,
      "entioned": 5394,
      "Ġserver": 5395,
      "auti": 5396,
      "framework": 5397,
      "Ġtriang": 5398,
      "Ġconcaten": 5399,
      "Ġisol": 5400,
      "Ġderiv": 5401,
      "hoods": 5402,
      "rastructure": 5403,
      "Ġmemory": 5404,
      "ableness": 5405,
      "claimed": 5406,
      "ĠServer": 5407,
      "ĠIllust": 5408,
      "Ġhumid": 5409,
      "scribe": 5410,
      "uplication": 5411,
      "Ġcongrat": 5412,
      "ĠCritic": 5413,
      "ĠNegoti": 5414,
      "ĠExperiment": 5415,
      "sourcing": 5416,
      "Ġsidew": 5417,
      "ĠDigiti": 5418,
      "ĠError": 5419,
      "Ġescal": 5420,
      "Ġsexu": 5421,
      "Ġharmon": 5422,
      "ĠHypothes": 5423,
      "Ġramp": 5424,
      "ĠEngine": 5425,
      "party": 5426,
      "ĠEmploy": 5427,
      "tracking": 5428,
      "ĠSoftware": 5429,
      "Ġllm": 5430,
      "Ġprocrast": 5431,
      "orrelation": 5432,
      "Ġachiev": 5433,
      "Bit": 5434,
      "Book": 5435,
      "Code": 5436,
      "Class": 5437,
      "ER": 5438,
      "For": 5439,
      "Graph": 5440,
      "LE": 5441,
      "Lab": 5442,
      "MA": 5443,
      "Par": 5444,
      "Rel": 5445,
      "Service": 5446,
      "TF": 5447,
      "Val": 5448,
      "View": 5449,
      "aic": 5450,
      "aud": 5451,
      "base": 5452,
      "body": 5453,
      "bench": 5454,
      "between": 5455,
      "cend": 5456,
      "cement": 5457,
      "casting": 5458,
      "db": 5459,
      "days": 5460,
      "disc": 5461,
      "duce": 5462,
      "directional": 5463,
      "effic": 5464,
      "eotyp": 5465,
      "fin": 5466,
      "fly": 5467,
      "flo": 5468,
      "fire": 5469,
      "fits": 5470,
      "fection": 5471,
      "fitting": 5472,
      "gets": 5473,
      "gory": 5474,
      "going": 5475,
      "gebra": 5476,
      "hers": 5477,
      "had": 5478,
      "hoot": 5479,
      "held": 5480,
      "hole": 5481,
      "human": 5482,
      "ih": 5483,
      "iased": 5484,
      "iations": 5485,
      "iary": 5486,
      "itical": 5487,
      "ienced": 5488,
      "jud": 5489,
      "ka": 5490,
      "kes": 5491,
      "know": 5492,
      "lim": 5493,
      "law": 5494,
      "lier": 5495,
      "listed": 5496,
      "life": 5497,
      "lights": 5498,
      "mail": 5499,
      "master": 5500,
      "matching": 5501,
      "metry": 5502,
      "memory": 5503,
      "ny": 5504,
      "nic": 5505,
      "nom": 5506,
      "nets": 5507,
      "oe": 5508,
      "oter": 5509,
      "oir": 5510,
      "oise": 5511,
      "oices": 5512,
      "pus": 5513,
      "paces": 5514,
      "ril": 5515,
      "rarian": 5516,
      "ses": 5517,
      "sem": 5518,
      "sim": 5519,
      "school": 5520,
      "train": 5521,
      "type": 5522,
      "tuned": 5523,
      "uity": 5524,
      "urop": 5525,
      "vation": 5526,
      "vector": 5527,
      "web": 5528,
      "watch": 5529,
      "water": 5530,
      "write": 5531,
      "ysc": 5532,
      "zen": 5533,
      "zens": 5534,
      "Ġes": 5535,
      "Ġil": 5536,
      "Ġet": 5537,
      "Ġess": 5538,
      "Ġath": 5539,
      "Ġamp": 5540,
      "Ġiss": 5541,
      "Ġright": 5542,
      "Ġurban": 5543,
      "ino": 5544,
      "inus": 5545,
      "inos": 5546,
      "inting": 5547,
      "inates": 5548,
      "erable": 5549,
      "erod": 5550,
      "eros": 5551,
      "edge": 5552,
      "esh": 5553,
      "esis": 5554,
      "onically": 5555,
      "entions": 5556,
      "alked": 5557,
      "alty": 5558,
      "atted": 5559,
      "oreg": 5560,
      "rep": 5561,
      "Ġsen": 5562,
      "Ġsan": 5563,
      "Ġsent": 5564,
      "Ġsound": 5565,
      "Ġsaf": 5566,
      "Ġseduc": 5567,
      "Ġsuit": 5568,
      "Ġschool": 5569,
      "Ġsett": 5570,
      "aning": 5571,
      "anim": 5572,
      "arc": 5573,
      "arked": 5574,
      "areness": 5575,
      "arithm": 5576,
      "isher": 5577,
      "isite": 5578,
      "istered": 5579,
      "Ġcas": 5580,
      "Ġcran": 5581,
      "Ġcoc": 5582,
      "Ġcru": 5583,
      "Ġcold": 5584,
      "Ġcock": 5585,
      "Ġcrack": 5586,
      "Ġcamer": 5587,
      "ĠSD": 5588,
      "ĠSed": 5589,
      "ĠSti": 5590,
      "ĠSen": 5591,
      "ĠSit": 5592,
      "ĠSent": 5593,
      "ĠSlo": 5594,
      "ĠSad": 5595,
      "ĠSand": 5596,
      "ĠSav": 5597,
      "ĠSick": 5598,
      "ĠSeed": 5599,
      "ĠSQL": 5600,
      "ley": 5601,
      "leted": 5602,
      "lements": 5603,
      "itative": 5604,
      "itability": 5605,
      "itty": 5606,
      "ĠCas": 5607,
      "ĠCut": 5608,
      "ĠCos": 5609,
      "ĠCold": 5610,
      "ĠCock": 5611,
      "ĠCraw": 5612,
      "ĠCann": 5613,
      "ĠClear": 5614,
      "aser": 5615,
      "asked": 5616,
      "asions": 5617,
      "asiveness": 5618,
      "icing": 5619,
      "icul": 5620,
      "icates": 5621,
      "icrow": 5622,
      "ician": 5623,
      "icially": 5624,
      "rocess": 5625,
      "rospec": 5626,
      "Ġpos": 5627,
      "Ġpip": 5628,
      "Ġpress": 5629,
      "Ġpric": 5630,
      "Ġpuls": 5631,
      "Ġpenet": 5632,
      "Ġpseud": 5633,
      "Ġpronoun": 5634,
      "Ġdot": 5635,
      "Ġdamp": 5636,
      "Ġdead": 5637,
      "Ġdynam": 5638,
      "Ġdomestic": 5639,
      "Ġdjango": 5640,
      "raps": 5641,
      "unable": 5642,
      "unge": 5643,
      "unte": 5644,
      "ĠPin": 5645,
      "ĠPul": 5646,
      "ĠPos": 5647,
      "ĠPip": 5648,
      "ĠPerv": 5649,
      "ĠPurs": 5650,
      "ĠPict": 5651,
      "ĠPeer": 5652,
      "ĠPubl": 5653,
      "ĠPleas": 5654,
      "entation": 5655,
      "uld": 5656,
      "uler": 5657,
      "ulted": 5658,
      "ulner": 5659,
      "ĠAsp": 5660,
      "eli": 5661,
      "ellow": 5662,
      "ellect": 5663,
      "ĠRap": 5664,
      "ĠReduc": 5665,
      "ĠDu": 5666,
      "ĠDro": 5667,
      "ĠDish": 5668,
      "ĠDeal": 5669,
      "ĠDream": 5670,
      "ĠDrag": 5671,
      "ĠDeduc": 5672,
      "ĠDocument": 5673,
      "ĠDocker": 5674,
      "acle": 5675,
      "acher": 5676,
      "actively": 5677,
      "acements": 5678,
      "Ġme": 5679,
      "Ġmur": 5680,
      "Ġmail": 5681,
      "Ġmys": 5682,
      "Ġmatrix": 5683,
      "Ġmitig": 5684,
      "Ġmathematic": 5685,
      "Ġmoment": 5686,
      "abol": 5687,
      "abouts": 5688,
      "usable": 5689,
      "usive": 5690,
      "uspec": 5691,
      "illo": 5692,
      "ilized": 5693,
      "ilinear": 5694,
      "ilenet": 5695,
      "Ġty": 5696,
      "Ġtac": 5697,
      "Ġtur": 5698,
      "Ġtree": 5699,
      "Ġtax": 5700,
      "Ġtask": 5701,
      "Ġtrust": 5702,
      "Ġtrade": 5703,
      "Ġtrem": 5704,
      "Ġtreas": 5705,
      "Ġtranqu": 5706,
      "ĠMat": 5707,
      "ĠMus": 5708,
      "ĠMess": 5709,
      "ĠMock": 5710,
      "ĠMeet": 5711,
      "ĠMother": 5712,
      "ĠMitig": 5713,
      "ĠMathematic": 5714,
      "olf": 5715,
      "olt": 5716,
      "oling": 5717,
      "olute": 5718,
      "olvable": 5719,
      "etary": 5720,
      "ettes": 5721,
      "essive": 5722,
      "essions": 5723,
      "Ġrevers": 5724,
      "Ġrelin": 5725,
      "Ġfes": 5726,
      "Ġfan": 5727,
      "Ġfar": 5728,
      "Ġfort": 5729,
      "Ġfound": 5730,
      "Ġfool": 5731,
      "Ġfurn": 5732,
      "Ġfunn": 5733,
      "Ġfulf": 5734,
      "Ġfeder": 5735,
      "Ġfully": 5736,
      "Ġfabric": 5737,
      "ĠTy": 5738,
      "ĠTor": 5739,
      "ĠTom": 5740,
      "ĠTac": 5741,
      "ĠTab": 5742,
      "ĠTight": 5743,
      "ĠTech": 5744,
      "ĠTrust": 5745,
      "ĠTooth": 5746,
      "ĠIp": 5747,
      "ĠIon": 5748,
      "ĠIss": 5749,
      "utability": 5750,
      "utters": 5751,
      "Ġbin": 5752,
      "Ġband": 5753,
      "Ġbuff": 5754,
      "Ġbox": 5755,
      "ĠEver": 5756,
      "ĠEss": 5757,
      "ĠEras": 5758,
      "ĠEvalu": 5759,
      "ĠEigen": 5760,
      "Ġinex": 5761,
      "Ġinput": 5762,
      "Ġinhib": 5763,
      "loys": 5764,
      "looking": 5765,
      "ĠFra": 5766,
      "ĠFort": 5767,
      "ĠFound": 5768,
      "ĠFlex": 5769,
      "ĠFrust": 5770,
      "ĠFaith": 5771,
      "ĠFeder": 5772,
      "ĠBro": 5773,
      "ĠBad": 5774,
      "ĠBot": 5775,
      "ĠBuff": 5776,
      "ĠBurn": 5777,
      "ĠBox": 5778,
      "ĠBuilt": 5779,
      "ĠBusiness": 5780,
      "child": 5781,
      "channel": 5782,
      "idated": 5783,
      "idents": 5784,
      "idia": 5785,
      "idential": 5786,
      "idding": 5787,
      "idden": 5788,
      "amic": 5789,
      "amel": 5790,
      "aments": 5791,
      "ammers": 5792,
      "ametri": 5793,
      "stack": 5794,
      "stalled": 5795,
      "stalling": 5796,
      "Ġhi": 5797,
      "Ġhack": 5798,
      "Ġhold": 5799,
      "Ġhaz": 5800,
      "Ġhere": 5801,
      "Ġhealth": 5802,
      "Ġhistor": 5803,
      "Ġhalluc": 5804,
      "Ġwel": 5805,
      "Ġwil": 5806,
      "Ġway": 5807,
      "Ġwire": 5808,
      "Ġwood": 5809,
      "Ġwrit": 5810,
      "Ġweap": 5811,
      "Ġwrong": 5812,
      "Ġwonder": 5813,
      "Ġworship": 5814,
      "agg": 5815,
      "agu": 5816,
      "agues": 5817,
      "ĠInh": 5818,
      "ĠInn": 5819,
      "ĠInser": 5820,
      "ĠInhib": 5821,
      "Ġunn": 5822,
      "Ġunit": 5823,
      "Ġunim": 5824,
      "Ġunse": 5825,
      "Ġunsp": 5826,
      "apy": 5827,
      "ĠHur": 5828,
      "ĠHack": 5829,
      "ĠHistor": 5830,
      "ĠHalluc": 5831,
      "ategory": 5832,
      "umatic": 5833,
      "Ġever": 5834,
      "Ġelement": 5835,
      "Ġeigen": 5836,
      "ĠLem": 5837,
      "ĠLock": 5838,
      "ĠLiqu": 5839,
      "ĠLanguage": 5840,
      "ĠLearn": 5841,
      "Ġgn": 5842,
      "Ġgall": 5843,
      "Ġgriev": 5844,
      "Ġgather": 5845,
      "Ġghost": 5846,
      "Ġgentle": 5847,
      "otropic": 5848,
      "odd": 5849,
      "ĠOri": 5850,
      "ĠOffic": 5851,
      "irg": 5852,
      "irmed": 5853,
      "irms": 5854,
      "ĠUI": 5855,
      "osity": 5856,
      "Ġnear": 5857,
      "Ġnext": 5858,
      "estation": 5859,
      "esters": 5860,
      "esthe": 5861,
      "ĠWa": 5862,
      "ĠWay": 5863,
      "ĠWire": 5864,
      "ĠWood": 5865,
      "ĠWrit": 5866,
      "ĠWhere": 5867,
      "ifts": 5868,
      "ifted": 5869,
      "qual": 5870,
      "ĠGar": 5871,
      "ĠGit": 5872,
      "ĠGam": 5873,
      "ĠGram": 5874,
      "ĠGhost": 5875,
      "plus": 5876,
      "placed": 5877,
      "Ġconcept": 5878,
      "Ġconcent": 5879,
      "ĠRear": 5880,
      "ĠReact": 5881,
      "owel": 5882,
      "ĠNear": 5883,
      "ĠNext": 5884,
      "Ġrum": 5885,
      "Ġrust": 5886,
      "Ġraster": 5887,
      "Ġstro": 5888,
      "Ġstation": 5889,
      "Ġstop": 5890,
      "Ġstub": 5891,
      "Ġstair": 5892,
      "Ġstory": 5893,
      "Ġstatis": 5894,
      "Ġstaff": 5895,
      "Ġlic": 5896,
      "Ġlink": 5897,
      "Ġlife": 5898,
      "endered": 5899,
      "rances": 5900,
      "ĠConvers": 5901,
      "ĠConcept": 5902,
      "ĠConcent": 5903,
      "ocity": 5904,
      "ayment": 5905,
      "ousness": 5906,
      "assy": 5907,
      "assisted": 5908,
      "iper": 5909,
      "ensity": 5910,
      "Ġvill": 5911,
      "Ġvouch": 5912,
      "ĠStack": 5913,
      "ĠStair": 5914,
      "ĠStory": 5915,
      "ĠStatis": 5916,
      "aks": 5917,
      "thog": 5918,
      "think": 5919,
      "Ġexceed": 5920,
      "Ġextermin": 5921,
      "ĠVG": 5922,
      "udget": 5923,
      "alizable": 5924,
      "lingual": 5925,
      "Ġproph": 5926,
      "Ġproper": 5927,
      "Ġproof": 5928,
      "Ġpropag": 5929,
      "Ġproportion": 5930,
      "ibilities": 5931,
      "ountain": 5932,
      "eft": 5933,
      "existence": 5934,
      "inee": 5935,
      "Ġdismiss": 5936,
      "Ġdiscontinu": 5937,
      "Ġspoil": 5938,
      "Ġspeech": 5939,
      "ĠExam": 5940,
      "ĠExceed": 5941,
      "Ġchron": 5942,
      "Ġchees": 5943,
      "herent": 5944,
      "ĠProof": 5945,
      "ĠProject": 5946,
      "ĠPropag": 5947,
      "angling": 5948,
      "eby": 5949,
      "ressible": 5950,
      "raced": 5951,
      "racing": 5952,
      "egative": 5953,
      "ourse": 5954,
      "ishments": 5955,
      "Ġshad": 5956,
      "urely": 5957,
      "ĠSpread": 5958,
      "ĠChron": 5959,
      "astroph": 5960,
      "rames": 5961,
      "const": 5962,
      "convex": 5963,
      "configured": 5964,
      "ĠDiscontinu": 5965,
      "ustod": 5966,
      "lown": 5967,
      "Ġjoy": 5968,
      "Ġjquery": 5969,
      "rical": 5970,
      "ricted": 5971,
      "ricks": 5972,
      "atig": 5973,
      "atial": 5974,
      "atise": 5975,
      "atible": 5976,
      "ĠShad": 5977,
      "ruity": 5978,
      "ruits": 5979,
      "indle": 5980,
      "ortex": 5981,
      "ervation": 5982,
      "ologic": 5983,
      "Ġpref": 5984,
      "Ġprep": 5985,
      "Ġprev": 5986,
      "Ġprepar": 5987,
      "Ġpreced": 5988,
      "Ġprecip": 5989,
      "Ġaction": 5990,
      "Ġaccept": 5991,
      "Ġadvers": 5992,
      "Ġadvent": 5993,
      "Ġadvis": 5994,
      "Ġadapt": 5995,
      "Ġadvertis": 5996,
      "arters": 5997,
      "artment": 5998,
      "artments": 5999,
      "Ġresh": 6000,
      "Ġresur": 6001,
      "Ġresource": 6002,
      "entials": 6003,
      "Ġthrow": 6004,
      "Ġthank": 6005,
      "Ġthunder": 6006,
      "scious": 6007,
      "science": 6008,
      "ightful": 6009,
      "rowth": 6010,
      "Ġcompan": 6011,
      "Ġcomplex": 6012,
      "Ġcompreh": 6013,
      "Ġoverc": 6014,
      "Ġoverestim": 6015,
      "Ġknow": 6016,
      "Ġknowledge": 6017,
      "Ġreck": 6018,
      "Ġrecol": 6019,
      "Ġcost": 6020,
      "Ġcooper": 6021,
      "ĠAdvers": 6022,
      "ĠAdvent": 6023,
      "ĠAdvis": 6024,
      "ĠAdapt": 6025,
      "ĠAdminist": 6026,
      "ĠImag": 6027,
      "ĠImprov": 6028,
      "ĠImplement": 6029,
      "osting": 6030,
      "ĠRecol": 6031,
      "ĠRecomp": 6032,
      "ĠReciproc": 6033,
      "ĠKe": 6034,
      "ĠKil": 6035,
      "ĠKnow": 6036,
      "ĠCompens": 6037,
      "Ġinternet": 6038,
      "Ġinteroper": 6039,
      "Ġinterpre": 6040,
      "Ġinterpret": 6041,
      "Ġroc": 6042,
      "Ġrol": 6043,
      "Ġroad": 6044,
      "Ġrobo": 6045,
      "unders": 6046,
      "underst": 6047,
      "ĠTheor": 6048,
      "Ġlect": 6049,
      "Ġlevel": 6050,
      "Ġlexic": 6051,
      "ĠResh": 6052,
      "Ġcontin": 6053,
      "ĠPreced": 6054,
      "atters": 6055,
      "ĠInterpre": 6056,
      "ĠInterpret": 6057,
      "ĠInterpol": 6058,
      "lector": 6059,
      "Ġdecl": 6060,
      "Ġclar": 6061,
      "ĠAccept": 6062,
      "aware": 6063,
      "eneration": 6064,
      "enerate": 6065,
      "itely": 6066,
      "ĠCook": 6067,
      "ĠCooper": 6068,
      "Ġparent": 6069,
      "eatb": 6070,
      "uffy": 6071,
      "ufficient": 6072,
      "Ġallev": 6073,
      "Ġalgorithm": 6074,
      "Ġflav": 6075,
      "Ġfluct": 6076,
      "ĠContin": 6077,
      "ĠContent": 6078,
      "ĠContainer": 6079,
      "Ġperme": 6080,
      "Ġindis": 6081,
      "Ġindul": 6082,
      "Ġindemn": 6083,
      "aires": 6084,
      "airing": 6085,
      "Ġtransfer": 6086,
      "ongo": 6087,
      "overable": 6088,
      "bery": 6089,
      "ĠDecre": 6090,
      "ĠDecentr": 6091,
      "ĠClient": 6092,
      "ĠParent": 6093,
      "ĠPartic": 6094,
      "Ġoutd": 6095,
      "Ġimport": 6096,
      "Ġimperson": 6097,
      "ships": 6098,
      "sharing": 6099,
      "Ġupd": 6100,
      "Ġupper": 6101,
      "ĠOvert": 6102,
      "ĠOverestim": 6103,
      "ractors": 6104,
      "Ġwho": 6105,
      "Ġwhis": 6106,
      "after": 6107,
      "titudes": 6108,
      "ĠTransfer": 6109,
      "ĠInters": 6110,
      "plicable": 6111,
      "plicates": 6112,
      "ridges": 6113,
      "ĠQuick": 6114,
      "Ġapolog": 6115,
      "Ġapplication": 6116,
      "Ġassimil": 6117,
      "valent": 6118,
      "onded": 6119,
      "Ġinstig": 6120,
      "neys": 6121,
      "reaking": 6122,
      "Ġrefresh": 6123,
      "strument": 6124,
      "ĠOblig": 6125,
      "Ġconsider": 6126,
      "easible": 6127,
      "Ġdeform": 6128,
      "Ġexponenti": 6129,
      "ikes": 6130,
      "orned": 6131,
      "ummy": 6132,
      "plemented": 6133,
      "loader": 6134,
      "Ġaccord": 6135,
      "Ġaccompl": 6136,
      "Ġblu": 6137,
      "Ġphilosoph": 6138,
      "Ġunderst": 6139,
      "Ġunderstand": 6140,
      "Ġdemol": 6141,
      "cepted": 6142,
      "cepting": 6143,
      "ceptible": 6144,
      "ooked": 6145,
      "tened": 6146,
      "ĠSwitch": 6147,
      "ĠWhis": 6148,
      "ĠConsider": 6149,
      "apsed": 6150,
      "erned": 6151,
      "ernet": 6152,
      "Ġsmall": 6153,
      "Ġmoder": 6154,
      "Ġdisturb": 6155,
      "Ġattend": 6156,
      "ĠModer": 6157,
      "Ġyou": 6158,
      "Ġaggress": 6159,
      "ĠIndividu": 6160,
      "ehuman": 6161,
      "ĠPhilosoph": 6162,
      "media": 6163,
      "rupting": 6164,
      "anners": 6165,
      "eque": 6166,
      "ĠApplication": 6167,
      "embers": 6168,
      "iochem": 6169,
      "argeted": 6170,
      "ĠCommon": 6171,
      "ellings": 6172,
      "ĠDisturb": 6173,
      "losing": 6174,
      "oots": 6175,
      "atism": 6176,
      "atises": 6177,
      "attery": 6178,
      "network": 6179,
      "ĠMisc": 6180,
      "Ġelabor": 6181,
      "retch": 6182,
      "Ġcorpor": 6183,
      "ĠColor": 6184,
      "Ġtravers": 6185,
      "modal": 6186,
      "modality": 6187,
      "Ġdiagon": 6188,
      "Ġdelim": 6189,
      "Ġextrapol": 6190,
      "ĠDiagon": 6191,
      "ĠDiplom": 6192,
      "Ġmanufact": 6193,
      "ĠManif": 6194,
      "ĠManufact": 6195,
      "ĠUpd": 6196,
      "Ġglor": 6197,
      "structive": 6198,
      "rateg": 6199,
      "pective": 6200,
      "runk": 6201,
      "Ġerup": 6202,
      "ĠCorrespond": 6203,
      "urrently": 6204,
      "urrences": 6205,
      "missible": 6206,
      "Ġinvari": 6207,
      "oids": 6208,
      "asket": 6209,
      "Ġdowns": 6210,
      "Ġincub": 6211,
      "Ġdiscuss": 6212,
      "controlled": 6213,
      "ielding": 6214,
      "ieve": 6215,
      "innings": 6216,
      "clusions": 6217,
      "aunting": 6218,
      "iority": 6219,
      "olec": 6220,
      "Ġgeo": 6221,
      "estimon": 6222,
      "Ġguarant": 6223,
      "Ġembarrass": 6224,
      "ĠTravers": 6225,
      "amples": 6226,
      "ycling": 6227,
      "ĠEndeav": 6228,
      "ĠDiscuss": 6229,
      "byte": 6230,
      "ĠRoad": 6231,
      "ĠRobo": 6232,
      "ĠDeliver": 6233,
      "Ġinstanti": 6234,
      "aughter": 6235,
      "ĠZoom": 6236,
      "Ġlocal": 6237,
      "ĠSimil": 6238,
      "rafts": 6239,
      "aturated": 6240,
      "aneously": 6241,
      "rability": 6242,
      "Ġannoun": 6243,
      "flows": 6244,
      "marked": 6245,
      "Ġpredict": 6246,
      "ulsive": 6247,
      "Ġworth": 6248,
      "ĠInvari": 6249,
      "classified": 6250,
      "respons": 6251,
      "Ġsubstit": 6252,
      "ĠAnnot": 6253,
      "ĠAnnoun": 6254,
      "Ġappropri": 6255,
      "rench": 6256,
      "rentices": 6257,
      "vocation": 6258,
      "onomic": 6259,
      "Ġoverst": 6260,
      "communic": 6261,
      "frames": 6262,
      "pathy": 6263,
      "allows": 6264,
      "Ġpolar": 6265,
      "ĠRadic": 6266,
      "ĠElectro": 6267,
      "Ġdestruct": 6268,
      "idental": 6269,
      "identally": 6270,
      "guided": 6271,
      "ĠPredict": 6272,
      "ositional": 6273,
      "Ġrenov": 6274,
      "cribing": 6275,
      "aults": 6276,
      "balanced": 6277,
      "ĠIrrit": 6278,
      "ĠIsol": 6279,
      "ĠConcaten": 6280,
      "End": 6281,
      "Ġpeev": 6282,
      "ĠTriang": 6283,
      "variate": 6284,
      "Ġaudio": 6285,
      "rison": 6286,
      "asticity": 6287,
      "Ġnetwork": 6288,
      "ĠSubstit": 6289,
      "breaking": 6290,
      "mitt": 6291,
      "Ġcatalog": 6292,
      "ĠMemory": 6293,
      "Ġhelp": 6294,
      "ĠNeutr": 6295,
      "threaded": 6296,
      "threading": 6297,
      "hedral": 6298,
      "ĠAudio": 6299,
      "label": 6300,
      "labeled": 6301,
      "cription": 6302,
      "criptions": 6303,
      "piec": 6304,
      "ĠNetwork": 6305,
      "door": 6306,
      "Ġodd": 6307,
      "itecture": 6308,
      "Ġdemonst": 6309,
      "Ġdemonstr": 6310,
      "keeper": 6311,
      "initely": 6312,
      "ĠDeriv": 6313,
      "Ġreverber": 6314,
      "ĠEscal": 6315,
      "assembly": 6316,
      "phrase": 6317,
      "200": 6318,
      "Only": 6319,
      "robor": 6320,
      "Ġversion": 6321,
      "propagation": 6322,
      "liament": 6323,
      "aspberry": 6324,
      "Ġjavascript": 6325,
      "effect": 6326,
      "electric": 6327,
      "Ġestabl": 6328,
      "ĠExhaus": 6329,
      "Ġlemm": 6330,
      "ĠDemonstr": 6331,
      "Art": 6332,
      "ĠEstabl": 6333,
      "brev": 6334,
      "repreneur": 6335,
      "Image": 6336,
      "Query": 6337,
      "Resolution": 6338,
      "ĠOscill": 6339,
      "86": 6340,
      "AI": 6341,
      "App": 6342,
      "CU": 6343,
      "Core": 6344,
      "DD": 6345,
      "Defined": 6346,
      "EM": 6347,
      "ET": 6348,
      "Form": 6349,
      "Function": 6350,
      "First": 6351,
      "Frame": 6352,
      "Gen": 6353,
      "IP": 6354,
      "LS": 6355,
      "OM": 6356,
      "Ob": 6357,
      "Over": 6358,
      "Pl": 6359,
      "Pass": 6360,
      "SE": 6361,
      "SL": 6362,
      "Source": 6363,
      "Tree": 6364,
      "band": 6365,
      "beat": 6366,
      "build": 6367,
      "cy": 6368,
      "cycle": 6369,
      "dy": 6370,
      "dro": 6371,
      "dec": 6372,
      "dem": 6373,
      "dings": 6374,
      "drop": 6375,
      "depend": 6376,
      "drive": 6377,
      "driver": 6378,
      "directed": 6379,
      "distribution": 6380,
      "etit": 6381,
      "eering": 6382,
      "fi": 6383,
      "found": 6384,
      "father": 6385,
      "gl": 6386,
      "gar": 6387,
      "gres": 6388,
      "gpt": 6389,
      "growing": 6390,
      "houses": 6391,
      "ii": 6392,
      "iet": 6393,
      "iances": 6394,
      "iracy": 6395,
      "kills": 6396,
      "lity": 6397,
      "late": 6398,
      "lib": 6399,
      "lived": 6400,
      "length": 6401,
      "mine": 6402,
      "mith": 6403,
      "meas": 6404,
      "meet": 6405,
      "making": 6406,
      "minded": 6407,
      "ners": 6408,
      "nity": 6409,
      "name": 6410,
      "names": 6411,
      "oof": 6412,
      "oons": 6413,
      "oops": 6414,
      "otional": 6415,
      "pc": 6416,
      "pg": 6417,
      "pack": 6418,
      "pool": 6419,
      "person": 6420,
      "print": 6421,
      "rity": 6422,
      "ruc": 6423,
      "rute": 6424,
      "ruding": 6425,
      "sd": 6426,
      "squ": 6427,
      "spl": 6428,
      "system": 6429,
      "sense": 6430,
      "separ": 6431,
      "tru": 6432,
      "trained": 6433,
      "vage": 6434,
      "wen": 6435,
      "wear": 6436,
      "wind": 6437,
      "wering": 6438,
      "wares": 6439,
      "year": 6440,
      "zy": 6441,
      "zone": 6442,
      "Ġ4": 6443,
      "Ġ8": 6444,
      "Ġom": 6445,
      "Ġub": 6446,
      "Ġug": 6447,
      "Ġanc": 6448,
      "Ġrig": 6449,
      "Ġtil": 6450,
      "Ġordin": 6451,
      "Ġ16": 6452,
      "ina": 6453,
      "inj": 6454,
      "iner": 6455,
      "inced": 6456,
      "information": 6457,
      "erries": 6458,
      "onally": 6459,
      "onse": 6460,
      "tily": 6461,
      "tiqu": 6462,
      "entive": 6463,
      "alable": 6464,
      "atement": 6465,
      "orers": 6466,
      "orter": 6467,
      "reet": 6468,
      "rets": 6469,
      "Ġsy": 6470,
      "Ġsat": 6471,
      "Ġsig": 6472,
      "Ġsch": 6473,
      "Ġsour": 6474,
      "Ġsenti": 6475,
      "Ġsail": 6476,
      "Ġsund": 6477,
      "Ġside": 6478,
      "Ġsob": 6479,
      "Ġsole": 6480,
      "Ġservice": 6481,
      "Ġsocial": 6482,
      "Ġselec": 6483,
      "Ġsugges": 6484,
      "aned": 6485,
      "anagement": 6486,
      "analysis": 6487,
      "arrel": 6488,
      "Ġcul": 6489,
      "Ġcup": 6490,
      "Ġcub": 6491,
      "Ġcow": 6492,
      "Ġcard": 6493,
      "Ġcell": 6494,
      "Ġcram": 6495,
      "Ġcater": 6496,
      "Ġcorn": 6497,
      "Ġcurs": 6498,
      "Ġcpu": 6499,
      "Ġcultiv": 6500,
      "ĠSV": 6501,
      "ĠSu": 6502,
      "ĠSat": 6503,
      "ĠSun": 6504,
      "ĠSch": 6505,
      "ĠSour": 6506,
      "ĠSail": 6507,
      "ĠSound": 6508,
      "ĠSof": 6509,
      "ĠSaf": 6510,
      "ĠSquir": 6511,
      "ĠSett": 6512,
      "ĠSocial": 6513,
      "ĠSelec": 6514,
      "leased": 6515,
      "iteness": 6516,
      "itudes": 6517,
      "ĠCM": 6518,
      "ĠCup": 6519,
      "ĠCub": 6520,
      "ĠCoc": 6521,
      "ĠCens": 6522,
      "ĠCard": 6523,
      "ĠCru": 6524,
      "ĠCurs": 6525,
      "ĠCrack": 6526,
      "ĠCivil": 6527,
      "ĠCeleb": 6528,
      "icating": 6529,
      "icond": 6530,
      "rote": 6531,
      "Ġpad": 6532,
      "Ġpup": 6533,
      "Ġpiv": 6534,
      "Ġpled": 6535,
      "Ġpill": 6536,
      "Ġpull": 6537,
      "Ġporn": 6538,
      "Ġpush": 6539,
      "Ġpitch": 6540,
      "Ġpatri": 6541,
      "Ġpixel": 6542,
      "Ġpattern": 6543,
      "Ġpessim": 6544,
      "Ġda": 6545,
      "Ġdd": 6546,
      "Ġdod": 6547,
      "Ġdign": 6548,
      "Ġduplic": 6549,
      "Ġdocker": 6550,
      "raid": 6551,
      "raising": 6552,
      "unting": 6553,
      "ĠPad": 6554,
      "ĠPup": 6555,
      "ĠPiv": 6556,
      "ĠPage": 6557,
      "ĠPric": 6558,
      "ĠPatri": 6559,
      "ĠPunct": 6560,
      "ĠPenet": 6561,
      "ĠPython": 6562,
      "ĠPronoun": 6563,
      "ĠPattern": 6564,
      "entric": 6565,
      "ecode": 6566,
      "elity": 6567,
      "oman": 6568,
      "omeness": 6569,
      "ĠRol": 6570,
      "ĠRum": 6571,
      "ĠRip": 6572,
      "ĠRight": 6573,
      "ĠRoot": 6574,
      "ĠRaster": 6575,
      "ĠRNN": 6576,
      "ĠDB": 6577,
      "ĠDot": 6578,
      "ĠDual": 6579,
      "ĠDynam": 6580,
      "ĠDuplic": 6581,
      "ĠDomestic": 6582,
      "Ġming": 6583,
      "Ġmen": 6584,
      "Ġmad": 6585,
      "Ġmot": 6586,
      "Ġmir": 6587,
      "Ġmeg": 6588,
      "Ġmort": 6589,
      "Ġmone": 6590,
      "Ġmuff": 6591,
      "Ġmism": 6592,
      "Ġmock": 6593,
      "Ġmov": 6594,
      "Ġmyth": 6595,
      "Ġmerc": 6596,
      "Ġmuch": 6597,
      "Ġmorph": 6598,
      "Ġmvc": 6599,
      "Ġmasturb": 6600,
      "abling": 6601,
      "abys": 6602,
      "users": 6603,
      "Ġtend": 6604,
      "Ġtog": 6605,
      "Ġtex": 6606,
      "Ġtour": 6607,
      "Ġtram": 6608,
      "Ġtort": 6609,
      "Ġtalk": 6610,
      "Ġtender": 6611,
      "Ġtreat": 6612,
      "Ġtrack": 6613,
      "Ġtemp": 6614,
      "Ġtruth": 6615,
      "Ġtrunc": 6616,
      "urate": 6617,
      "uries": 6618,
      "ĠML": 6619,
      "ĠMur": 6620,
      "ĠMir": 6621,
      "ĠMind": 6622,
      "ĠMort": 6623,
      "ĠMax": 6624,
      "ĠMism": 6625,
      "ĠMov": 6626,
      "ĠMyth": 6627,
      "ĠMerc": 6628,
      "ĠMorph": 6629,
      "olo": 6630,
      "Ġreun": 6631,
      "Ġreign": 6632,
      "Ġreloc": 6633,
      "Ġreto": 6634,
      "Ġrevis": 6635,
      "Ġreactiv": 6636,
      "Ġreason": 6637,
      "Ġreexam": 6638,
      "Ġreincarn": 6639,
      "Ġfer": 6640,
      "Ġfat": 6641,
      "Ġfle": 6642,
      "Ġfur": 6643,
      "Ġfid": 6644,
      "Ġfour": 6645,
      "Ġfanc": 6646,
      "Ġfond": 6647,
      "Ġfriend": 6648,
      "Ġfixed": 6649,
      "Ġfemin": 6650,
      "Ġfinger": 6651,
      "ĠTur": 6652,
      "ĠTot": 6653,
      "ĠTex": 6654,
      "ĠTrib": 6655,
      "ĠTurn": 6656,
      "ĠTreat": 6657,
      "ĠTraining": 6658,
      "ĠTreas": 6659,
      "ĠTruth": 6660,
      "ĠIron": 6661,
      "utational": 6662,
      "Ġbon": 6663,
      "Ġbis": 6664,
      "Ġbec": 6665,
      "Ġbran": 6666,
      "Ġball": 6667,
      "Ġbund": 6668,
      "Ġbull": 6669,
      "Ġbuck": 6670,
      "Ġblog": 6671,
      "Ġbank": 6672,
      "Ġbrows": 6673,
      "Ġbuilt": 6674,
      "Ġbench": 6675,
      "Ġborrow": 6676,
      "riage": 6677,
      "riends": 6678,
      "ĠElic": 6679,
      "ĠEarn": 6680,
      "ĠEarly": 6681,
      "ĠEasy": 6682,
      "Ġinvent": 6683,
      "Ġinspec": 6684,
      "Ġincrimin": 6685,
      "Ġinstruction": 6686,
      "Ġintoxic": 6687,
      "lout": 6688,
      "lots": 6689,
      "look": 6690,
      "ĠFat": 6691,
      "ĠFro": 6692,
      "ĠFur": 6693,
      "ĠFore": 6694,
      "ĠFriend": 6695,
      "ĠFasc": 6696,
      "ĠFemin": 6697,
      "ĠFault": 6698,
      "ĠFulf": 6699,
      "ĠFinger": 6700,
      "ĠFabric": 6701,
      "ĠBin": 6702,
      "ĠBan": 6703,
      "ĠBec": 6704,
      "ĠBand": 6705,
      "ĠBoun": 6706,
      "ĠBall": 6707,
      "ĠBill": 6708,
      "ĠBund": 6709,
      "ĠBeh": 6710,
      "ĠBench": 6711,
      "ĠBorrow": 6712,
      "ĠBrief": 6713,
      "adv": 6714,
      "idar": 6715,
      "idating": 6716,
      "idently": 6717,
      "amas": 6718,
      "amous": 6719,
      "ammed": 6720,
      "amorph": 6721,
      "Ġhal": 6722,
      "Ġhag": 6723,
      "Ġhang": 6724,
      "Ġheter": 6725,
      "Ġhierarch": 6726,
      "Ġhtml": 6727,
      "Ġwas": 6728,
      "Ġwig": 6729,
      "Ġwaf": 6730,
      "Ġwave": 6731,
      "Ġwrink": 6732,
      "Ġwrite": 6733,
      "ĠIng": 6734,
      "ĠInver": 6735,
      "ĠInvent": 6736,
      "ĠInput": 6737,
      "ĠIncons": 6738,
      "ĠInformation": 6739,
      "ceived": 6740,
      "impl": 6741,
      "Ġunpl": 6742,
      "Ġunatt": 6743,
      "Ġunequ": 6744,
      "Ġunreg": 6745,
      "Ġuninter": 6746,
      "Ġuniform": 6747,
      "ĠHal": 6748,
      "ĠHop": 6749,
      "ĠHip": 6750,
      "ĠHaz": 6751,
      "ĠHere": 6752,
      "ĠHierarch": 6753,
      "ticed": 6754,
      "ticing": 6755,
      "Ġeas": 6756,
      "Ġeven": 6757,
      "Ġeffic": 6758,
      "Ġeasy": 6759,
      "ĠLa": 6760,
      "ĠLi": 6761,
      "ĠLl": 6762,
      "ĠLic": 6763,
      "ĠLet": 6764,
      "ĠLess": 6765,
      "ĠLect": 6766,
      "ĠLeak": 6767,
      "ĠLever": 6768,
      "ĠLaun": 6769,
      "ĠLingu": 6770,
      "Ġgle": 6771,
      "Ġgard": 6772,
      "Ġgram": 6773,
      "Ġgrap": 6774,
      "Ġgene": 6775,
      "Ġgamb": 6776,
      "Ġgloss": 6777,
      "Ġgovern": 6778,
      "otechn": 6779,
      "odb": 6780,
      "odies": 6781,
      "odiment": 6782,
      "upon": 6783,
      "ĠOc": 6784,
      "irus": 6785,
      "irling": 6786,
      "irty": 6787,
      "ĠUse": 6788,
      "Ġnom": 6789,
      "Ġnov": 6790,
      "estor": 6791,
      "esture": 6792,
      "establ": 6793,
      "estyle": 6794,
      "ĠWatch": 6795,
      "ĠWave": 6796,
      "ifting": 6797,
      "ifiable": 6798,
      "quire": 6799,
      "quality": 6800,
      "ubers": 6801,
      "ubernet": 6802,
      "ĠGr": 6803,
      "ĠGard": 6804,
      "ĠGene": 6805,
      "ĠGrav": 6806,
      "ĠGather": 6807,
      "ĠGloss": 6808,
      "ĠGentle": 6809,
      "ĠGovern": 6810,
      "plane": 6811,
      "placing": 6812,
      "pliance": 6813,
      "placement": 6814,
      "Ġconfer": 6815,
      "Ġconduct": 6816,
      "Ġconsequ": 6817,
      "ĠReim": 6818,
      "ĠRevers": 6819,
      "ĠRevis": 6820,
      "ĠReason": 6821,
      "owered": 6822,
      "owels": 6823,
      "istoc": 6824,
      "ĠNom": 6825,
      "ĠNever": 6826,
      "Ġov": 6827,
      "Ġrans": 6828,
      "Ġstem": 6829,
      "Ġstup": 6830,
      "Ġstack": 6831,
      "Ġstead": 6832,
      "Ġstrong": 6833,
      "Ġline": 6834,
      "Ġlater": 6835,
      "Ġlaz": 6836,
      "Ġlength": 6837,
      "Ġlingu": 6838,
      "Ġlubric": 6839,
      "Ġlinux": 6840,
      "endo": 6841,
      "rane": 6842,
      "ranged": 6843,
      "ranging": 6844,
      "ĠConven": 6845,
      "ĠConsp": 6846,
      "ĠConduct": 6847,
      "ĠConsequ": 6848,
      "ocusing": 6849,
      "ĠUnn": 6850,
      "ĠUniform": 6851,
      "atings": 6852,
      "assion": 6853,
      "iped": 6854,
      "ensible": 6855,
      "ensively": 6856,
      "aints": 6857,
      "ainability": 6858,
      "Ġvb": 6859,
      "Ġvent": 6860,
      "Ġvet": 6861,
      "Ġventi": 6862,
      "Ġveter": 6863,
      "Ġvgg": 6864,
      "ighth": 6865,
      "ĠStop": 6866,
      "ĠStaff": 6867,
      "thers": 6868,
      "ucked": 6869,
      "Ġexhib": 6870,
      "Ġexagger": 6871,
      "ĠVic": 6872,
      "ĠVeter": 6873,
      "udged": 6874,
      "udges": 6875,
      "Ġprow": 6876,
      "Ġproceed": 6877,
      "Ġprogn": 6878,
      "Ġprolong": 6879,
      "oung": 6880,
      "efs": 6881,
      "ugger": 6882,
      "Ġdispar": 6883,
      "Ġdiscont": 6884,
      "Ġdispers": 6885,
      "Ġspons": 6886,
      "Ġspring": 6887,
      "ĠExempl": 6888,
      "ĠExhib": 6889,
      "eworks": 6890,
      "Ġchip": 6891,
      "Ġchrom": 6892,
      "Ġcheap": 6893,
      "Ġchallen": 6894,
      "ĠProc": 6895,
      "ĠProduct": 6896,
      "ĠProtest": 6897,
      "ĠProsec": 6898,
      "ĠProportion": 6899,
      "ĠProlong": 6900,
      "earable": 6901,
      "earched": 6902,
      "anges": 6903,
      "ishable": 6904,
      "ishness": 6905,
      "Ġshe": 6906,
      "Ġshut": 6907,
      "Ġshare": 6908,
      "Ġshred": 6909,
      "ectful": 6910,
      "urement": 6911,
      "ĠSpot": 6912,
      "ĠSpons": 6913,
      "ĠSpoil": 6914,
      "ĠChrom": 6915,
      "ĠChallen": 6916,
      "astly": 6917,
      "ĠEnvel": 6918,
      "ĠMultiplex": 6919,
      "ĠDisg": 6920,
      "ĠDisj": 6921,
      "ĠDispers": 6922,
      "lowed": 6923,
      "formative": 6924,
      "Ġjun": 6925,
      "Ġjew": 6926,
      "Ġjob": 6927,
      "ricts": 6928,
      "atizing": 6929,
      "atizes": 6930,
      "Ġimpl": 6931,
      "Ġimmers": 6932,
      "achability": 6933,
      "Ġsubscrib": 6934,
      "ĠShe": 6935,
      "Ġsci": 6936,
      "Ġscoff": 6937,
      "Ġscroll": 6938,
      "Ġscreens": 6939,
      "ronics": 6940,
      "Ġacadem": 6941,
      "Ġacclim": 6942,
      "Ġadher": 6943,
      "Ġadvoc": 6944,
      "entist": 6945,
      "ĠAnc": 6946,
      "ĠAng": 6947,
      "ĠAnticip": 6948,
      "Ġthey": 6949,
      "Ġthreat": 6950,
      "Ġthrough": 6951,
      "sciously": 6952,
      "rowns": 6953,
      "rowned": 6954,
      "oining": 6955,
      "Ġcomplement": 6956,
      "Ġcomprehens": 6957,
      "owns": 6958,
      "Ġanch": 6959,
      "Ġanticip": 6960,
      "Ġoverwhel": 6961,
      "Ġkidn": 6962,
      "Ġrecre": 6963,
      "Ġrecurs": 6964,
      "Ġrecirc": 6965,
      "Ġrecalib": 6966,
      "Ġrecalc": 6967,
      "Ġcoars": 6968,
      "Ġcoordin": 6969,
      "minent": 6970,
      "ĠAdop": 6971,
      "ĠAdvoc": 6972,
      "ĠAdvertis": 6973,
      "arely": 6974,
      "positive": 6975,
      "Ġmultiplex": 6976,
      "osts": 6977,
      "osted": 6978,
      "ĠKind": 6979,
      "ĠComplex": 6980,
      "ĠComplement": 6981,
      "Ġinterven": 6982,
      "ĠJew": 6983,
      "Ġrough": 6984,
      "ĠScale": 6985,
      "ĠScrew": 6986,
      "ĠScreens": 6987,
      "unding": 6988,
      "understand": 6989,
      "redict": 6990,
      "ĠThree": 6991,
      "ĠThick": 6992,
      "ĠThey": 6993,
      "ĠThread": 6994,
      "ĠThought": 6995,
      "Ġartic": 6996,
      "ĠReson": 6997,
      "ynthes": 6998,
      "Ġcontempl": 6999,
      "Ġenv": 7000,
      "Ġenric": 7001,
      "Ġenvel": 7002,
      "Ġenerg": 7003,
      "Ġenjoy": 7004,
      "blems": 7005,
      "ĠPref": 7006,
      "ĠPrep": 7007,
      "ĠPrev": 7008,
      "ĠPrepar": 7009,
      "oretic": 7010,
      "oretically": 7011,
      "attles": 7012,
      "lectable": 7013,
      "lectors": 7014,
      "Ġdeclar": 7015,
      "ught": 7016,
      "Ġclient": 7017,
      "ĠAcadem": 7018,
      "awed": 7019,
      "awning": 7020,
      "ĠCoordin": 7021,
      "issions": 7022,
      "Ġalphab": 7023,
      "answer": 7024,
      "Ġflash": 7025,
      "eeze": 7026,
      "eezing": 7027,
      "eezes": 7028,
      "ĠArt": 7029,
      "ĠArtic": 7030,
      "Ġplat": 7031,
      "Ġplain": 7032,
      "Ġplatform": 7033,
      "Ġintro": 7034,
      "Ġintrig": 7035,
      "Ġintroduc": 7036,
      "Ġperform": 7037,
      "Ġperfor": 7038,
      "ixels": 7039,
      "Ġloos": 7040,
      "Ġloud": 7041,
      "Ġloath": 7042,
      "Ġoppos": 7043,
      "olls": 7044,
      "ongs": 7045,
      "Ġauth": 7046,
      "Ġobv": 7047,
      "Ġobfusc": 7048,
      "ĠClar": 7049,
      "ĠCluster": 7050,
      "ructural": 7051,
      "ĠAllev": 7052,
      "Ġoutst": 7053,
      "Ġimpe": 7054,
      "Ġrepreh": 7055,
      "sheet": 7056,
      "ĠAuth": 7057,
      "Ġforec": 7058,
      "Ġforeg": 7059,
      "Ġforget": 7060,
      "Ġabol": 7061,
      "Ġaband": 7062,
      "ĠOverwhel": 7063,
      "Ġwhich": 7064,
      "Ġwebs": 7065,
      "ĠIntro": 7066,
      "ĠIntroduc": 7067,
      "linking": 7068,
      "plicating": 7069,
      "ooled": 7070,
      "Ġslur": 7071,
      "volutions": 7072,
      "Ġassess": 7073,
      "computing": 7074,
      "onding": 7075,
      "onders": 7076,
      "Ġsuppress": 7077,
      "ĠFlav": 7078,
      "ĠFlash": 7079,
      "ĠFluct": 7080,
      "ĠPerform": 7081,
      "reaks": 7082,
      "Ġorg": 7083,
      "Ġorder": 7084,
      "Ġdeploy": 7085,
      "Ġdeser": 7086,
      "Ġdesper": 7087,
      "ĠObs": 7088,
      "Ġconsolid": 7089,
      "Ġdefin": 7090,
      "Ġdefer": 7091,
      "Ġdefrag": 7092,
      "Ġregion": 7093,
      "Ġregret": 7094,
      "Ġexpress": 7095,
      "Ġexpect": 7096,
      "Ġexplos": 7097,
      "Ġcommerc": 7098,
      "Ġcommiser": 7099,
      "ushy": 7100,
      "recogn": 7101,
      "Ġaccent": 7102,
      "Ġaccount": 7103,
      "Ġaccommod": 7104,
      "Ġrab": 7105,
      "Ġphon": 7106,
      "Ġphysic": 7107,
      "Ġphenomen": 7108,
      "Ġundo": 7109,
      "ĠSuppress": 7110,
      "ĠFores": 7111,
      "ĠForec": 7112,
      "ĠForget": 7113,
      "Ġdemod": 7114,
      "Ġdemotiv": 7115,
      "ĠAssess": 7116,
      "ceptive": 7117,
      "tening": 7118,
      "Ġappreh": 7119,
      "ĠConsolid": 7120,
      "many": 7121,
      "Ġrelax": 7122,
      "apses": 7123,
      "Ġconfisc": 7124,
      "ĠDefer": 7125,
      "created": 7126,
      "crete": 7127,
      "viewer": 7128,
      "umbs": 7129,
      "Ġreduc": 7130,
      "Ġredistrib": 7131,
      "Ġenth": 7132,
      "Ġagree": 7133,
      "Ġagile": 7134,
      "Ġaggrav": 7135,
      "ĠDeprec": 7136,
      "ĠDeploy": 7137,
      "ĠPhysic": 7138,
      "ĠBlu": 7139,
      "mediate": 7140,
      "rupts": 7141,
      "Ġskill": 7142,
      "Ġsketch": 7143,
      "ĠAmor": 7144,
      "ĠAmaz": 7145,
      "equipped": 7146,
      "Ġcris": 7147,
      "nected": 7148,
      "ĠComment": 7149,
      "embling": 7150,
      "ossy": 7151,
      "osses": 7152,
      "ĠExpect": 7153,
      "ĠExplos": 7154,
      "ĠCommand": 7155,
      "ĠOrd": 7156,
      "ĠOrg": 7157,
      "ĠOrder": 7158,
      "randing": 7159,
      "ĠAccompl": 7160,
      "losures": 7161,
      "ooter": 7162,
      "ĠSketch": 7163,
      "atised": 7164,
      "inker": 7165,
      "attered": 7166,
      "attering": 7167,
      "Ġunderestim": 7168,
      "ucky": 7169,
      "Ġsurf": 7170,
      "Ġsurround": 7171,
      "Ġelimin": 7172,
      "module": 7173,
      "oughts": 7174,
      "Ġencaps": 7175,
      "Ġencirc": 7176,
      "Ġencryp": 7177,
      "ĠSmooth": 7178,
      "Ġdiagram": 7179,
      "Ġextra": 7180,
      "Ġextrem": 7181,
      "ĠDiagram": 7182,
      "Ġspecific": 7183,
      "ĠImport": 7184,
      "ordering": 7185,
      "escent": 7186,
      "Ġcapac": 7187,
      "Ġglad": 7188,
      "comfort": 7189,
      "echnical": 7190,
      "Ġeras": 7191,
      "Ġerror": 7192,
      "Ġirres": 7193,
      "Ġirrig": 7194,
      "Ġdevast": 7195,
      "Ġunsub": 7196,
      "letes": 7197,
      "ĠCorpor": 7198,
      "ĠApprec": 7199,
      "rift": 7200,
      "ĠExtrem": 7201,
      "ĠExtrapol": 7202,
      "Ġincorpor": 7203,
      "Ġequival": 7204,
      "Ġdiscover": 7205,
      "ĠAttend": 7206,
      "ielded": 7207,
      "worked": 7208,
      "world": 7209,
      "worthy": 7210,
      "heets": 7211,
      "Ġzoom": 7212,
      "ĠElabor": 7213,
      "ĠElimin": 7214,
      "Ġevapor": 7215,
      "played": 7216,
      "clusively": 7217,
      "aunted": 7218,
      "Ġsynt": 7219,
      "Ġsynonym": 7220,
      "ĠUnderst": 7221,
      "ĠUnderstand": 7222,
      "etermined": 7223,
      "ĠCapac": 7224,
      "Ġguid": 7225,
      "Ġguard": 7226,
      "ophistic": 7227,
      "ĠGeo": 7228,
      "Ġembroc": 7229,
      "ieves": 7230,
      "ievable": 7231,
      "Ġendors": 7232,
      "alyzed": 7233,
      "Ġsolid": 7234,
      "Ġsolicit": 7235,
      "ĠLoud": 7236,
      "Ġdatas": 7237,
      "Ġdatast": 7238,
      "quires": 7239,
      "ĠEndors": 7240,
      "ĠDiscover": 7241,
      "Ġcalib": 7242,
      "ĠEquival": 7243,
      "laying": 7244,
      "layered": 7245,
      "Ġsimil": 7246,
      "ĠSimulation": 7247,
      "Ġmarvel": 7248,
      "ĠUnderestim": 7249,
      "efulness": 7250,
      "Step": 7251,
      "affle": 7252,
      "affles": 7253,
      "interface": 7254,
      "ĠCollision": 7255,
      "Ġdeaf": 7256,
      "Ġdeactiv": 7257,
      "ĠIncorpor": 7258,
      "ĠGuid": 7259,
      "ĠGuarant": 7260,
      "Ġvisual": 7261,
      "Ġrecons": 7262,
      "Ġfinet": 7263,
      "Ġcycl": 7264,
      "ĠDowns": 7265,
      "Ġdissip": 7266,
      "Ġastrolog": 7267,
      "alfunction": 7268,
      "changed": 7269,
      "ĠInstanti": 7270,
      "ĠWorth": 7271,
      "Ġlower": 7272,
      "ĠCalib": 7273,
      "olerant": 7274,
      "olerance": 7275,
      "Ġflour": 7276,
      "emption": 7277,
      "Ġuntw": 7278,
      "Ġelectro": 7279,
      "Ġelectric": 7280,
      "Ġprototyp": 7281,
      "requently": 7282,
      "Ġprofession": 7283,
      "community": 7284,
      "Ġtriumph": 7285,
      "ĠElectric": 7286,
      "Ġhomolog": 7287,
      "ĠCycl": 7288,
      "ĠLegitim": 7289,
      "Ġvalue": 7290,
      "connection": 7291,
      "designed": 7292,
      "Ġsecl": 7293,
      "Ġdigit": 7294,
      "Ġreiniti": 7295,
      "Ġreinfor": 7296,
      "cribe": 7297,
      "lasses": 7298,
      "rusting": 7299,
      "Ġillumin": 7300,
      "Ġhardware": 7301,
      "rogate": 7302,
      "amental": 7303,
      "ĠProfession": 7304,
      "claiming": 7305,
      "ĠPolar": 7306,
      "ĠIllumin": 7307,
      "lotted": 7308,
      "ĠPrompt": 7309,
      "variance": 7310,
      "Ġcreep": 7311,
      "untu": 7312,
      "Ġtechnology": 7313,
      "emini": 7314,
      "Ġavoid": 7315,
      "Ġdoubt": 7316,
      "Ġsegment": 7317,
      "Ġsegreg": 7318,
      "Ġcustomer": 7319,
      "steps": 7320,
      "Ġnarrow": 7321,
      "planted": 7322,
      "udden": 7323,
      "ĠCrimin": 7324,
      "Ġacquies": 7325,
      "Ġvex": 7326,
      "Ġveget": 7327,
      "developer": 7328,
      "graded": 7329,
      "grading": 7330,
      "keys": 7331,
      "while": 7332,
      "Ġdivis": 7333,
      "ĠGradient": 7334,
      "Ġimmig": 7335,
      "osterior": 7336,
      "ĠCatalog": 7337,
      "Ġtemper": 7338,
      "Ġindustry": 7339,
      "Ġambigu": 7340,
      "Chain": 7341,
      "keeping": 7342,
      "Ġqa": 7343,
      "Ġbyte": 7344,
      "ĠReinfor": 7345,
      "Ġadjust": 7346,
      "Ġascertain": 7347,
      "oiced": 7348,
      "ĠAvoid": 7349,
      "Ġtherap": 7350,
      "Ġconjug": 7351,
      "assembled": 7352,
      "201": 7353,
      "ĠTherap": 7354,
      "Ġinconven": 7355,
      "Ġstartup": 7356,
      "ttp": 7357,
      "Ġdeleg": 7358,
      "Ġfamiliar": 7359,
      "ĠBehavior": 7360,
      "ĠHarmon": 7361,
      "Ġstrength": 7362,
      "ĠEnterprise": 7363,
      "supported": 7364,
      "weighting": 7365,
      "Ġstip": 7366,
      "Ġdegrad": 7367,
      "ĠDegrad": 7368,
      "ĠDeleg": 7369,
      "Ġmeaning": 7370,
      "ĠFalse": 7371,
      "Ġkeyp": 7372,
      "iece": 7373,
      "ĠMeaning": 7374,
      "ĠTemplate": 7375,
      "ĠStrength": 7376,
      "ashioned": 7377,
      "ĠRetrieval": 7378,
      "hythm": 7379,
      "Ġutf": 7380,
      "Ġclever": 7381,
      "roken": 7382,
      "ĠPCI": 7383,
      "optimized": 7384,
      "Ġdisagree": 7385,
      "Layer": 7386,
      "ĠPseudo": 7387,
      "ĠLexic": 7388,
      "ĠVeget": 7389,
      "programming": 7390,
      "Ġparasiti": 7391,
      "integrated": 7392,
      "ĠMobileNet": 7393,
      "adigm": 7394,
      "simon": 7395,
      "Ġilleg": 7396,
      "ĠOrient": 7397,
      "ĠVGG": 7398,
      "iconduct": 7399,
      "ubernetes": 7400,
      "AS": 7401,
      "Ass": 7402,
      "All": 7403,
      "Auth": 7404,
      "Board": 7405,
      "Comm": 7406,
      "DA": 7407,
      "Dev": 7408,
      "Down": 7409,
      "Dependent": 7410,
      "EO": 7411,
      "Fi": 7412,
      "Friendly": 7413,
      "IM": 7414,
      "Is": 7415,
      "JS": 7416,
      "Kit": 7417,
      "LU": 7418,
      "Language": 7419,
      "ML": 7420,
      "Many": 7421,
      "Memory": 7422,
      "NI": 7423,
      "OC": 7424,
      "Ops": 7425,
      "PG": 7426,
      "Ph": 7427,
      "Per": 7428,
      "Prop": 7429,
      "Range": 7430,
      "RAM": 7431,
      "SB": 7432,
      "SI": 7433,
      "Set": 7434,
      "System": 7435,
      "TP": 7436,
      "Test": 7437,
      "Task": 7438,
      "Torch": 7439,
      "Un": 7440,
      "Ups": 7441,
      "VA": 7442,
      "aS": 7443,
      "ah": 7444,
      "aire": 7445,
      "afer": 7446,
      "aude": 7447,
      "aBy": 7448,
      "ahedron": 7449,
      "aaS": 7450,
      "bon": 7451,
      "bor": 7452,
      "ban": 7453,
      "bot": 7454,
      "brain": 7455,
      "batch": 7456,
      "bits": 7457,
      "brid": 7458,
      "block": 7459,
      "bian": 7460,
      "bird": 7461,
      "buster": 7462,
      "cer": 7463,
      "col": 7464,
      "cot": 7465,
      "cased": 7466,
      "card": 7467,
      "cements": 7468,
      "cloud": 7469,
      "coding": 7470,
      "coded": 7471,
      "cinct": 7472,
      "correct": 7473,
      "craft": 7474,
      "correction": 7475,
      "correlation": 7476,
      "df": 7477,
      "dit": 7478,
      "dog": 7479,
      "eign": 7480,
      "eered": 7481,
      "fac": 7482,
      "fol": 7483,
      "fish": 7484,
      "fast": 7485,
      "fill": 7486,
      "food": 7487,
      "ften": 7488,
      "fox": 7489,
      "files": 7490,
      "friend": 7491,
      "frequency": 7492,
      "hz": 7493,
      "hot": 7494,
      "hist": 7495,
      "hoc": 7496,
      "hou": 7497,
      "heet": 7498,
      "ius": 7499,
      "ieg": 7500,
      "itically": 7501,
      "iology": 7502,
      "ioms": 7503,
      "iums": 7504,
      "iography": 7505,
      "just": 7506,
      "journ": 7507,
      "kin": 7508,
      "kles": 7509,
      "kless": 7510,
      "kins": 7511,
      "killing": 7512,
      "ktop": 7513,
      "len": 7514,
      "lat": 7515,
      "lating": 7516,
      "lates": 7517,
      "lies": 7518,
      "lance": 7519,
      "lands": 7520,
      "lleg": 7521,
      "limin": 7522,
      "lighting": 7523,
      "mat": 7524,
      "mel": 7525,
      "met": 7526,
      "mable": 7527,
      "mates": 7528,
      "more": 7529,
      "max": 7530,
      "mode": 7531,
      "mother": 7532,
      "maker": 7533,
      "mvc": 7534,
      "makers": 7535,
      "mobility": 7536,
      "nes": 7537,
      "night": 7538,
      "negative": 7539,
      "oj": 7540,
      "oed": 7541,
      "oam": 7542,
      "otive": 7543,
      "otions": 7544,
      "oys": 7545,
      "oying": 7546,
      "otism": 7547,
      "pent": 7548,
      "pad": 7549,
      "pable": 7550,
      "pot": 7551,
      "pir": 7552,
      "prac": 7553,
      "peg": 7554,
      "pill": 7555,
      "pto": 7556,
      "pets": 7557,
      "peck": 7558,
      "plying": 7559,
      "paste": 7560,
      "pooling": 7561,
      "prints": 7562,
      "precision": 7563,
      "rine": 7564,
      "rals": 7565,
      "rings": 7566,
      "rators": 7567,
      "rising": 7568,
      "rists": 7569,
      "ratory": 7570,
      "render": 7571,
      "rypt": 7572,
      "rarily": 7573,
      "sers": 7574,
      "sets": 7575,
      "slet": 7576,
      "tf": 7577,
      "tch": 7578,
      "tured": 7579,
      "tale": 7580,
      "turn": 7581,
      "tude": 7582,
      "taking": 7583,
      "torch": 7584,
      "tasking": 7585,
      "trivial": 7586,
      "uis": 7587,
      "uine": 7588,
      "urac": 7589,
      "uance": 7590,
      "uary": 7591,
      "ualize": 7592,
      "uins": 7593,
      "urage": 7594,
      "uracy": 7595,
      "vote": 7596,
      "voted": 7597,
      "votes": 7598,
      "vidia": 7599,
      "win": 7600,
      "wid": 7601,
      "well": 7602,
      "wide": 7603,
      "wered": 7604,
      "weet": 7605,
      "where": 7606,
      "zers": 7607,
      "zip": 7608,
      "zero": 7609,
      "zilla": 7610,
      "Ġ1": 7611,
      "Ġow": 7612,
      "Ġulti": 7613,
      "Ġard": 7614,
      "Ġking": 7615,
      "Ġrow": 7616,
      "Ġeter": 7617,
      "Ġech": 7618,
      "Ġother": 7619,
      "Ġutter": 7620,
      "Ġ32": 7621,
      "Ġ64": 7622,
      "ini": 7623,
      "inv": 7624,
      "ints": 7625,
      "inion": 7626,
      "inted": 7627,
      "inality": 7628,
      "inction": 7629,
      "inement": 7630,
      "inational": 7631,
      "input": 7632,
      "inematic": 7633,
      "erk": 7634,
      "erks": 7635,
      "ertions": 7636,
      "erings": 7637,
      "erning": 7638,
      "erco": 7639,
      "eds": 7640,
      "edited": 7641,
      "edding": 7642,
      "ese": 7643,
      "esn": 7644,
      "esian": 7645,
      "onable": 7646,
      "onight": 7647,
      "onality": 7648,
      "onna": 7649,
      "tib": 7650,
      "tist": 7651,
      "tiles": 7652,
      "tiality": 7653,
      "titious": 7654,
      "tique": 7655,
      "tibility": 7656,
      "inge": 7657,
      "inged": 7658,
      "ena": 7659,
      "enas": 7660,
      "enable": 7661,
      "entim": 7662,
      "enari": 7663,
      "enger": 7664,
      "ename": 7665,
      "enium": 7666,
      "enhanced": 7667,
      "alg": 7668,
      "alous": 7669,
      "alone": 7670,
      "alax": 7671,
      "alware": 7672,
      "alties": 7673,
      "aligned": 7674,
      "aliasing": 7675,
      "ato": 7676,
      "atting": 7677,
      "atoes": 7678,
      "ora": 7679,
      "orb": 7680,
      "oric": 7681,
      "ority": 7682,
      "orim": 7683,
      "orth": 7684,
      "orations": 7685,
      "orant": 7686,
      "ortions": 7687,
      "orage": 7688,
      "orial": 7689,
      "orities": 7690,
      "orough": 7691,
      "orld": 7692,
      "orces": 7693,
      "rely": 7694,
      "reement": 7695,
      "reements": 7696,
      "reme": 7697,
      "relevant": 7698,
      "Ġsd": 7699,
      "Ġsu": 7700,
      "Ġsv": 7701,
      "Ġsigh": 7702,
      "Ġsite": 7703,
      "Ġsix": 7704,
      "Ġsoul": 7705,
      "Ġsatur": 7706,
      "Ġstick": 7707,
      "Ġschedul": 7708,
      "Ġsacrif": 7709,
      "ana": 7710,
      "anh": 7711,
      "anic": 7712,
      "arking": 7713,
      "aried": 7714,
      "arities": 7715,
      "isec": 7716,
      "istive": 7717,
      "isons": 7718,
      "Ġce": 7719,
      "Ġcass": 7720,
      "Ġcream": 7721,
      "Ġcaps": 7722,
      "Ġcurb": 7723,
      "Ġclog": 7724,
      "Ġcertain": 7725,
      "Ġcuss": 7726,
      "Ġcasc": 7727,
      "Ġcudd": 7728,
      "Ġclosed": 7729,
      "ĠSA": 7730,
      "ĠSle": 7731,
      "ĠSenti": 7732,
      "ĠSide": 7733,
      "ĠSite": 7734,
      "ĠSix": 7735,
      "ĠSne": 7736,
      "ĠSlic": 7737,
      "ĠSource": 7738,
      "ĠStick": 7739,
      "ĠSchool": 7740,
      "ĠSchedul": 7741,
      "ĠSugges": 7742,
      "leph": 7743,
      "leasing": 7744,
      "ito": 7745,
      "itam": 7746,
      "itance": 7747,
      "itual": 7748,
      "itters": 7749,
      "ĠCD": 7750,
      "ĠCow": 7751,
      "ĠCher": 7752,
      "ĠCell": 7753,
      "ĠCater": 7754,
      "ĠCorn": 7755,
      "ĠCaps": 7756,
      "ĠCasc": 7757,
      "ĠCNN": 7758,
      "ĠCamer": 7759,
      "ĠCutting": 7760,
      "ĠCoinc": 7761,
      "ĠCultiv": 7762,
      "astically": 7763,
      "astics": 7764,
      "asms": 7765,
      "icy": 7766,
      "icol": 7767,
      "icop": 7768,
      "ictive": 7769,
      "iches": 7770,
      "icians": 7771,
      "icuous": 7772,
      "iciencies": 7773,
      "roec": 7774,
      "rots": 7775,
      "rogram": 7776,
      "Ġpit": 7777,
      "Ġpap": 7778,
      "Ġpod": 7779,
      "Ġpir": 7780,
      "Ġpion": 7781,
      "Ġpep": 7782,
      "Ġpyp": 7783,
      "Ġpiti": 7784,
      "Ġpage": 7785,
      "Ġpast": 7786,
      "Ġpati": 7787,
      "Ġpee": 7788,
      "Ġprag": 7789,
      "Ġprun": 7790,
      "Ġprior": 7791,
      "Ġpaint": 7792,
      "Ġposition": 7793,
      "Ġpuzz": 7794,
      "Ġportion": 7795,
      "Ġprer": 7796,
      "Ġpeculi": 7797,
      "Ġpaleont": 7798,
      "lymp": 7799,
      "Ġdri": 7800,
      "Ġdate": 7801,
      "Ġdup": 7802,
      "Ġdub": 7803,
      "Ġdoc": 7804,
      "Ġdorm": 7805,
      "Ġdust": 7806,
      "Ġdry": 7807,
      "Ġdaw": 7808,
      "Ġdual": 7809,
      "Ġdread": 7810,
      "Ġdimension": 7811,
      "Ġdrink": 7812,
      "Ġdrive": 7813,
      "Ġdimin": 7814,
      "Ġdirec": 7815,
      "Ġdehuman": 7816,
      "Ġdeque": 7817,
      "ratic": 7818,
      "raper": 7819,
      "raised": 7820,
      "raises": 7821,
      "una": 7822,
      "uner": 7823,
      "unts": 7824,
      "unking": 7825,
      "unked": 7826,
      "unches": 7827,
      "ĠPit": 7828,
      "ĠPil": 7829,
      "ĠPap": 7830,
      "ĠPir": 7831,
      "ĠPion": 7832,
      "ĠPep": 7833,
      "ĠPress": 7834,
      "ĠPast": 7835,
      "ĠPill": 7836,
      "ĠPorn": 7837,
      "ĠPrag": 7838,
      "ĠPrun": 7839,
      "ĠPrior": 7840,
      "ĠPuzz": 7841,
      "ĠPixel": 7842,
      "enty": 7843,
      "enters": 7844,
      "entry": 7845,
      "entropy": 7846,
      "uled": 7847,
      "ulable": 7848,
      "ulum": 7849,
      "ulled": 7850,
      "ĠAP": 7851,
      "ĠAth": 7852,
      "ĠAven": 7853,
      "elp": 7854,
      "elanc": 7855,
      "elong": 7856,
      "elesc": 7857,
      "elenium": 7858,
      "omial": 7859,
      "omechan": 7860,
      "omorphic": 7861,
      "ationalized": 7862,
      "ationalizing": 7863,
      "ĠRab": 7864,
      "ĠRow": 7865,
      "ĠRail": 7866,
      "ĠRough": 7867,
      "ĠRender": 7868,
      "ĠRich": 7869,
      "ĠRaspberry": 7870,
      "ĠDa": 7871,
      "ĠDram": 7872,
      "ĠDry": 7873,
      "ĠDamp": 7874,
      "ĠDuck": 7875,
      "ĠDimension": 7876,
      "ĠDimin": 7877,
      "ĠDirec": 7878,
      "acs": 7879,
      "acon": 7880,
      "acec": 7881,
      "acri": 7882,
      "acies": 7883,
      "acency": 7884,
      "Ġmc": 7885,
      "Ġmap": 7886,
      "Ġmos": 7887,
      "Ġmand": 7888,
      "Ġmash": 7889,
      "Ġmatch": 7890,
      "Ġmake": 7891,
      "Ġmild": 7892,
      "Ġmyster": 7893,
      "Ġmargin": 7894,
      "Ġmirac": 7895,
      "abin": 7896,
      "about": 7897,
      "abitable": 7898,
      "abolic": 7899,
      "usk": 7900,
      "usal": 7901,
      "usability": 7902,
      "ersely": 7903,
      "erspace": 7904,
      "illy": 7905,
      "ilty": 7906,
      "iltering": 7907,
      "Ġtf": 7908,
      "Ġtar": 7909,
      "Ġtess": 7910,
      "Ġtable": 7911,
      "Ġtack": 7912,
      "Ġtang": 7913,
      "Ġtail": 7914,
      "Ġtarn": 7915,
      "Ġturb": 7916,
      "Ġtrim": 7917,
      "Ġtox": 7918,
      "Ġteen": 7919,
      "Ġtunn": 7920,
      "Ġtatto": 7921,
      "urd": 7922,
      "uris": 7923,
      "urized": 7924,
      "urse": 7925,
      "urger": 7926,
      "urately": 7927,
      "urprising": 7928,
      "ĠMc": 7929,
      "ĠMe": 7930,
      "ĠMen": 7931,
      "ĠMad": 7932,
      "ĠMap": 7933,
      "ĠMot": 7934,
      "ĠMos": 7935,
      "ĠMand": 7936,
      "ĠMys": 7937,
      "ĠMake": 7938,
      "ĠMyster": 7939,
      "ĠMoment": 7940,
      "ĠMargin": 7941,
      "oli": 7942,
      "olver": 7943,
      "olph": 7944,
      "etal": 7945,
      "etly": 7946,
      "etra": 7947,
      "etection": 7948,
      "etches": 7949,
      "essential": 7950,
      "Ġreve": 7951,
      "Ġreop": 7952,
      "Ġreapp": 7953,
      "Ġrebo": 7954,
      "Ġrevel": 7955,
      "Ġremed": 7956,
      "Ġrelev": 7957,
      "Ġrewrit": 7958,
      "Ġreclass": 7959,
      "Ġreleg": 7960,
      "Ġreposs": 7961,
      "Ġreindex": 7962,
      "Ġreanim": 7963,
      "Ġfal": 7964,
      "Ġfig": 7965,
      "Ġfif": 7966,
      "Ġfran": 7967,
      "Ġfall": 7968,
      "Ġfear": 7969,
      "Ġfles": 7970,
      "Ġfill": 7971,
      "Ġfeat": 7972,
      "Ġface": 7973,
      "Ġfuck": 7974,
      "Ġflog": 7975,
      "Ġfiles": 7976,
      "Ġfilt": 7977,
      "Ġfirm": 7978,
      "Ġfault": 7979,
      "Ġfolk": 7980,
      "Ġfutur": 7981,
      "ĠTro": 7982,
      "ĠTend": 7983,
      "ĠTog": 7984,
      "ĠTang": 7985,
      "ĠTour": 7986,
      "ĠTru": 7987,
      "ĠTort": 7988,
      "ĠTail": 7989,
      "ĠTurb": 7990,
      "ĠTrim": 7991,
      "ĠTox": 7992,
      "ĠTeen": 7993,
      "ĠTrack": 7994,
      "ĠTunn": 7995,
      "ĠTemp": 7996,
      "ĠTrick": 7997,
      "ĠTrunc": 7998,
      "ĠIE": 7999,
      "ĠIce": 8000,
      "ĠIlleg": 8001,
      "uty": 8002,
      "utch": 8003,
      "utations": 8004,
      "utative": 8005,
      "utures": 8006,
      "utably": 8007,
      "Ġber": 8008,
      "Ġbus": 8009,
      "Ġbub": 8010,
      "Ġbog": 8011,
      "Ġbib": 8012,
      "Ġbug": 8013,
      "Ġbyp": 8014,
      "Ġbure": 8015,
      "Ġbill": 8016,
      "Ġblow": 8017,
      "Ġbless": 8018,
      "Ġbath": 8019,
      "Ġbrain": 8020,
      "Ġbound": 8021,
      "Ġbrib": 8022,
      "Ġbaw": 8023,
      "Ġbrag": 8024,
      "Ġbrigh": 8025,
      "Ġbreed": 8026,
      "Ġbleep": 8027,
      "Ġbrush": 8028,
      "Ġbirth": 8029,
      "Ġbattle": 8030,
      "Ġbuy": 8031,
      "rival": 8032,
      "ĠEt": 8033,
      "ĠEven": 8034,
      "ĠEffic": 8035,
      "ĠEco": 8036,
      "ĠEfficient": 8037,
      "izar": 8038,
      "izard": 8039,
      "izont": 8040,
      "Ġinad": 8041,
      "Ġinvol": 8042,
      "Ġinject": 8043,
      "Ġinacc": 8044,
      "Ġinaug": 8045,
      "loqu": 8046,
      "lose": 8047,
      "loying": 8048,
      "lops": 8049,
      "loped": 8050,
      "ĠFA": 8051,
      "ĠFle": 8052,
      "ĠFig": 8053,
      "ĠFid": 8054,
      "ĠFew": 8055,
      "ĠFall": 8056,
      "ĠFour": 8057,
      "ĠFeat": 8058,
      "ĠFiles": 8059,
      "ĠFunn": 8060,
      "ĠFresh": 8061,
      "ĠFantas": 8062,
      "ĠFully": 8063,
      "ĠFuture": 8064,
      "ĠFolk": 8065,
      "ĠFutur": 8066,
      "eme": 8067,
      "emes": 8068,
      "emic": 8069,
      "ĠBon": 8070,
      "ĠBis": 8071,
      "ĠBag": 8072,
      "ĠBub": 8073,
      "ĠBow": 8074,
      "ĠBran": 8075,
      "ĠBib": 8076,
      "ĠByp": 8077,
      "ĠBlow": 8078,
      "ĠBless": 8079,
      "ĠBath": 8080,
      "ĠBrain": 8081,
      "ĠBound": 8082,
      "ĠBuck": 8083,
      "ĠBoy": 8084,
      "ĠBacks": 8085,
      "ĠBreed": 8086,
      "ĠBrush": 8087,
      "ĠBirth": 8088,
      "ado": 8089,
      "adap": 8090,
      "adable": 8091,
      "adder": 8092,
      "igent": 8093,
      "igens": 8094,
      "igare": 8095,
      "vely": 8096,
      "chip": 8097,
      "chair": 8098,
      "chains": 8099,
      "checked": 8100,
      "idering": 8101,
      "idian": 8102,
      "idirectional": 8103,
      "ameness": 8104,
      "stance": 8105,
      "string": 8106,
      "stances": 8107,
      "strap": 8108,
      "standard": 8109,
      "Ġho": 8110,
      "Ġhist": 8111,
      "Ġhass": 8112,
      "Ġhip": 8113,
      "Ġhorm": 8114,
      "Ġhill": 8115,
      "Ġheap": 8116,
      "Ġhouse": 8117,
      "Ġhyster": 8118,
      "Ġhabit": 8119,
      "Ġhij": 8120,
      "Ġwall": 8121,
      "Ġwish": 8122,
      "Ġwash": 8123,
      "Ġwax": 8124,
      "Ġwrig": 8125,
      "Ġwarn": 8126,
      "Ġwould": 8127,
      "Ġwrest": 8128,
      "Ġwait": 8129,
      "Ġwitness": 8130,
      "Ġwander": 8131,
      "Ġwretched": 8132,
      "agraph": 8133,
      "aggers": 8134,
      "ĠIntim": 8135,
      "ĠInject": 8136,
      "ĠInacc": 8137,
      "imm": 8138,
      "imal": 8139,
      "imented": 8140,
      "imming": 8141,
      "immer": 8142,
      "impan": 8143,
      "Ġung": 8144,
      "Ġunle": 8145,
      "Ġunve": 8146,
      "Ġunav": 8147,
      "Ġunres": 8148,
      "Ġunsh": 8149,
      "Ġunfor": 8150,
      "Ġunmod": 8151,
      "Ġunravel": 8152,
      "verb": 8153,
      "verbal": 8154,
      "ĠHist": 8155,
      "ĠHorm": 8156,
      "ĠHeter": 8157,
      "ĠHeat": 8158,
      "ĠHold": 8159,
      "ĠHealth": 8160,
      "ĠHabit": 8161,
      "ĠHij": 8162,
      "ĠHospit": 8163,
      "ticals": 8164,
      "umn": 8165,
      "umper": 8166,
      "umpling": 8167,
      "Ġeleg": 8168,
      "Ġearly": 8169,
      "ĠLate": 8170,
      "ĠLine": 8171,
      "ĠLob": 8172,
      "ĠLower": 8173,
      "ĠLabor": 8174,
      "ĠLength": 8175,
      "ĠLarge": 8176,
      "Ġgit": 8177,
      "Ġgur": 8178,
      "Ġglo": 8179,
      "Ġgem": 8180,
      "Ġgod": 8181,
      "Ġgross": 8182,
      "Ġgrid": 8183,
      "Ġgreat": 8184,
      "Ġgras": 8185,
      "Ġgrab": 8186,
      "Ġgreen": 8187,
      "Ġgroom": 8188,
      "Ġgirl": 8189,
      "ota": 8190,
      "otg": 8191,
      "oters": 8192,
      "otonic": 8193,
      "odal": 8194,
      "odic": 8195,
      "odel": 8196,
      "odable": 8197,
      "oday": 8198,
      "odings": 8199,
      "opar": 8200,
      "opaths": 8201,
      "upervised": 8202,
      "ĠOpt": 8203,
      "irs": 8204,
      "iruses": 8205,
      "irls": 8206,
      "ĠUR": 8207,
      "ĠUpl": 8208,
      "ĠUTF": 8209,
      "osec": 8210,
      "osystem": 8211,
      "osphere": 8212,
      "atedly": 8213,
      "Ġner": 8214,
      "Ġnation": 8215,
      "Ġnow": 8216,
      "Ġnour": 8217,
      "Ġnever": 8218,
      "Ġnatur": 8219,
      "Ġnumber": 8220,
      "estri": 8221,
      "estors": 8222,
      "ĠWas": 8223,
      "ĠWher": 8224,
      "ĠWake": 8225,
      "ĠWik": 8226,
      "ĠWarn": 8227,
      "ĠWrink": 8228,
      "ĠWonder": 8229,
      "ĠWitness": 8230,
      "ĠWander": 8231,
      "quari": 8232,
      "uber": 8233,
      "ĠGer": 8234,
      "ĠGlo": 8235,
      "ĠGod": 8236,
      "ĠGall": 8237,
      "ĠGreat": 8238,
      "ĠGras": 8239,
      "ĠGrab": 8240,
      "ĠGamb": 8241,
      "ĠGriev": 8242,
      "ĠGreen": 8243,
      "ĠGPU": 8244,
      "ĠGrass": 8245,
      "plier": 8246,
      "pliers": 8247,
      "Ġconform": 8248,
      "Ġconduc": 8249,
      "Ġconges": 8250,
      "Ġconject": 8251,
      "ĠReve": 8252,
      "ĠRever": 8253,
      "ĠRelev": 8254,
      "ĠRewrit": 8255,
      "istors": 8256,
      "istration": 8257,
      "istency": 8258,
      "istencies": 8259,
      "ĠNic": 8260,
      "ĠNow": 8261,
      "ĠNatur": 8262,
      "ĠNatural": 8263,
      "Ġrup": 8264,
      "Ġrender": 8265,
      "Ġrule": 8266,
      "Ġrich": 8267,
      "Ġstap": 8268,
      "Ġstomp": 8269,
      "Ġstrad": 8270,
      "Ġsteep": 8271,
      "Ġstring": 8272,
      "Ġstraw": 8273,
      "Ġstrut": 8274,
      "Ġlit": 8275,
      "Ġlur": 8276,
      "Ġlith": 8277,
      "Ġlabor": 8278,
      "Ġlangu": 8279,
      "Ġlamb": 8280,
      "Ġlanguage": 8281,
      "Ġlux": 8282,
      "endation": 8283,
      "endum": 8284,
      "oggy": 8285,
      "oglyph": 8286,
      "ranking": 8287,
      "ranges": 8288,
      "ĠConn": 8289,
      "ĠConform": 8290,
      "ĠConfer": 8291,
      "ĠConject": 8292,
      "ocating": 8293,
      "ocuses": 8294,
      "ĠUnh": 8295,
      "ĠUnm": 8296,
      "ĠUnre": 8297,
      "ĠUnle": 8298,
      "ĠUnit": 8299,
      "ĠUnve": 8300,
      "ĠUnpl": 8301,
      "ĠUnav": 8302,
      "ĠUncon": 8303,
      "ĠUncomp": 8304,
      "ĠUnravel": 8305,
      "epad": 8306,
      "eptic": 8307,
      "tings": 8308,
      "tingu": 8309,
      "assad": 8310,
      "ipment": 8311,
      "ipse": 8312,
      "ippers": 8313,
      "ipolar": 8314,
      "ensors": 8315,
      "ainment": 8316,
      "anda": 8317,
      "andel": 8318,
      "Ġvine": 8319,
      "Ġvide": 8320,
      "Ġvue": 8321,
      "Ġvision": 8322,
      "ormal": 8323,
      "ormalization": 8324,
      "ĠStation": 8325,
      "ĠStem": 8326,
      "ĠStub": 8327,
      "ĠString": 8328,
      "ĠStraw": 8329,
      "akef": 8330,
      "ths": 8331,
      "thing": 8332,
      "thly": 8333,
      "thest": 8334,
      "thqu": 8335,
      "throp": 8336,
      "thought": 8337,
      "thusi": 8338,
      "Ġaf": 8339,
      "Ġaim": 8340,
      "Ġaward": 8341,
      "ucking": 8342,
      "Ġexcess": 8343,
      "Ġextern": 8344,
      "Ġexerc": 8345,
      "Ġexception": 8346,
      "Ġexacerb": 8347,
      "iven": 8348,
      "ĠVent": 8349,
      "ĠVill": 8350,
      "ĠVice": 8351,
      "ĠVision": 8352,
      "udging": 8353,
      "uddle": 8354,
      "alizability": 8355,
      "linging": 8356,
      "Ġpros": 8357,
      "Ġprospec": 8358,
      "Ġproced": 8359,
      "Ġpropri": 8360,
      "Ġprolif": 8361,
      "ibles": 8362,
      "ibern": 8363,
      "ounder": 8364,
      "ountains": 8365,
      "eform": 8366,
      "exter": 8367,
      "exist": 8368,
      "existing": 8369,
      "existent": 8370,
      "inees": 8371,
      "Ġdiscon": 8372,
      "Ġdisreg": 8373,
      "Ġdisgu": 8374,
      "Ġdisfig": 8375,
      "Ġdisappro": 8376,
      "ledged": 8377,
      "phan": 8378,
      "phony": 8379,
      "antry": 8380,
      "antages": 8381,
      "Ġspin": 8382,
      "Ġspar": 8383,
      "Ġspur": 8384,
      "Ġspraw": 8385,
      "ĠExagger": 8386,
      "ĠExacerb": 8387,
      "encil": 8388,
      "encils": 8389,
      "encoder": 8390,
      "ewable": 8391,
      "ewhere": 8392,
      "Ġcher": 8393,
      "Ġchir": 8394,
      "yped": 8395,
      "ypto": 8396,
      "aven": 8397,
      "avers": 8398,
      "prof": 8399,
      "proof": 8400,
      "profit": 8401,
      "ĠProph": 8402,
      "ĠProper": 8403,
      "ĠProspec": 8404,
      "ĠProced": 8405,
      "ĠProhib": 8406,
      "ĠProceed": 8407,
      "earches": 8408,
      "earching": 8409,
      "itious": 8410,
      "itizens": 8411,
      "eball": 8412,
      "ebody": 8413,
      "ebooks": 8414,
      "eval": 8415,
      "ressor": 8416,
      "ressors": 8417,
      "ressant": 8418,
      "ressants": 8419,
      "ressively": 8420,
      "leshoot": 8421,
      "racking": 8422,
      "ractical": 8423,
      "ishy": 8424,
      "ishly": 8425,
      "ishers": 8426,
      "Ġshel": 8427,
      "Ġshir": 8428,
      "Ġshout": 8429,
      "Ġshrin": 8430,
      "Ġshould": 8431,
      "ectability": 8432,
      "okers": 8433,
      "ellations": 8434,
      "ĠSpin": 8435,
      "ĠSpell": 8436,
      "ĠCheap": 8437,
      "ramble": 8438,
      "ĠEnti": 8439,
      "ĠEnric": 8440,
      "ĠEnfor": 8441,
      "ĠEnerg": 8442,
      "ĠEnjoy": 8443,
      "ĠEnhanc": 8444,
      "ĠEnthusi": 8445,
      "perto": 8446,
      "ĠDisent": 8447,
      "ĠDisag": 8448,
      "ĠDispro": 8449,
      "ĠDisgu": 8450,
      "usters": 8451,
      "formatics": 8452,
      "Ġju": 8453,
      "Ġjack": 8454,
      "Ġjust": 8455,
      "Ġjost": 8456,
      "Ġjudg": 8457,
      "rice": 8458,
      "rices": 8459,
      "rictions": 8460,
      "atibility": 8461,
      "atility": 8462,
      "rests": 8463,
      "resented": 8464,
      "Ġimagin": 8465,
      "atories": 8466,
      "achel": 8467,
      "Ġsubstanti": 8468,
      "Ġsubscrip": 8469,
      "ĠShut": 8470,
      "ĠShare": 8471,
      "ĠShred": 8472,
      "ĠShould": 8473,
      "ignific": 8474,
      "ignments": 8475,
      "ruent": 8476,
      "ruid": 8477,
      "Ġscal": 8478,
      "Ġscream": 8479,
      "Ġscrim": 8480,
      "Ġsculpt": 8481,
      "Ġscrutin": 8482,
      "indings": 8483,
      "ervoir": 8484,
      "rones": 8485,
      "ronts": 8486,
      "ronym": 8487,
      "ronaut": 8488,
      "local": 8489,
      "locating": 8490,
      "Ġprecomp": 8491,
      "Ġadmin": 8492,
      "Ġadmon": 8493,
      "Ġresub": 8494,
      "Ġresult": 8495,
      "Ġrespec": 8496,
      "entiality": 8497,
      "entists": 8498,
      "ĠAnch": 8499,
      "ĠAnecd": 8500,
      "Ġthw": 8501,
      "Ġthat": 8502,
      "Ġthree": 8503,
      "Ġthresh": 8504,
      "Ġthird": 8505,
      "ordination": 8506,
      "script": 8507,
      "rowning": 8508,
      "rowding": 8509,
      "oinformatics": 8510,
      "ventive": 8511,
      "ailable": 8512,
      "ailment": 8513,
      "Ġcomprom": 8514,
      "Ġcomponent": 8515,
      "Ġcompiler": 8516,
      "owner": 8517,
      "owned": 8518,
      "irements": 8519,
      "Ġanx": 8520,
      "Ġantis": 8521,
      "Ġanecd": 8522,
      "Ġoverre": 8523,
      "Ġoverrid": 8524,
      "Ġoverhe": 8525,
      "Ġkil": 8526,
      "Ġkiss": 8527,
      "Ġkeep": 8528,
      "Ġkick": 8529,
      "Ġkernel": 8530,
      "athon": 8531,
      "athons": 8532,
      "atholic": 8533,
      "raint": 8534,
      "raints": 8535,
      "Ġrecup": 8536,
      "Ġrecord": 8537,
      "Ġrecomb": 8538,
      "mining": 8539,
      "minently": 8540,
      "ĠAda": 8541,
      "ĠAdher": 8542,
      "ĠAdmin": 8543,
      "posal": 8544,
      "pository": 8545,
      "Ġmultiplic": 8546,
      "ĠImpl": 8547,
      "ĠImped": 8548,
      "ĠImmers": 8549,
      "ptom": 8550,
      "osters": 8551,
      "ostalg": 8552,
      "ĠRech": 8553,
      "ĠRecurs": 8554,
      "ĠRecalib": 8555,
      "ĠKidn": 8556,
      "rible": 8557,
      "ribly": 8558,
      "ĠCompan": 8559,
      "ĠComprom": 8560,
      "ĠCompreh": 8561,
      "ĠComponent": 8562,
      "ĠComprehens": 8563,
      "Ġinterle": 8564,
      "Ġinterfer": 8565,
      "Ġinterchange": 8566,
      "ofs": 8567,
      "ĠJu": 8568,
      "ĠJack": 8569,
      "ĠJust": 8570,
      "ĠJudg": 8571,
      "Ġrout": 8572,
      "ĠScal": 8573,
      "ĠScream": 8574,
      "ĠScript": 8575,
      "ĠSculpt": 8576,
      "undant": 8577,
      "undred": 8578,
      "actly": 8579,
      "actness": 8580,
      "actory": 8581,
      "ĠThat": 8582,
      "ĠThank": 8583,
      "ĠThreat": 8584,
      "ĠThresh": 8585,
      "ĠThrough": 8586,
      "ĠThird": 8587,
      "Ġartis": 8588,
      "Ġarithme": 8589,
      "Ġleaf": 8590,
      "tifiers": 8591,
      "Ġcontract": 8592,
      "Ġcontroll": 8593,
      "Ġcontras": 8594,
      "Ġcontrovers": 8595,
      "Ġenl": 8596,
      "Ġenfor": 8597,
      "Ġenlar": 8598,
      "Ġenhanc": 8599,
      "blematic": 8600,
      "ĠPret": 8601,
      "ĠPrecip": 8602,
      "Ġemerg": 8603,
      "Ġempath": 8604,
      "Ġemotion": 8605,
      "atty": 8606,
      "attling": 8607,
      "attacks": 8608,
      "ĠInterven": 8609,
      "ĠInterfer": 8610,
      "ĠInterchange": 8611,
      "oby": 8612,
      "obic": 8613,
      "obot": 8614,
      "oblin": 8615,
      "obia": 8616,
      "observ": 8617,
      "obody": 8618,
      "objective": 8619,
      "Ġdecep": 8620,
      "Ġdeceler": 8621,
      "Ġdeclass": 8622,
      "Ġdecryp": 8623,
      "Ġdecoup": 8624,
      "Ġclin": 8625,
      "Ġclaim": 8626,
      "Ġcluster": 8627,
      "reeze": 8628,
      "awns": 8629,
      "awned": 8630,
      "enerating": 8631,
      "energy": 8632,
      "ĠCoars": 8633,
      "Ġpartition": 8634,
      "Ġparadox": 8635,
      "Ġparaphr": 8636,
      "eatable": 8637,
      "uffling": 8638,
      "ufficiency": 8639,
      "Ġallow": 8640,
      "Ġalchem": 8641,
      "Ġalcohol": 8642,
      "Ġflat": 8643,
      "Ġflatt": 8644,
      "Ġflick": 8645,
      "ĠControl": 8646,
      "ĠControll": 8647,
      "ĠContras": 8648,
      "ĠControvers": 8649,
      "eely": 8650,
      "eezed": 8651,
      "ĠArd": 8652,
      "ĠArithme": 8653,
      "Ġintr": 8654,
      "Ġintu": 8655,
      "Ġintric": 8656,
      "Ġpercept": 8657,
      "Ġperplex": 8658,
      "Ġperiod": 8659,
      "Ġperturb": 8660,
      "Ġindic": 8661,
      "Ġindel": 8662,
      "Ġindign": 8663,
      "Ġloss": 8664,
      "eady": 8665,
      "Ġopens": 8666,
      "Ġopport": 8667,
      "Ġtransport": 8668,
      "ilem": 8669,
      "ileged": 8670,
      "Ġautog": 8671,
      "overeign": 8672,
      "Ġobst": 8673,
      "Ġobsc": 8674,
      "berries": 8675,
      "Ġswad": 8676,
      "axoph": 8677,
      "ĠDecl": 8678,
      "ĠDecep": 8679,
      "ĠDecision": 8680,
      "ĠDeclar": 8681,
      "ĠDecoup": 8682,
      "eeped": 8683,
      "ympto": 8684,
      "ĠClin": 8685,
      "ĠParas": 8686,
      "ĠPartition": 8687,
      "ĠParadox": 8688,
      "ĠParaphr": 8689,
      "ructuring": 8690,
      "ooters": 8691,
      "ĠAlle": 8692,
      "ĠAllow": 8693,
      "ĠAlcohol": 8694,
      "ĠAlphab": 8695,
      "Ġoutput": 8696,
      "Ġimplo": 8697,
      "Ġrepar": 8698,
      "shm": 8699,
      "shots": 8700,
      "shirt": 8701,
      "eeds": 8702,
      "Ġupro": 8703,
      "ĠPlat": 8704,
      "ĠPlatform": 8705,
      "eyed": 8706,
      "Ġabhor": 8707,
      "Ġabomin": 8708,
      "Ġabnorm": 8709,
      "ractability": 8710,
      "Ġwhit": 8711,
      "Ġwhist": 8712,
      "aft": 8713,
      "ĠTransport": 8714,
      "ĠEmig": 8715,
      "ĠEmerg": 8716,
      "ĠEmphas": 8717,
      "Ġwebp": 8718,
      "ĠIntu": 8719,
      "ĠIntens": 8720,
      "ĠIntrig": 8721,
      "porary": 8722,
      "ithms": 8723,
      "liness": 8724,
      "linder": 8725,
      "linked": 8726,
      "ringe": 8727,
      "readable": 8728,
      "plicability": 8729,
      "ultures": 8730,
      "oolig": 8731,
      "Ġapache": 8732,
      "Ġinfrastructure": 8733,
      "Ġassu": 8734,
      "Ġassist": 8735,
      "complete": 8736,
      "computers": 8737,
      "elet": 8738,
      "eleton": 8739,
      "ouqu": 8740,
      "ourag": 8741,
      "ourable": 8742,
      "ourage": 8743,
      "oodles": 8744,
      "wardly": 8745,
      "atern": 8746,
      "ieroglyph": 8747,
      "values": 8748,
      "Ġsuperv": 8749,
      "Ġinsol": 8750,
      "Ġinstit": 8751,
      "Ġinstil": 8752,
      "Ġinsinu": 8753,
      "ĠFlatt": 8754,
      "ĠPercept": 8755,
      "ĠPerpet": 8756,
      "ĠPeriod": 8757,
      "ĠPerturb": 8758,
      "ointment": 8759,
      "ointments": 8760,
      "ographics": 8761,
      "Ġorn": 8762,
      "Ġdepra": 8763,
      "Ġdepart": 8764,
      "Ġrefund": 8765,
      "Ġrefact": 8766,
      "Ġrefriger": 8767,
      "Ġcomed": 8768,
      "Ġcomfort": 8769,
      "Ġmisclass": 8770,
      "Ġmisbehav": 8771,
      "ĠObsc": 8772,
      "ĠObfusc": 8773,
      "Ġconserv": 8774,
      "easy": 8775,
      "easing": 8776,
      "easts": 8777,
      "Ġexpans": 8778,
      "ummer": 8779,
      "ĠAtom": 8780,
      "pleas": 8781,
      "plementation": 8782,
      "ĠOppos": 8783,
      "Ġaccru": 8784,
      "lict": 8785,
      "licted": 8786,
      "licting": 8787,
      "chedule": 8788,
      "linearity": 8789,
      "Ġray": 8790,
      "Ġrail": 8791,
      "Ġrapt": 8792,
      "Ġrapp": 8793,
      "Ġphr": 8794,
      "Ġphone": 8795,
      "Ġundele": 8796,
      "sert": 8797,
      "Ġdemor": 8798,
      "Ġdemys": 8799,
      "Ġdemocra": 8800,
      "ĠAssimil": 8801,
      "ceptional": 8802,
      "parent": 8803,
      "parts": 8804,
      "parametric": 8805,
      "parameters": 8806,
      "tention": 8807,
      "Ġappend": 8808,
      "ĠSweet": 8809,
      "adequ": 8810,
      "gery": 8811,
      "geries": 8812,
      "managed": 8813,
      "eckl": 8814,
      "Ġrelig": 8815,
      "Ġconfid": 8816,
      "Ġconfigu": 8817,
      "ĠDefin": 8818,
      "auses": 8819,
      "ausible": 8820,
      "viewers": 8821,
      "umbn": 8822,
      "Ġdistinc": 8823,
      "Ġredes": 8824,
      "Ġredef": 8825,
      "Ġredown": 8826,
      "Ġredecl": 8827,
      "eaked": 8828,
      "uctance": 8829,
      "Ġattrib": 8830,
      "specified": 8831,
      "Ġagon": 8832,
      "ĠAband": 8833,
      "ĠAbnorm": 8834,
      "ĠDepart": 8835,
      "ĠIndic": 8836,
      "Ġsnar": 8837,
      "Ġsnoo": 8838,
      "ĠPhr": 8839,
      "ĠPhenomen": 8840,
      "structor": 8841,
      "structors": 8842,
      "structures": 8843,
      "medi": 8844,
      "anny": 8845,
      "necess": 8846,
      "Ġcolle": 8847,
      "ĠComed": 8848,
      "ĠRelig": 8849,
      "ĠRelax": 8850,
      "embles": 8851,
      "emblance": 8852,
      "ĠRefresh": 8853,
      "iolet": 8854,
      "office": 8855,
      "ĠExpress": 8856,
      "argo": 8857,
      "argers": 8858,
      "argeting": 8859,
      "ĠCommerc": 8860,
      "random": 8861,
      "ĠAccord": 8862,
      "ĠAccount": 8863,
      "ĠAccommod": 8864,
      "ĠDistinc": 8865,
      "Ġremon": 8866,
      "Ġretal": 8867,
      "ociative": 8868,
      "ĠSkill": 8869,
      "elessness": 8870,
      "atising": 8871,
      "ĠYear": 8872,
      "inky": 8873,
      "Ġdoct": 8874,
      "Ġdoctor": 8875,
      "Ġunderp": 8876,
      "ipses": 8877,
      "uckily": 8878,
      "regular": 8879,
      "Ġsurpass": 8880,
      "Ġmonolith": 8881,
      "Ġelic": 8882,
      "Ġeluc": 8883,
      "Ġuse": 8884,
      "Ġcorrobor": 8885,
      "iteration": 8886,
      "iterated": 8887,
      "iterating": 8888,
      "ĠColle": 8889,
      "Ġtrace": 8890,
      "ĠMiner": 8891,
      "Ġencomp": 8892,
      "Ġencoder": 8893,
      "Ġencoura": 8894,
      "ĠMicros": 8895,
      "Ġdeline": 8896,
      "tizes": 8897,
      "Ġmaneuver": 8898,
      "ything": 8899,
      "Ġtwid": 8900,
      "ĠManeuver": 8901,
      "ĠUpper": 8902,
      "ifference": 8903,
      "Ġcaptiv": 8904,
      "rapes": 8905,
      "Ġglist": 8906,
      "ĠConfig": 8907,
      "ĠConfigu": 8908,
      "compliance": 8909,
      "rategy": 8910,
      "rayal": 8911,
      "runt": 8912,
      "runch": 8913,
      "runks": 8914,
      "romagnetic": 8915,
      "Ġdeval": 8916,
      "Ġdevops": 8917,
      "leteness": 8918,
      "urrencies": 8919,
      "missive": 8920,
      "worker": 8921,
      "ĠAgent": 8922,
      "ĠAggress": 8923,
      "Ġinvigor": 8924,
      "oidal": 8925,
      "ĠSurf": 8926,
      "ĠSurround": 8927,
      "askets": 8928,
      "Ġdownsh": 8929,
      "rific": 8930,
      "rifying": 8931,
      "ivided": 8932,
      "ĠDemys": 8933,
      "Ġrestaur": 8934,
      "Ġdiscipl": 8935,
      "ĠAttrib": 8936,
      "intellig": 8937,
      "otherapy": 8938,
      "Ġaffili": 8939,
      "incere": 8940,
      "ĠEluc": 8941,
      "Ġunfur": 8942,
      "Ġevac": 8943,
      "auna": 8944,
      "aunt": 8945,
      "ĠMonopol": 8946,
      "ĠMonolith": 8947,
      "Ġgeometric": 8948,
      "ĠUndes": 8949,
      "ĠUnders": 8950,
      "hesis": 8951,
      "hesion": 8952,
      "tised": 8953,
      "Ġcollision": 8954,
      "ophysical": 8955,
      "ĠSpeci": 8956,
      "ĠSpecific": 8957,
      "ĠEncaps": 8958,
      "ĠEncryp": 8959,
      "ieved": 8960,
      "ieving": 8961,
      "ievers": 8962,
      "ĠTrace": 8963,
      "eaving": 8964,
      "rutable": 8965,
      "ycled": 8966,
      "illingly": 8967,
      "Ġrebu": 8968,
      "Ġrebal": 8969,
      "Ġrebuild": 8970,
      "uggle": 8971,
      "uggles": 8972,
      "nowledges": 8973,
      "prises": 8974,
      "perspir": 8975,
      "ĠDoctor": 8976,
      "ĠDesp": 8977,
      "ĠDiscipl": 8978,
      "oulder": 8979,
      "Ġui": 8980,
      "Ġux": 8981,
      "Ġuint": 8982,
      "Ġinstant": 8983,
      "Ġinstance": 8984,
      "metic": 8985,
      "means": 8986,
      "Ġlocation": 8987,
      "Ġcurt": 8988,
      "ĠSynt": 8989,
      "ĠSynonym": 8990,
      "roads": 8991,
      "rafting": 8992,
      "acterial": 8993,
      "Ġgoog": 8994,
      "ĠUnderp": 8995,
      "Stream": 8996,
      "rasound": 8997,
      "unner": 8998,
      "accelerated": 8999,
      "Ġuncomm": 9000,
      "Ġannoy": 9001,
      "iquity": 9002,
      "Ġios": 9003,
      "Ġreconc": 9004,
      "Ġreconqu": 9005,
      "Ġreconnec": 9006,
      "ĠEvac": 9007,
      "ĠEvapor": 9008,
      "Ġunbund": 9009,
      "Ġtimes": 9010,
      "Ġallerg": 9011,
      "Ġcybers": 9012,
      "ĠAffili": 9013,
      "imentary": 9014,
      "Ġastroph": 9015,
      "Ġastronom": 9016,
      "antile": 9017,
      "ĠSolid": 9018,
      "rocod": 9019,
      "ĠDeton": 9020,
      "changes": 9021,
      "agonist": 9022,
      "agonists": 9023,
      "ĠInstall": 9024,
      "ĠInstance": 9025,
      "respect": 9026,
      "luent": 9027,
      "luence": 9028,
      "allets": 9029,
      "rought": 9030,
      "unicip": 9031,
      "Ġfloat": 9032,
      "onomy": 9033,
      "onomics": 9034,
      "Ġcodes": 9035,
      "Ġcodec": 9036,
      "Ġcodeb": 9037,
      "ĠFinet": 9038,
      "Ġawa": 9039,
      "Ġawkward": 9040,
      "etitions": 9041,
      "etite": 9042,
      "requent": 9043,
      "ĠAllerg": 9044,
      "Ġarchitect": 9045,
      "Ġarchae": 9046,
      "autious": 9047,
      "uzzing": 9048,
      "allowing": 9049,
      "Ġpolitic": 9050,
      "Ġpostp": 9051,
      "Ġtypes": 9052,
      "Ġbeau": 9053,
      "ĠArchitect": 9054,
      "ĠArchae": 9055,
      "Ġdestabil": 9056,
      "Ġdestroy": 9057,
      "Ġdestruc": 9058,
      "Ġneglig": 9059,
      "Ġvalid": 9060,
      "connects": 9061,
      "dleware": 9062,
      "ticeable": 9063,
      "organize": 9064,
      "organization": 9065,
      "Ġsecond": 9066,
      "Ġdereg": 9067,
      "Ġrevit": 9068,
      "provided": 9069,
      "production": 9070,
      "entific": 9071,
      "Ġengross": 9072,
      "Ġengulf": 9073,
      "cribes": 9074,
      "rusts": 9075,
      "Ġatom": 9076,
      "Ġatroc": 9077,
      "Ġecl": 9078,
      "Ġhypothe": 9079,
      "Ġoccasion": 9080,
      "Ġprovision": 9081,
      "Ġabsent": 9082,
      "Ġabscon": 9083,
      "aulted": 9084,
      "aulting": 9085,
      "balance": 9086,
      "ooped": 9087,
      "Ġpurch": 9088,
      "Ġneur": 9089,
      "rangle": 9090,
      "rangement": 9091,
      "rangements": 9092,
      "Ġpromp": 9093,
      "Ġprompt": 9094,
      "ĠPrototyp": 9095,
      "ĠDissip": 9096,
      "claims": 9097,
      "ĠAppropri": 9098,
      "powers": 9099,
      "powering": 9100,
      "Ġpeac": 9101,
      "Ġvolcan": 9102,
      "heads": 9103,
      "variable": 9104,
      "ĠSymbol": 9105,
      "ithering": 9106,
      "Ġpsychiat": 9107,
      "untary": 9108,
      "Ġbelong": 9109,
      "ĠValid": 9110,
      "scribed": 9111,
      "ĠReconc": 9112,
      "holder": 9113,
      "risk": 9114,
      "ĠPopular": 9115,
      "ĠAstroph": 9116,
      "ĠAstronom": 9117,
      "Ġfacilit": 9118,
      "Ġnarciss": 9119,
      "planes": 9120,
      "planatory": 9121,
      "placeable": 9122,
      "Ġcongreg": 9123,
      "ĠSubsid": 9124,
      "Ġpolyg": 9125,
      "being": 9126,
      "beit": 9127,
      "Ġingen": 9128,
      "Ġcataly": 9129,
      "ĠSecond": 9130,
      "Ġdeno": 9131,
      "unctive": 9132,
      "ĠFacilit": 9133,
      "oscience": 9134,
      "ĠNeural": 9135,
      "Ġacquaint": 9136,
      "ĠEmbarrass": 9137,
      "ĠPolyg": 9138,
      "letely": 9139,
      "ĠCreep": 9140,
      "Ġprincip": 9141,
      "ĠPsychiat": 9142,
      "ĠDigit": 9143,
      "irmation": 9144,
      "ĠGoogle": 9145,
      "ĠNarciss": 9146,
      "illionaires": 9147,
      "illionaire": 9148,
      "developers": 9149,
      "ĠRenov": 9150,
      "ĠHelp": 9151,
      "ĠUltim": 9152,
      "Ġprogramming": 9153,
      "Ġprogrammer": 9154,
      "ĠMinimum": 9155,
      "Scaling": 9156,
      "monitoring": 9157,
      "Ġsplur": 9158,
      "ĠPrincip": 9159,
      "ethered": 9160,
      "ĠTypes": 9161,
      "ĠTechnology": 9162,
      "ĠPhoto": 9163,
      "doors": 9164,
      "iefs": 9165,
      "esterday": 9166,
      "ĠCanon": 9167,
      "Ġfirew": 9168,
      "Ġbefoul": 9169,
      "ammable": 9170,
      "uminous": 9171,
      "umbleb": 9172,
      "ĠReady": 9173,
      "Ġentit": 9174,
      "Ġentity": 9175,
      "ennial": 9176,
      "ennials": 9177,
      "ĠRobot": 9178,
      "ĠDestroy": 9179,
      "Ġmagne": 9180,
      "Ġrequest": 9181,
      "izzy": 9182,
      "Ġincompet": 9183,
      "ĠBlockchain": 9184,
      "ĠLeaf": 9185,
      "engineers": 9186,
      "oicing": 9187,
      "tracing": 9188,
      "Ġurl": 9189,
      "Ġsequel": 9190,
      "Ġclose": 9191,
      "ĠPersu": 9192,
      "Ġfavor": 9193,
      "Ġwindow": 9194,
      "Ġwindows": 9195,
      "throughs": 9196,
      "explored": 9197,
      "phrases": 9198,
      "Ġrobot": 9199,
      "ynchronized": 9200,
      "validation": 9201,
      "Connected": 9202,
      "flies": 9203,
      "ĠSequence": 9204,
      "robot": 9205,
      "ĠMixture": 9206,
      "ĠTemper": 9207,
      "Ġblood": 9208,
      "ĠBeginner": 9209,
      "Ġhappen": 9210,
      "Ġwithdraw": 9211,
      "ĠWindow": 9212,
      "ĠChatGPT": 9213,
      "Ġobliv": 9214,
      "ĠAbstract": 9215,
      "ĠDouble": 9216,
      "Shot": 9217,
      "rudent": 9218,
      "arsely": 9219,
      "ĠItem": 9220,
      "Ġbehavior": 9221,
      "Ġconnection": 9222,
      "occurring": 9223,
      "occurrence": 9224,
      "pheres": 9225,
      "pherical": 9226,
      "ĠEntertain": 9227,
      "ĠAdjust": 9228,
      "ĠTransformer": 9229,
      "ĠAmbigu": 9230,
      "Exper": 9231,
      "digit": 9232,
      "digital": 9233,
      "effective": 9234,
      "supervised": 9235,
      "Ġrival": 9236,
      "alculated": 9237,
      "Ġcraz": 9238,
      "ĠSidew": 9239,
      "ĠClose": 9240,
      "Ġdeterior": 9241,
      "Ġmobile": 9242,
      "Ġrehabil": 9243,
      "ampered": 9244,
      "Ġweird": 9245,
      "appropri": 9246,
      "osexual": 9247,
      "osexuality": 9248,
      "Ġneighbour": 9249,
      "Ġlandsc": 9250,
      "ĠVersion": 9251,
      "ĠJavaScript": 9252,
      "Ġinterspers": 9253,
      "ĠMiniatur": 9254,
      "grounds": 9255,
      "iomatic": 9256,
      "Ġdbus": 9257,
      "ĠDescrib": 9258,
      "Ġwidely": 9259,
      "opathy": 9260,
      "ĠWithdraw": 9261,
      "ĠConjug": 9262,
      "ortunate": 9263,
      "ortunately": 9264,
      "Ġanswer": 9265,
      "Ġparticular": 9266,
      "rinsic": 9267,
      "rinsically": 9268,
      "ĠDemonst": 9269,
      "controller": 9270,
      "TML": 9271,
      "ĠDeterior": 9272,
      "Ġinnoc": 9273,
      "ĠFavor": 9274,
      "studio": 9275,
      "optimal": 9276,
      "Ġrisk": 9277,
      "Ġlinked": 9278,
      "ogeneity": 9279,
      "ogeneous": 9280,
      "ocalyp": 9281,
      "Ġargument": 9282,
      "automation": 9283,
      "automated": 9284,
      "Processing": 9285,
      "biotic": 9286,
      "clockwise": 9287,
      "fectly": 9288,
      "iraff": 9289,
      "Ġacknowledg": 9290,
      "enstru": 9291,
      "Ġsucceed": 9292,
      "ĠSucceed": 9293,
      "Ġbottom": 9294,
      "Ġinconsider": 9295,
      "ĠBottom": 9296,
      "stationary": 9297,
      "ĠOdd": 9298,
      "ivariate": 9299,
      "ervisor": 9300,
      "ĠAcknowledg": 9301,
      "plicitly": 9302,
      "ĠIndustri": 9303,
      "interpreted": 9304,
      "breeding": 9305,
      "deterministic": 9306,
      "Ġpulver": 9307,
      "ĠDDR": 9308,
      "eference": 9309,
      "Ġdismant": 9310,
      "configuration": 9311,
      "ĠArgument": 9312,
      "ĠObliv": 9313,
      "Ġenterprise": 9314,
      "interpretation": 9315,
      "autiful": 9316,
      "ERT": 9317,
      "Forward": 9318,
      "Related": 9319,
      "Value": 9320,
      "ihil": 9321,
      "erodynam": 9322,
      "edgeh": 9323,
      "elihood": 9324,
      "uspecting": 9325,
      "Ġrelinqu": 9326,
      "Ġweapons": 9327,
      "qualified": 9328,
      "Ġrock": 9329,
      "communication": 9330,
      "piece": 9331,
      "LSTM": 9332,
      "demand": 9333,
      "glomer": 9334,
      "Ġculmin": 9335,
      "Ġddr": 9336,
      "otechnology": 9337,
      "Ġprognostic": 9338,
      "Ġenthusi": 9339,
      "Device": 9340,
      "Propag": 9341,
      "uracies": 9342,
      "width": 9343,
      "itamins": 9344,
      "igaret": 9345,
      "11": 9346,
      "19": 9347,
      "98": 9348,
      "AZ": 9349,
      "Ad": 9350,
      "Al": 9351,
      "At": 9352,
      "Agent": 9353,
      "BA": 9354,
      "Batch": 9355,
      "Books": 9356,
      "Cl": 9357,
      "CNN": 9358,
      "Centric": 9359,
      "Dec": 9360,
      "Dig": 9361,
      "Day": 9362,
      "Def": 9363,
      "DNN": 9364,
      "Distribution": 9365,
      "DAR": 9366,
      "Domain": 9367,
      "ES": 9368,
      "Ed": 9369,
      "Em": 9370,
      "Eff": 9371,
      "Factor": 9372,
      "GL": 9373,
      "Grade": 9374,
      "Generated": 9375,
      "Hz": 9376,
      "IF": 9377,
      "IT": 9378,
      "LL": 9379,
      "Ling": 9380,
      "Like": 9381,
      "Length": 9382,
      "Mail": 9383,
      "Matching": 9384,
      "Native": 9385,
      "OP": 9386,
      "Op": 9387,
      "PE": 9388,
      "Pi": 9389,
      "Py": 9390,
      "Page": 9391,
      "Part": 9392,
      "Play": 9393,
      "Precision": 9394,
      "Powered": 9395,
      "Rank": 9396,
      "Review": 9397,
      "Robot": 9398,
      "SA": 9399,
      "SO": 9400,
      "SS": 9401,
      "Ser": 9402,
      "Squ": 9403,
      "Sour": 9404,
      "Serv": 9405,
      "Sized": 9406,
      "Side": 9407,
      "Size": 9408,
      "Sequ": 9409,
      "Sense": 9410,
      "Safe": 9411,
      "Space": 9412,
      "Security": 9413,
      "Ter": 9414,
      "Top": 9415,
      "Train": 9416,
      "Training": 9417,
      "Tuned": 9418,
      "Tuning": 9419,
      "UI": 9420,
      "User": 9421,
      "VM": 9422,
      "Vari": 9423,
      "Wise": 9424,
      "Words": 9425,
      "World": 9426,
      "ai": 9427,
      "aq": 9428,
      "aust": 9429,
      "ahead": 9430,
      "avery": 9431,
      "bu": 9432,
      "bation": 9433,
      "bus": 9434,
      "bies": 9435,
      "bars": 9436,
      "balls": 9437,
      "bios": 9438,
      "cp": 9439,
      "coll": 9440,
      "cover": 9441,
      "caster": 9442,
      "cending": 9443,
      "casing": 9444,
      "categor": 9445,
      "casted": 9446,
      "cache": 9447,
      "cnn": 9448,
      "category": 9449,
      "calculated": 9450,
      "dd": 9451,
      "dens": 9452,
      "done": 9453,
      "direct": 9454,
      "donal": 9455,
      "driving": 9456,
      "dynamic": 9457,
      "documented": 9458,
      "detection": 9459,
      "ek": 9460,
      "ein": 9461,
      "eve": 9462,
      "etically": 9463,
      "eeling": 9464,
      "epless": 9465,
      "fitted": 9466,
      "fires": 9467,
      "filled": 9468,
      "fault": 9469,
      "friends": 9470,
      "funding": 9471,
      "gb": 9472,
      "gin": 9473,
      "grow": 9474,
      "game": 9475,
      "giving": 9476,
      "hear": 9477,
      "hill": 9478,
      "hone": 9479,
      "hooks": 9480,
      "hicle": 9481,
      "hunting": 9482,
      "iac": 9483,
      "iab": 9484,
      "iot": 9485,
      "iked": 9486,
[...]
