{
  "version": "1.0",
  "truncation": null,
  "padding": null,
  "added_tokens": [
    {
      "id": 0,
      "content": "</s>",
      "single_word": false,
      "lstrip": false,
      "rstrip": false,
      "normalized": false,
      "special": true
    }
  ],
  "normalizer": null,
  "pre_tokenizer": {
    "type": "ByteLevel",
    "add_prefix_space": false,
    "trim_offsets": true,
    "use_regex": true
  },
  "post_processor": null,
  "decoder": {
    "type": "ByteLevel",
    "add_prefix_space": true,
    "trim_offsets": true,
    "use_regex": true
  },
  "model": {
    "type": "BPE",
    "dropout": null,
    "unk_token": null,
    "continuing_subword_prefix": null,
    "end_of_word_suffix": null,
    "fuse_unk": false,
    "byte_fallback": false,
    "ignore_merges": false,
    "vocab": {
      "</s>": 0,
      "!": 1,
      "\"": 2,
      "#": 3,
      "$": 4,
      "%": 5,
      "&": 6,
      "'": 7,
      "(": 8,
      ")": 9,
      "*": 10,
      "+": 11,
      ",": 12,
      "-": 13,
      ".": 14,
      "/": 15,
      "0": 16,
      "1": 17,
      "2": 18,
      "3": 19,
      "4": 20,
      "5": 21,
      "6": 22,
      "7": 23,
      "8": 24,
      "9": 25,
      ":": 26,
      ";": 27,
      "<": 28,
      "=": 29,
      ">": 30,
      "?": 31,
      "@": 32,
      "A": 33,
      "B": 34,
      "C": 35,
      "D": 36,
      "E": 37,
      "F": 38,
      "G": 39,
      "H": 40,
      "I": 41,
      "J": 42,
      "K": 43,
      "L": 44,
      "M": 45,
      "N": 46,
      "O": 47,
      "P": 48,
      "Q": 49,
      "R": 50,
      "S": 51,
      "T": 52,
      "U": 53,
      "V": 54,
      "W": 55,
      "X": 56,
      "Y": 57,
      "Z": 58,
      "[": 59,
      "\\": 60,
      "]": 61,
      "^": 62,
      "_": 63,
      "`": 64,
      "a": 65,
      "b": 66,
      "c": 67,
      "d": 68,
      "e": 69,
      "f": 70,
      "g": 71,
      "h": 72,
      "i": 73,
      "j": 74,
      "k": 75,
      "l": 76,
      "m": 77,
      "n": 78,
      "o": 79,
      "p": 80,
      "q": 81,
      "r": 82,
      "s": 83,
      "t": 84,
      "u": 85,
      "v": 86,
      "w": 87,
      "x": 88,
      "y": 89,
      "z": 90,
      "{": 91,
      "|": 92,
      "}": 93,
      "~": 94,
      "¡": 95,
      "¢": 96,
      "£": 97,
      "¤": 98,
      "¥": 99,
      "¦": 100,
      "§": 101,
      "¨": 102,
      "©": 103,
      "ª": 104,
      "«": 105,
      "¬": 106,
      "®": 107,
      "¯": 108,
      "°": 109,
      "±": 110,
      "²": 111,
      "³": 112,
      "´": 113,
      "µ": 114,
      "¶": 115,
      "·": 116,
      "¸": 117,
      "¹": 118,
      "º": 119,
      "»": 120,
      "¼": 121,
      "½": 122,
      "¾": 123,
      "¿": 124,
      "À": 125,
      "Á": 126,
      "Â": 127,
      "Ã": 128,
      "Ä": 129,
      "Å": 130,
      "Æ": 131,
      "Ç": 132,
      "È": 133,
      "É": 134,
      "Ê": 135,
      "Ë": 136,
      "Ì": 137,
      "Í": 138,
      "Î": 139,
      "Ï": 140,
      "Ð": 141,
      "Ñ": 142,
      "Ò": 143,
      "Ó": 144,
      "Ô": 145,
      "Õ": 146,
      "Ö": 147,
      "×": 148,
      "Ø": 149,
      "Ù": 150,
      "Ú": 151,
      "Û": 152,
      "Ü": 153,
      "Ý": 154,
      "Þ": 155,
      "ß": 156,
      "à": 157,
      "á": 158,
      "â": 159,
      "ã": 160,
      "ä": 161,
      "å": 162,
      "æ": 163,
      "ç": 164,
      "è": 165,
      "é": 166,
      "ê": 167,
      "ë": 168,
      "ì": 169,
      "í": 170,
      "î": 171,
      "ï": 172,
      "ð": 173,
      "ñ": 174,
      "ò": 175,
      "ó": 176,
      "ô": 177,
      "õ": 178,
      "ö": 179,
      "÷": 180,
      "ø": 181,
      "ù": 182,
      "ú": 183,
      "û": 184,
      "ü": 185,
      "ý": 186,
      "þ": 187,
      "ÿ": 188,
      "Ā": 189,
      "ā": 190,
      "Ă": 191,
      "ă": 192,
      "Ą": 193,
      "ą": 194,
      "Ć": 195,
      "ć": 196,
      "Ĉ": 197,
      "ĉ": 198,
      "Ċ": 199,
      "ċ": 200,
      "Č": 201,
      "č": 202,
      "Ď": 203,
      "ď": 204,
      "Đ": 205,
      "đ": 206,
      "Ē": 207,
      "ē": 208,
      "Ĕ": 209,
      "ĕ": 210,
      "Ė": 211,
      "ė": 212,
      "Ę": 213,
      "ę": 214,
      "Ě": 215,
      "ě": 216,
      "Ĝ": 217,
      "ĝ": 218,
      "Ğ": 219,
      "ğ": 220,
      "Ġ": 221,
      "ġ": 222,
      "Ģ": 223,
      "ģ": 224,
      "Ĥ": 225,
      "ĥ": 226,
      "Ħ": 227,
      "ħ": 228,
      "Ĩ": 229,
      "ĩ": 230,
      "Ī": 231,
      "ī": 232,
      "Ĭ": 233,
      "ĭ": 234,
      "Į": 235,
      "į": 236,
      "İ": 237,
      "ı": 238,
      "Ĳ": 239,
      "ĳ": 240,
      "Ĵ": 241,
      "ĵ": 242,
      "Ķ": 243,
      "ķ": 244,
      "ĸ": 245,
      "Ĺ": 246,
      "ĺ": 247,
      "Ļ": 248,
      "ļ": 249,
      "Ľ": 250,
      "ľ": 251,
      "Ŀ": 252,
      "ŀ": 253,
      "Ł": 254,
      "ł": 255,
      "Ń": 256,
      "in": 257,
      "er": 258,
      "ed": 259,
      "es": 260,
      "on": 261,
      "ti": 262,
      "ing": 263,
      "en": 264,
      "al": 265,
      "at": 266,
      "or": 267,
      "re": 268,
      "an": 269,
      "ar": 270,
      "is": 271,
      "tion": 272,
      "le": 273,
      "it": 274,
      "ic": 275,
      "as": 276,
      "ro": 277,
      "ly": 278,
      "ra": 279,
      "un": 280,
      "st": 281,
      "ent": 282,
      "ul": 283,
      "ec": 284,
      "el": 285,
      "om": 286,
      "ation": 287,
      "ac": 288,
      "ab": 289,
      "il": 290,
      "Ġc": 291,
      "Ġs": 292,
      "ers": 293,
      "ur": 294,
      "ol": 295,
      "ĠS": 296,
      "et": 297,
      "ess": 298,
      "ut": 299,
      "ĠC": 300,
      "us": 301,
      "ri": 302,
      "ch": 303,
      "Ġp": 304,
      "iz": 305,
      "lo": 306,
      "de": 307,
      "ve": 308,
      "ig": 309,
      "ad": 310,
      "ter": 311,
      "am": 312,
      "em": 313,
      "ĠP": 314,
      "In": 315,
      "ity": 316,
      "ag": 317,
      "Ġd": 318,
      "ce": 319,
      "im": 320,
      "ĠA": 321,
      "ts": 322,
      "ĠR": 323,
      "ĠD": 324,
      "ver": 325,
      "ap": 326,
      "id": 327,
      "able": 328,
      "Ġm": 329,
      "ate": 330,
      "tic": 331,
      "um": 332,
      "th": 333,
      "pl": 334,
      "ex": 335,
      "ĠM": 336,
      "op": 337,
      "ir": 338,
      "Ġre": 339,
      "up": 340,
      "Ġf": 341,
      "os": 342,
      "ated": 343,
      "est": 344,
      "ĠT": 345,
      "if": 346,
      "qu": 347,
      "od": 348,
      "ot": 349,
      "Ġb": 350,
      "ub": 351,
      "Ġt": 352,
      "ally": 353,
      "ct": 354,
      "ow": 355,
      "ion": 356,
      "ist": 357,
      "ĠE": 358,
      "con": 359,
      "Ġin": 360,
      "ĠF": 361,
      "ran": 362,
      "ĠB": 363,
      "oc": 364,
      "tive": 365,
      "og": 366,
      "omp": 367,
      "end": 368,
      "Un": 369,
      "pro": 370,
      "ff": 371,
      "ous": 372,
      "ay": 373,
      "ating": 374,
      "ted": 375,
      "Ġh": 376,
      "ased": 377,
      "ting": 378,
      "und": 379,
      "ep": 380,
      "Ġw": 381,
      "ass": 382,
      "ens": 383,
      "ain": 384,
      "orm": 385,
      "igh": 386,
      "ment": 387,
      "ip": 388,
      "ĠIn": 389,
      "ak": 390,
      "and": 391,
      "ulti": 392,
      "ru": 393,
      "res": 394,
      "ates": 395,
      "ard": 396,
      "ĠH": 397,
      "'s": 398,
      "ations": 399,
      "ies": 400,
      "iv": 401,
      "aliz": 402,
      "ors": 403,
      "ling": 404,
      "sp": 405,
      "ĠL": 406,
      "Ġg": 407,
      "ib": 408,
      "ph": 409,
      "ine": 410,
      "per": 411,
      "Ġun": 412,
      "ack": 413,
      "ĠO": 414,
      "co": 415,
      "led": 416,
      "Ġn": 417,
      "ug": 418,
      "uc": 419,
      "ef": 420,
      "ĠW": 421,
      "ant": 422,
      "av": 423,
      "eg": 424,
      "tra": 425,
      "sc": 426,
      "ew": 427,
      "ĠG": 428,
      "Ġcon": 429,
      "ear": 430,
      "based": 431,
      "ev": 432,
      "tim": 433,
      "enc": 434,
      "ok": 435,
      "ud": 436,
      "tions": 437,
      "ĠN": 438,
      "all": 439,
      "ness": 440,
      "ish": 441,
      "bo": 442,
      "iti": 443,
      "Con": 444,
      "over": 445,
      "Ġst": 446,
      "cl": 447,
      "ility": 448,
      "ang": 449,
      "ind": 450,
      "ust": 451,
      "sh": 452,
      "ress": 453,
      "out": 454,
      "ob": 455,
      "ect": 456,
      "Ġl": 457,
      "age": 458,
      "ell": 459,
      "ure": 460,
      "ĠCon": 461,
      "ful": 462,
      "rec": 463,
      "our": 464,
      "ĠUn": 465,
      "ss": 466,
      "ast": 467,
      "form": 468,
      "ks": 469,
      "ord": 470,
      "ram": 471,
      "St": 472,
      "ill": 473,
      "ry": 474,
      "les": 475,
      "ive": 476,
      "ric": 477,
      "int": 478,
      "her": 479,
      "se": 480,
      "low": 481,
      "eb": 482,
      "ence": 483,
      "po": 484,
      "ance": 485,
      "Ġv": 486,
      "alis": 487,
      "ati": 488,
      "red": 489,
      "ator": 490,
      "Ġde": 491,
      "als": 492,
      "ach": 493,
      "anc": 494,
      "king": 495,
      "ign": 496,
      "less": 497,
      "ĠI": 498,
      "omm": 499,
      "min": 500,
      "pt": 501,
      "ĠSt": 502,
      "olog": 503,
      "Ġex": 504,
      "par": 505,
      "loc": 506,
      "ron": 507,
      "ort": 508,
      "erv": 509,
      "ized": 510,
      "ge": 511,
      "ĠV": 512,
      "enti": 513,
      "he": 514,
      "Ġa": 515,
      "ative": 516,
      "ability": 517,
      "row": 518,
      "iss": 519,
      "ight": 520,
      "rac": 521,
      "to": 522,
      "ail": 523,
      "comp": 524,
      "own": 525,
      "Ġpro": 526,
      "pos": 527,
      "ash": 528,
      "ical": 529,
      "ied": 530,
      "pe": 531,
      "ped": 532,
      "ven": 533,
      "di": 534,
      "vers": 535,
      "ost": 536,
      "ise": 537,
      "Ex": 538,
      "elf": 539,
      "are": 540,
      "Pro": 541,
      "ll": 542,
      "ide": 543,
      "ary": 544,
      "ically": 545,
      "dis": 546,
      "rans": 547,
      "der": 548,
      "fer": 549,
      "ath": 550,
      "act": 551,
      "of": 552,
      "ty": 553,
      "ari": 554,
      "ality": 555,
      "rib": 556,
      "ins": 557,
      "ents": 558,
      "ele": 559,
      "cess": 560,
      "ĠEx": 561,
      "ked": 562,
      "pre": 563,
      "ext": 564,
      "atch": 565,
      "ves": 566,
      "Ġdis": 567,
      "ping": 568,
      "vi": 569,
      "aw": 570,
      "eter": 571,
      "fl": 572,
      "ble": 573,
      "art": 574,
      "yn": 575,
      "ons": 576,
      "tif": 577,
      "ne": 578,
      "ize": 579,
      "ork": 580,
      "En": 581,
      "ular": 582,
      "ĠPro": 583,
      "ial": 584,
      "vel": 585,
      "ys": 586,
      "ific": 587,
      "ings": 588,
      "ore": 589,
      "ech": 590,
      "ke": 591,
      "raph": 592,
      "ets": 593,
      "one": 594,
      "ener": 595,
      "ugh": 596,
      "ice": 597,
      "Re": 598,
      "ound": 599,
      "te": 600,
      "ree": 601,
      "ite": 602,
      "Ġch": 603,
      "ple": 604,
      "ans": 605,
      "Ch": 606,
      "rel": 607,
      "air": 608,
      "oun": 609,
      "ps": 610,
      "pec": 611,
      "ĠRe": 612,
      "stru": 613,
      "we": 614,
      "arm": 615,
      "tain": 616,
      "ions": 617,
      "ue": 618,
      "uff": 619,
      "Ġsh": 620,
      "ction": 621,
      "ying": 622,
      "ire": 623,
      "ered": 624,
      "ious": 625,
      "ities": 626,
      "Based": 627,
      "mar": 628,
      "tically": 629,
      "ross": 630,
      "for": 631,
      "ĠEn": 632,
      "inter": 633,
      "tiv": 634,
      "Multi": 635,
      "ĠMulti": 636,
      "ix": 637,
      "Ġr": 638,
      "ators": 639,
      "ong": 640,
      "ism": 641,
      "oll": 642,
      "ient": 643,
      "ution": 644,
      "plic": 645,
      "ax": 646,
      "old": 647,
      "emb": 648,
      "ning": 649,
      "por": 650,
      "icro": 651,
      "ined": 652,
      "ĠCh": 653,
      "sub": 654,
      "its": 655,
      "com": 656,
      "Ġj": 657,
      "att": 658,
      "izing": 659,
      "cre": 660,
      "ual": 661,
      "ull": 662,
      "Sh": 663,
      "ick": 664,
      "duc": 665,
      "ym": 666,
      "ering": 667,
      "Ġim": 668,
      "af": 669,
      "ures": 670,
      "ged": 671,
      "ile": 672,
      "Ġth": 673,
      "ace": 674,
      "ably": 675,
      "Ġsub": 676,
      "eness": 677,
      "ization": 678,
      "ible": 679,
      "rig": 680,
      "Qu": 681,
      "mo": 682,
      "ised": 683,
      "Dis": 684,
      "ging": 685,
      "ĠSh": 686,
      "app": 687,
      "off": 688,
      "ĠDis": 689,
      "tro": 690,
      "tit": 691,
      "ory": 692,
      "ann": 693,
      "ase": 694,
      "ments": 695,
      "An": 696,
      "inc": 697,
      "ater": 698,
      "ising": 699,
      "ĠU": 700,
      "reg": 701,
      "des": 702,
      "cal": 703,
      "ring": 704,
      "Ġsp": 705,
      "jec": 706,
      "ink": 707,
      "ake": 708,
      "val": 709,
      "Ġres": 710,
      "ĠAn": 711,
      "Ġad": 712,
      "ith": 713,
      "ration": 714,
      "under": 715,
      "ber": 716,
      "mp": 717,
      "mod": 718,
      "cri": 719,
      "ition": 720,
      "read": 721,
      "atic": 722,
      "lect": 723,
      "acc": 724,
      "ood": 725,
      "ement": 726,
      "spec": 727,
      "man": 728,
      "Ġe": 729,
      "ists": 730,
      "ency": 731,
      "du": 732,
      "me": 733,
      "rit": 734,
      "Ġcomp": 735,
      "eng": 736,
      "alized": 737,
      "Ġover": 738,
      "ee": 739,
      "ward": 740,
      "ines": 741,
      "Ġco": 742,
      "aut": 743,
      "ited": 744,
      "ics": 745,
      "ured": 746,
      "ock": 747,
      "ges": 748,
      "ier": 749,
      "ograph": 750,
      "Comp": 751,
      "eat": 752,
      "press": 753,
      "ining": 754,
      "Ad": 755,
      "ond": 756,
      "load": 757,
      "multi": 758,
      "ser": 759,
      "vol": 760,
      "reak": 761,
      "ult": 762,
      "ays": 763,
      "time": 764,
      "ade": 765,
      "pers": 766,
      "Ġpre": 767,
      "serv": 768,
      "med": 769,
      "no": 770,
      "ently": 771,
      "ĠAd": 772,
      "Ġmulti": 773,
      "line": 774,
      "yst": 775,
      "ages": 776,
      "ten": 777,
      "ĠK": 778,
      "izes": 779,
      "log": 780,
      "ously": 781,
      "vis": 782,
      "cur": 783,
      "els": 784,
      "uper": 785,
      "Res": 786,
      "comm": 787,
      "ĠComp": 788,
      "Co": 789,
      "Rec": 790,
      "now": 791,
      "ĠRec": 792,
      "dec": 793,
      "orn": 794,
      "iness": 795,
      "ush": 796,
      "Ġinter": 797,
      "alization": 798,
      "Sp": 799,
      "Th": 800,
      "non": 801,
      "Ġnon": 802,
      "ĠJ": 803,
      "Ġro": 804,
      "ata": 805,
      "anti": 806,
      "ute": 807,
      "lock": 808,
      "oth": 809,
      "ched": 810,
      "ants": 811,
      "ises": 812,
      "ild": 813,
      "lay": 814,
      "Ġsc": 815,
      "rid": 816,
      "umb": 817,
      "ead": 818,
      "gra": 819,
      "ou": 820,
      "ational": 821,
      "urn": 822,
      "ool": 823,
      "Sub": 824,
      "arg": 825,
      "ĠSub": 826,
      "ified": 827,
      "alize": 828,
      "back": 829,
      "pr": 830,
      "ĠRes": 831,
      "mon": 832,
      "org": 833,
      "ream": 834,
      "ars": 835,
      "amp": 836,
      "li": 837,
      "Ġle": 838,
      "cep": 839,
      "rand": 840,
      "alizing": 841,
      "Ar": 842,
      "net": 843,
      "pend": 844,
      "ters": 845,
      "ery": 846,
      "Inter": 847,
      "view": 848,
      "Ġqu": 849,
      "aps": 850,
      "Ac": 851,
      "Non": 852,
      "ia": 853,
      "ĠInter": 854,
      "ĠNon": 855,
      "Ġdec": 856,
      "hor": 857,
      "arch": 858,
      "be": 859,
      "nec": 860,
      "ances": 861,
      "struct": 862,
      "cor": 863,
      "tin": 864,
      "ats": 865,
      "ases": 866,
      "aster": 867,
      "rap": 868,
      "ĠSp": 869,
      "cons": 870,
      "mer": 871,
      "oot": 872,
      "ook": 873,
      "Ġen": 874,
      "ĠAc": 875,
      "bl": 876,
      "text": 877,
      "ues": 878,
      "work": 879,
      "tional": 880,
      "iter": 881,
      "rag": 882,
      "Ġcl": 883,
      "use": 884,
      "Im": 885,
      "dri": 886,
      "equ": 887,
      "yp": 888,
      "process": 889,
      "book": 890,
      "Cl": 891,
      "Ġk": 892,
      "unt": 893,
      "eld": 894,
      "wh": 895,
      "Ġal": 896,
      "eck": 897,
      "uring": 898,
      "ame": 899,
      "tively": 900,
      "dic": 901,
      "plo": 902,
      "test": 903,
      "ref": 904,
      "Ġpar": 905,
      "ĠTh": 906,
      "az": 907,
      "rup": 908,
      "ern": 909,
      "ening": 910,
      "Ġfl": 911,
      "ome": 912,
      "ĠAr": 913,
      "Par": 914,
      "ject": 915,
      "ving": 916,
      "raw": 917,
      "Ġper": 918,
      "ify": 919,
      "ension": 920,
      "down": 921,
      "eed": 922,
      "sl": 923,
      "irc": 924,
      "trac": 925,
      "eas": 926,
      "Ġap": 927,
      "ened": 928,
      "iting": 929,
      "rust": 930,
      "ology": 931,
      "ale": 932,
      "ĠCo": 933,
      "def": 934,
      "oci": 935,
      "cent": 936,
      "vent": 937,
      "Ġop": 938,
      "rain": 939,
      "Dec": 940,
      "ian": 941,
      "ware": 942,
      "yper": 943,
      "itch": 944,
      "elling": 945,
      "sec": 946,
      "oring": 947,
      "ret": 948,
      "Aut": 949,
      "io": 950,
      "pri": 951,
      "ved": 952,
      "Ġac": 953,
      "Ġaut": 954,
      "Ġob": 955,
      "ĠIm": 956,
      "eal": 957,
      "tr": 958,
      "ored": 959,
      "eless": 960,
      "used": 961,
      "ately": 962,
      "tics": 963,
      "atis": 964,
      "Over": 965,
      "Up": 966,
      "sw": 967,
      "rop": 968,
      "urs": 969,
      "Ap": 970,
      "gram": 971,
      "ming": 972,
      "atter": 973,
      "ark": 974,
      "eli": 975,
      "ĠDec": 976,
      "fully": 977,
      "Al": 978,
      "aff": 979,
      "sol": 980,
      "rect": 981,
      "lear": 982,
      "board": 983,
      "Sc": 984,
      "ever": 985,
      "web": 986,
      "Ġout": 987,
      "unction": 988,
      "ulated": 989,
      "ĠCl": 990,
      "iff": 991,
      "hip": 992,
      "ms": 993,
      "play": 994,
      "point": 995,
      "ystem": 996,
      "ĠPar": 997,
      "oss": 998,
      "ky": 999,
      "miss": 1000,
      "wor": 1001,
      "Ġan": 1002,
      "ties": 1003,
      "ingly": 1004,
      "ulation": 1005,
      "urb": 1006,
      "ences": 1007,
      "rate": 1008,
      "rip": 1009,
      "ĠAl": 1010,
      "the": 1011,
      "ave": 1012,
      "do": 1013,
      "ĠAut": 1014,
      "ups": 1015,
      "iffer": 1016,
      "ending": 1017,
      "ished": 1018,
      "Pre": 1019,
      "ger": 1020,
      "Ġpl": 1021,
      "ĠOver": 1022,
      "gu": 1023,
      "met": 1024,
      "run": 1025,
      "Ġab": 1026,
      "ĠSc": 1027,
      "los": 1028,
      "ough": 1029,
      "ude": 1030,
      "ract": 1031,
      "stand": 1032,
      "abil": 1033,
      "ĠPre": 1034,
      "ose": 1035,
      "tract": 1036,
      "duct": 1037,
      "fig": 1038,
      "ole": 1039,
      "ict": 1040,
      "round": 1041,
      "ulate": 1042,
      "ural": 1043,
      "ĠAp": 1044,
      "tical": 1045,
      "ump": 1046,
      "elect": 1047,
      "ification": 1048,
      "ere": 1049,
      "ey": 1050,
      "eep": 1051,
      "lic": 1052,
      "put": 1053,
      "yth": 1054,
      "ze": 1055,
      "Ġem": 1056,
      "til": 1057,
      "ented": 1058,
      "omb": 1059,
      "Ġweb": 1060,
      "Per": 1061,
      "Ġra": 1062,
      "ding": 1063,
      "mit": 1064,
      "leg": 1065,
      "ower": 1066,
      "Pl": 1067,
      "fil": 1068,
      "ox": 1069,
      "sid": 1070,
      "Ġrec": 1071,
      "ura": 1072,
      "ones": 1073,
      "alk": 1074,
      "lex": 1075,
      "omin": 1076,
      "uses": 1077,
      "ampl": 1078,
      "cept": 1079,
      "atory": 1080,
      "mb": 1081,
      "oy": 1082,
      "rated": 1083,
      "word": 1084,
      "ĠQu": 1085,
      "ane": 1086,
      "uck": 1087,
      "Ref": 1088,
      "zed": 1089,
      "orient": 1090,
      "ote": 1091,
      "ded": 1092,
      "Ġass": 1093,
      "inn": 1094,
      "asing": 1095,
      "ends": 1096,
      "Fl": 1097,
      "rest": 1098,
      "tt": 1099,
      "ask": 1100,
      "oms": 1101,
      "char": 1102,
      "aking": 1103,
      "ively": 1104,
      "echn": 1105,
      "Op": 1106,
      "Out": 1107,
      "by": 1108,
      "ced": 1109,
      "ĠPer": 1110,
      "ips": 1111,
      "cap": 1112,
      "inst": 1113,
      "ici": 1114,
      "ĠRef": 1115,
      "irst": 1116,
      "ĠFl": 1117,
      "ruct": 1118,
      "ivers": 1119,
      "ivid": 1120,
      "righ": 1121,
      "AI": 1122,
      "Mod": 1123,
      "ites": 1124,
      "ray": 1125,
      "Ġwh": 1126,
      "pass": 1127,
      "sm": 1128,
      "trans": 1129,
      "ually": 1130,
      "way": 1131,
      "ank": 1132,
      "ision": 1133,
      "Ġsl": 1134,
      "ches": 1135,
      "ime": 1136,
      "imension": 1137,
      "umer": 1138,
      "thes": 1139,
      "oper": 1140,
      "key": 1141,
      "organ": 1142,
      "Or": 1143,
      "iew": 1144,
      "Ġup": 1145,
      "let": 1146,
      "level": 1147,
      "omet": 1148,
      "ĠPl": 1149,
      "Ġfor": 1150,
      "ield": 1151,
      "mis": 1152,
      "oid": 1153,
      "Ġar": 1154,
      "ulating": 1155,
      "uted": 1156,
      "rif": 1157,
      "ements": 1158,
      "istrib": 1159,
      "ender": 1160,
      "ense": 1161,
      "ishing": 1162,
      "class": 1163,
      "Rep": 1164,
      "Ġsw": 1165,
      "ĠOp": 1166,
      "Def": 1167,
      "fin": 1168,
      "asc": 1169,
      "chron": 1170,
      "ads": 1171,
      "amb": 1172,
      "ums": 1173,
      "ops": 1174,
      "Ġbl": 1175,
      "Ġint": 1176,
      "ns": 1177,
      "pres": 1178,
      "port": 1179,
      "self": 1180,
      "vari": 1181,
      "Ġdes": 1182,
      "ĠRep": 1183,
      "Po": 1184,
      "bs": 1185,
      "gener": 1186,
      "ior": 1187,
      "ych": 1188,
      "istic": 1189,
      "Ġmis": 1190,
      "akes": 1191,
      "ands": 1192,
      "etermin": 1193,
      "flow": 1194,
      "fact": 1195,
      "sup": 1196,
      "stit": 1197,
      "ared": 1198,
      "empl": 1199,
      "here": 1200,
      "driven": 1201,
      "pol": 1202,
      "aly": 1203,
      "ices": 1204,
      "ils": 1205,
      "Ġcomm": 1206,
      "utter": 1207,
      "dem": 1208,
      "oph": 1209,
      "ifying": 1210,
      "ransp": 1211,
      "cover": 1212,
      "ustom": 1213,
      "ector": 1214,
      "ential": 1215,
      "gor": 1216,
      "ie": 1217,
      "Ġlo": 1218,
      "estim": 1219,
      "arity": 1220,
      "uting": 1221,
      "ĠAI": 1222,
      "resp": 1223,
      "eak": 1224,
      "ily": 1225,
      "ued": 1226,
      "zing": 1227,
      "Ġev": 1228,
      "inf": 1229,
      "ination": 1230,
      "ints": 1231,
      "ries": 1232,
      "agn": 1233,
      "Ġtrans": 1234,
      "ibility": 1235,
      "ource": 1236,
      "ynchron": 1237,
      "tivity": 1238,
      "specific": 1239,
      "Ass": 1240,
      "Ph": 1241,
      "ots": 1242,
      "Ġit": 1243,
      "acy": 1244,
      "quir": 1245,
      "bit": 1246,
      "cy": 1247,
      "col": 1248,
      "itive": 1249,
      "rating": 1250,
      "sur": 1251,
      "abor": 1252,
      "ables": 1253,
      "ili": 1254,
      "usion": 1255,
      "uman": 1256,
      "ended": 1257,
      "alizes": 1258,
      "alised": 1259,
      "nowled": 1260,
      "Trans": 1261,
      "Ġph": 1262,
      "Ġreg": 1263,
      "code": 1264,
      "'t": 1265,
      "Dep": 1266,
      "Ob": 1267,
      "eh": 1268,
      "gl": 1269,
      "ren": 1270,
      "sk": 1271,
      "tig": 1272,
      "lec": 1273,
      "rom": 1274,
      "Ġref": 1275,
      "ifies": 1276,
      "order": 1277,
      "alism": 1278,
      "ological": 1279,
      "Self": 1280,
      "Tra": 1281,
      "rum": 1282,
      "top": 1283,
      "aces": 1284,
      "ĠSelf": 1285,
      "Bl": 1286,
      "High": 1287,
      "aus": 1288,
      "cod": 1289,
      "ror": 1290,
      "sing": 1291,
      "educ": 1292,
      "ene": 1293,
      "reat": 1294,
      "olution": 1295,
      "user": 1296,
      "Int": 1297,
      "Ġmin": 1298,
      "connec": 1299,
      "coun": 1300,
      "box": 1301,
      "Reg": 1302,
      "ai": 1303,
      "aun": 1304,
      "augh": 1305,
      "eam": 1306,
      "ld": 1307,
      "ests": 1308,
      "rem": 1309,
      "rew": 1310,
      "ching": 1311,
      "ĠTrans": 1312,
      "Ġtra": 1313,
      "For": 1314,
      "fit": 1315,
      "voc": 1316,
      "arn": 1317,
      "itation": 1318,
      "ulates": 1319,
      "acter": 1320,
      "chang": 1321,
      "ameter": 1322,
      "agon": 1323,
      "isting": 1324,
      "ĠBl": 1325,
      "ains": 1326,
      "resh": 1327,
      "ĠHigh": 1328,
      "acks": 1329,
      "ĠOut": 1330,
      "alls": 1331,
      "atively": 1332,
      "tific": 1333,
      "cer": 1334,
      "free": 1335,
      "oul": 1336,
      "overs": 1337,
      "pon": 1338,
      "pag": 1339,
      "prec": 1340,
      "alle": 1341,
      "requ": 1342,
      "raf": 1343,
      "ection": 1344,
      "chem": 1345,
      "ĠAss": 1346,
      "ards": 1347,
      "ours": 1348,
      "aim": 1349,
      "aling": 1350,
      "atur": 1351,
      "road": 1352,
      "unn": 1353,
      "eler": 1354,
      "eling": 1355,
      "iles": 1356,
      "illing": 1357,
      "izer": 1358,
      "ĠDef": 1359,
      "ives": 1360,
      "iber": 1361,
      "encies": 1362,
      "ishes": 1363,
      "ills": 1364,
      "alising": 1365,
      "flu": 1366,
      "bal": 1367,
      "light": 1368,
      "yl": 1369,
      "Ġred": 1370,
      "Ġunder": 1371,
      "Ġself": 1372,
      "ĠReg": 1373,
      "Ġmod": 1374,
      "que": 1375,
      "related": 1376,
      "Comm": 1377,
      "bu": 1378,
      "gress": 1379,
      "ience": 1380,
      "uous": 1381,
      "Ġent": 1382,
      "asting": 1383,
      "iled": 1384,
      "eth": 1385,
      "ows": 1386,
      "ransc": 1387,
      "ĠInt": 1388,
      "eful": 1389,
      "angu": 1390,
      "alise": 1391,
      "oft": 1392,
      "imensional": 1393,
      "day": 1394,
      "fram": 1395,
      "get": 1396,
      "hand": 1397,
      "rut": 1398,
      "Ġam": 1399,
      "aring": 1400,
      "ided": 1401,
      "ther": 1402,
      "ĠMod": 1403,
      "Spec": 1404,
      "eff": 1405,
      "go": 1406,
      "hib": 1407,
      "itions": 1408,
      "tri": 1409,
      "uit": 1410,
      "ways": 1411,
      "zer": 1412,
      "Ġy": 1413,
      "roup": 1414,
      "stra": 1415,
      "elled": 1416,
      "utes": 1417,
      "using": 1418,
      "riend": 1419,
      "ĠDep": 1420,
      "ids": 1421,
      "ogn": 1422,
      "produc": 1423,
      "iving": 1424,
      "ĠOb": 1425,
      "antly": 1426,
      "evel": 1427,
      "velop": 1428,
      "plement": 1429,
      "iously": 1430,
      "Dri": 1431,
      "On": 1432,
      "break": 1433,
      "fac": 1434,
      "ris": 1435,
      "alog": 1436,
      "rough": 1437,
      "unic": 1438,
      "loud": 1439,
      "ĠPh": 1440,
      "aging": 1441,
      "trol": 1442,
      "Rel": 1443,
      "Wh": 1444,
      "high": 1445,
      "lin": 1446,
      "Ġacc": 1447,
      "Ġcol": 1448,
      "Ġpo": 1449,
      "depend": 1450,
      "iment": 1451,
      "epar": 1452,
      "ived": 1453,
      "ĠWh": 1454,
      "uster": 1455,
      "igned": 1456,
      "ails": 1457,
      "dition": 1458,
      "Cross": 1459,
      "eigh": 1460,
      "set": 1461,
      "alf": 1462,
      "ĠCross": 1463,
      "emp": 1464,
      "aged": 1465,
      "plain": 1466,
      "ĠTra": 1467,
      "Ġai": 1468,
      "crimin": 1469,
      "other": 1470,
      "Di": 1471,
      "Man": 1472,
      "Off": 1473,
      "cing": 1474,
      "den": 1475,
      "dle": 1476,
      "list": 1477,
      "uro": 1478,
      "well": 1479,
      "zation": 1480,
      "icient": 1481,
      "uls": 1482,
      "ibly": 1483,
      "atching": 1484,
      "ces": 1485,
      "fess": 1486,
      "ik": 1487,
      "micro": 1488,
      "allow": 1489,
      "roll": 1490,
      "iling": 1491,
      "dev": 1492,
      "Ġmicro": 1493,
      "Ġins": 1494,
      "ĠOr": 1495,
      "cript": 1496,
      "Cor": 1497,
      "Col": 1498,
      "Sl": 1499,
      "jo": 1500,
      "tw": 1501,
      "tes": 1502,
      "ype": 1503,
      "Ġag": 1504,
      "inform": 1505,
      "aries": 1506,
      "une": 1507,
      "ĠComm": 1508,
      "dex": 1509,
      "Ġdi": 1510,
      "impl": 1511,
      "apt": 1512,
      "irt": 1513,
      "Ġind": 1514,
      "Ġinf": 1515,
      "ĠFor": 1516,
      "Ġhigh": 1517,
      "ugg": 1518,
      "ava": 1519,
      "udes": 1520,
      "sequ": 1521,
      "anced": 1522,
      "ashing": 1523,
      "echan": 1524,
      "mark": 1525,
      "plication": 1526,
      "oriented": 1527,
      "Rev": 1528,
      "oes": 1529,
      "rates": 1530,
      "writ": 1531,
      "oler": 1532,
      "ires": 1533,
      "pose": 1534,
      "PT": 1535,
      "atically": 1536,
      "bol": 1537,
      "cle": 1538,
      "ium": 1539,
      "sum": 1540,
      "sych": 1541,
      "uch": 1542,
      "onic": 1543,
      "atri": 1544,
      "reed": 1545,
      "eled": 1546,
      "ilt": 1547,
      "Ġcor": 1548,
      "Ġcom": 1549,
      "Ġsk": 1550,
      "ollow": 1551,
      "ĠSl": 1552,
      "tern": 1553,
      "ĠDi": 1554,
      "ides": 1555,
      "Ġmon": 1556,
      "ublic": 1557,
      "ctu": 1558,
      "ears": 1559,
      "rypt": 1560,
      "ront": 1561,
      "rows": 1562,
      "right": 1563,
      "eer": 1564,
      "ov": 1565,
      "py": 1566,
      "ras": 1567,
      "ĠY": 1568,
      "abl": 1569,
      "rim": 1570,
      "ider": 1571,
      "ody": 1572,
      "Ġdef": 1573,
      "Mis": 1574,
      "au": 1575,
      "hood": 1576,
      "tle": 1577,
      "ule": 1578,
      "zes": 1579,
      "ung": 1580,
      "Ġsm": 1581,
      "Ġsur": 1582,
      "erson": 1583,
      "ĠCol": 1584,
      "ceed": 1585,
      "ument": 1586,
      "ĠMis": 1587,
      "Ġrel": 1588,
      "oted": 1589,
      "aves": 1590,
      "earch": 1591,
      "bound": 1592,
      "aches": 1593,
      "pret": 1594,
      "struc": 1595,
      "struction": 1596,
      "irect": 1597,
      "ength": 1598,
      "volution": 1599,
      "Micro": 1600,
      "iers": 1601,
      "js": 1602,
      "sn": 1603,
      "side": 1604,
      "Ġel": 1605,
      "rep": 1606,
      "unc": 1607,
      "ĠPo": 1608,
      "ĠMicro": 1609,
      "oting": 1610,
      "prov": 1611,
      "oke": 1612,
      "head": 1613,
      "Ag": 1614,
      "mor": 1615,
      "ode": 1616,
      "vity": 1617,
      "erc": 1618,
      "erg": 1619,
      "onym": 1620,
      "tible": 1621,
      "ingle": 1622,
      "uns": 1623,
      "step": 1624,
      "ected": 1625,
      "elt": 1626,
      "tered": 1627,
      "imp": 1628,
      "ticip": 1629,
      "istor": 1630,
      "rant": 1631,
      "prox": 1632,
      "earing": 1633,
      "oken": 1634,
      "ologically": 1635,
      "ography": 1636,
      "anguage": 1637,
      "Text": 1638,
      "iable": 1639,
      "oom": 1640,
      "ypo": 1641,
      "Ġund": 1642,
      "ather": 1643,
      "reh": 1644,
      "arb": 1645,
      "Ġsn": 1646,
      "Ġsup": 1647,
      "Ġspec": 1648,
      "ĠRev": 1649,
      "posed": 1650,
      "position": 1651,
      "verse": 1652,
      "'d": 1653,
      "Gra": 1654,
      "Sk": 1655,
      "To": 1656,
      "cas": 1657,
      "ira": 1658,
      "ls": 1659,
      "mind": 1660,
      "oub": 1661,
      "ql": 1662,
      "war": 1663,
      "Ġatt": 1664,
      "reas": 1665,
      "ulations": 1666,
      "ĠSk": 1667,
      "ĠRel": 1668,
      "apping": 1669,
      "ident": 1670,
      "ples": 1671,
      "plac": 1672,
      "ired": 1673,
      "otes": 1674,
      "forming": 1675,
      "ashes": 1676,
      "tify": 1677,
      "keep": 1678,
      "axim": 1679,
      "ought": 1680,
      "Net": 1681,
      "Sw": 1682,
      "bi": 1683,
      "dig": 1684,
      "long": 1685,
      "sym": 1686,
      "enet": 1687,
      "ĠSw": 1688,
      "iding": 1689,
      "thread": 1690,
      "ested": 1691,
      "part": 1692,
      "At": 1693,
      "Min": 1694,
      "bing": 1695,
      "cat": 1696,
      "clos": 1697,
      "ds": 1698,
      "det": 1699,
      "host": 1700,
      "mers": 1701,
      "oad": 1702,
      "pet": 1703,
      "pens": 1704,
      "rush": 1705,
      "only": 1706,
      "onom": 1707,
      "tice": 1708,
      "ores": 1709,
      "itor": 1710,
      "entr": 1711,
      "olic": 1712,
      "eting": 1713,
      "uter": 1714,
      "uss": 1715,
      "lob": 1716,
      "tering": 1717,
      "emi": 1718,
      "imil": 1719,
      "ĠMin": 1720,
      "ope": 1721,
      "ife": 1722,
      "cont": 1723,
      "Ġgra": 1724,
      "enced": 1725,
      "claim": 1726,
      "aching": 1727,
      "ancy": 1728,
      "lessly": 1729,
      "entif": 1730,
      "ashed": 1731,
      "atched": 1732,
      "ynam": 1733,
      "ĠUp": 1734,
      "ouch": 1735,
      "Des": 1736,
      "Imp": 1737,
      "Time": 1738,
      "found": 1739,
      "hes": 1740,
      "ux": 1741,
      "uz": 1742,
      "inv": 1743,
      "itting": 1744,
      "unk": 1745,
      "ĠCor": 1746,
      "amed": 1747,
      "emin": 1748,
      "plan": 1749,
      "Ġback": 1750,
      "count": 1751,
      "ĠImp": 1752,
      "rack": 1753,
      "curr": 1754,
      "Ab": 1755,
      "Dem": 1756,
      "Sup": 1757,
      "cross": 1758,
      "eti": 1759,
      "lab": 1760,
      "ned": 1761,
      "path": 1762,
      "uing": 1763,
      "wise": 1764,
      "Ġir": 1765,
      "ont": 1766,
      "tives": 1767,
      "ention": 1768,
      "omes": 1769,
      "Ġcross": 1770,
      "loss": 1771,
      "ames": 1772,
      "ĠAb": 1773,
      "ĠAg": 1774,
      "ategor": 1775,
      "ott": 1776,
      "range": 1777,
      "ouse": 1778,
      "iveness": 1779,
      "Ġgl": 1780,
      "acking": 1781,
      "clus": 1782,
      "rection": 1783,
      "arily": 1784,
      "afe": 1785,
      "nov": 1786,
      "ception": 1787,
      "ifferenti": 1788,
      "Mon": 1789,
      "Ret": 1790,
      "Rem": 1791,
      "cup": 1792,
      "dist": 1793,
      "rink": 1794,
      "tot": 1795,
      "ales": 1796,
      "ature": 1797,
      "rog": 1798,
      "enter": 1799,
      "aby": 1800,
      "Inf": 1801,
      "ĠRet": 1802,
      "ĠRem": 1803,
      "ĠDes": 1804,
      "apit": 1805,
      "Ġman": 1806,
      "osition": 1807,
      "contin": 1808,
      "config": 1809,
      "ights": 1810,
      "oking": 1811,
      "peed": 1812,
      "NN": 1813,
      "Sur": 1814,
      "aul": 1815,
      "coll": 1816,
      "ean": 1817,
      "gle": 1818,
      "lar": 1819,
      "mut": 1820,
      "uation": 1821,
      "utions": 1822,
      "yber": 1823,
      "Ġer": 1824,
      "estion": 1825,
      "tis": 1826,
      "leep": 1827,
      "itable": 1828,
      "room": 1829,
      "roph": 1830,
      "lying": 1831,
      "ecting": 1832,
      "activ": 1833,
      "ĠSur": 1834,
      "Ġpri": 1835,
      "ament": 1836,
      "ager": 1837,
      "imin": 1838,
      "ĠDem": 1839,
      "ĠMan": 1840,
      "ird": 1841,
      "esting": 1842,
      "otor": 1843,
      "acked": 1844,
      "uccess": 1845,
      "aving": 1846,
      "oked": 1847,
      "ordin": 1848,
      "alises": 1849,
      "ached": 1850,
      "ancing": 1851,
      "actor": 1852,
      "arian": 1853,
      "atches": 1854,
      "tified": 1855,
      "ixed": 1856,
      "engine": 1857,
      "vision": 1858,
      "ython": 1859,
      "Data": 1860,
      "Sm": 1861,
      "een": 1862,
      "function": 1863,
      "gr": 1864,
      "ler": 1865,
      "rin": 1866,
      "ral": 1867,
      "Ġoff": 1868,
      "initi": 1869,
      "ench": 1870,
      "alling": 1871,
      "alled": 1872,
      "ĠSm": 1873,
      "uts": 1874,
      "riev": 1875,
      "lot": 1876,
      "Ġdown": 1877,
      "Ġrep": 1878,
      "oses": 1879,
      "isted": 1880,
      "conf": 1881,
      "Under": 1882,
      "asses": 1883,
      "ĠInf": 1884,
      "ĠUnder": 1885,
      "Driven": 1886,
      "Form": 1887,
      "Gener": 1888,
      "One": 1889,
      "dat": 1890,
      "del": 1891,
      "fort": 1892,
      "just": 1893,
      "mic": 1894,
      "map": 1895,
      "pi": 1896,
      "pred": 1897,
      "Ġas": 1898,
      "onal": 1899,
      "entic": 1900,
      "stream": 1901,
      "urity": 1902,
      "chain": 1903,
      "check": 1904,
      "termin": 1905,
      "amet": 1906,
      "emory": 1907,
      "Ġdel": 1908,
      "ĠAt": 1909,
      "opy": 1910,
      "owered": 1911,
      "aint": 1912,
      "mented": 1913,
      "ival": 1914,
      "scrib": 1915,
      "Ġcont": 1916,
      "inding": 1917,
      "ailing": 1918,
      "veness": 1919,
      "Ġequ": 1920,
      "like": 1921,
      "Com": 1922,
      "eet": 1923,
      "ios": 1924,
      "iance": 1925,
      "oct": 1926,
      "table": 1927,
      "Ġor": 1928,
      "arri": 1929,
      "rol": 1930,
      "stall": 1931,
      "urr": 1932,
      "Ġpres": 1933,
      "Ġdist": 1934,
      "exper": 1935,
      "ĠMon": 1936,
      "Ġtw": 1937,
      "ipped": 1938,
      "outs": 1939,
      "Ġaff": 1940,
      "airs": 1941,
      "service": 1942,
      "Auto": 1943,
      "ĠAuto": 1944,
      "proxim": 1945,
      "'ll": 1946,
      "32": 1947,
      "Am": 1948,
      "Back": 1949,
      "ders": 1950,
      "dimensional": 1951,
      "gn": 1952,
      "graph": 1953,
      "ians": 1954,
      "ma": 1955,
      "ove": 1956,
      "oice": 1957,
      "super": 1958,
      "Ġenc": 1959,
      "Ġemb": 1960,
      "Ġapp": 1961,
      "alc": 1962,
      "aled": 1963,
      "ither": 1964,
      "ects": 1965,
      "illed": 1966,
      "ĠSup": 1967,
      "ety": 1968,
      "ĠAm": 1969,
      "very": 1970,
      "Ġform": 1971,
      "assemb": 1972,
      "inear": 1973,
      "aved": 1974,
      "ĠGra": 1975,
      "encing": 1976,
      "udio": 1977,
      "forms": 1978,
      "rick": 1979,
      "ologist": 1980,
      "Ġrest": 1981,
      "Acc": 1982,
      "ploy": 1983,
      "learning": 1984,
      "nowledge": 1985,
      "Web": 1986,
      "aid": 1987,
      "gan": 1988,
      "ycl": 1989,
      "Ġat": 1990,
      "ony": 1991,
      "isu": 1992,
      "ster": 1993,
      "ĠCom": 1994,
      "ading": 1995,
      "place": 1996,
      "mental": 1997,
      "Ġge": 1998,
      "ĠWeb": 1999,
      "scale": 2000,
      "ressed": 2001,
      "cale": 2002,
      "eek": 2003,
      "'ve": 2004,
      "64": 2005,
      "El": 2006,
      "Ge": 2007,
      "Ter": 2008,
      "bed": 2009,
      "greg": 2010,
      "ias": 2011,
      "itim": 2012,
      "not": 2013,
      "pect": 2014,
      "rast": 2015,
      "system": 2016,
      "lection": 2017,
      "Ġcoll": 2018,
      "Ġsuper": 2019,
      "ĠSpec": 2020,
      "loy": 2021,
      "ades": 2022,
      "emor": 2023,
      "Ġdet": 2024,
      "vert": 2025,
      "apor": 2026,
      "tick": 2027,
      "thy": 2028,
      "exu": 2029,
      "opular": 2030,
      "osp": 2031,
      "ĠBack": 2032,
      "Ġwell": 2033,
      "ruc": 2034,
      "ĠGe": 2035,
      "fulness": 2036,
      "alistic": 2037,
      "achine": 2038,
      "rong": 2039,
      "ailed": 2040,
      "direct": 2041,
      "aws": 2042,
      "ynthes": 2043,
      "End": 2044,
      "weet": 2045,
      "compl": 2046,
      "troll": 2047,
      "ometric": 2048,
      "Down": 2049,
      "ball": 2050,
      "data": 2051,
      "eight": 2052,
      "gy": 2053,
      "gen": 2054,
      "hed": 2055,
      "oon": 2056,
      "uration": 2057,
      "vit": 2058,
      "reen": 2059,
      "lean": 2060,
      "asted": 2061,
      "aming": 2062,
      "iring": 2063,
      "aining": 2064,
      "ipping": 2065,
      "Ġconf": 2066,
      "plex": 2067,
      "ounter": 2068,
      "valid": 2069,
      "Ġleg": 2070,
      "processing": 2071,
      "books": 2072,
      "mission": 2073,
      "Lear": 2074,
      "Level": 2075,
      "dom": 2076,
      "face": 2077,
      "friend": 2078,
      "gers": 2079,
      "iest": 2080,
      "ially": 2081,
      "tun": 2082,
      "vant": 2083,
      "oned": 2084,
      "isation": 2085,
      "ective": 2086,
      "chool": 2087,
      "ams": 2088,
      "agement": 2089,
      "Ġdat": 2090,
      "apped": 2091,
      "Ġmet": 2092,
      "umps": 2093,
      "optim": 2094,
      "odes": 2095,
      "ubl": 2096,
      "owed": 2097,
      "ĠEl": 2098,
      "program": 2099,
      "Ġwork": 2100,
      "ensor": 2101,
      "ĠOn": 2102,
      "Ġno": 2103,
      "avor": 2104,
      "ego": 2105,
      "angle": 2106,
      "ells": 2107,
      "ords": 2108,
      "atives": 2109,
      "ache": 2110,
      "tifying": 2111,
      "tainer": 2112,
      "jective": 2113,
      "ographic": 2114,
      "eature": 2115,
      "beh": 2116,
      "ĠAcc": 2117,
      "Low": 2118,
      "bar": 2119,
      "flo": 2120,
      "lines": 2121,
      "sign": 2122,
      "tre": 2123,
      "uild": 2124,
      "wind": 2125,
      "Ġu": 2126,
      "inking": 2127,
      "orph": 2128,
      "olar": 2129,
      "etting": 2130,
      "develop": 2131,
      "appro": 2132,
      "osed": 2133,
      "Ġtop": 2134,
      "ĠLow": 2135,
      "ship": 2136,
      "ressing": 2137,
      "points": 2138,
      "comple": 2139,
      "forward": 2140,
      "ported": 2141,
      "++": 2142,
      "Equ": 2143,
      "Pri": 2144,
      "Red": 2145,
      "Tw": 2146,
      "The": 2147,
      "bor": 2148,
      "diss": 2149,
      "iev": 2150,
      "kn": 2151,
      "land": 2152,
      "pur": 2153,
      "sens": 2154,
      "tree": 2155,
      "vir": 2156,
      "ĠZ": 2157,
      "ert": 2158,
      "alist": 2159,
      "oriti": 2160,
      "roid": 2161,
      "ules": 2162,
      "ultic": 2163,
      "action": 2164,
      "acts": 2165,
      "abled": 2166,
      "ilit": 2167,
      "izers": 2168,
      "izations": 2169,
      "ĠPri": 2170,
      "agram": 2171,
      "Ġdiss": 2172,
      "ummar": 2173,
      "exist": 2174,
      "oping": 2175,
      "irm": 2176,
      "ĠTw": 2177,
      "ĠEqu": 2178,
      "Ġinv": 2179,
      "ĠOff": 2180,
      "uded": 2181,
      "ellig": 2182,
      "ourn": 2183,
      "illion": 2184,
      "rying": 2185,
      "post": 2186,
      "Ġdem": 2187,
      "entially": 2188,
      "racy": 2189,
      "vestig": 2190,
      "ount": 2191,
      "tains": 2192,
      "portion": 2193,
      "ulls": 2194,
      "design": 2195,
      "autom": 2196,
      "ocker": 2197,
      "pression": 2198,
      "linear": 2199,
      "rupt": 2200,
      "words": 2201,
      "ividu": 2202,
      "All": 2203,
      "LL": 2204,
      "Lo": 2205,
      "Loc": 2206,
      "Met": 2207,
      "Top": 2208,
      "hol": 2209,
      "ml": 2210,
      "mas": 2211,
      "pic": 2212,
      "sess": 2213,
      "squ": 2214,
      "Ġloc": 2215,
      "inning": 2216,
      "orts": 2217,
      "arp": 2218,
      "aracter": 2219,
      "Ġcur": 2220,
      "Ġsym": 2221,
      "ample": 2222,
      "ĠMet": 2223,
      "ĠText": 2224,
      "oding": 2225,
      "control": 2226,
      "prot": 2227,
      "aked": 2228,
      "resent": 2229,
      "aths": 2230,
      "ifications": 2231,
      "ounds": 2232,
      "weight": 2233,
      "author": 2234,
      "respond": 2235,
      "Att": 2236,
      "Bo": 2237,
      "Coll": 2238,
      "Dist": 2239,
      "GPT": 2240,
      "No": 2241,
      "Super": 2242,
      "Wor": 2243,
      "ault": 2244,
      "dens": 2245,
      "ials": 2246,
      "lig": 2247,
      "liter": 2248,
      "so": 2249,
      "yle": 2250,
      "Ġon": 2251,
      "Ġav": 2252,
      "atform": 2253,
      "istically": 2254,
      "storm": 2255,
      "stanti": 2256,
      "ĠSuper": 2257,
      "ĠColl": 2258,
      "usiness": 2259,
      "deb": 2260,
      "term": 2261,
      "ems": 2262,
      "ematic": 2263,
      "ĠRed": 2264,
      "ĠDist": 2265,
      "aph": 2266,
      "aper": 2267,
      "umin": 2268,
      "opol": 2269,
      "ĠTer": 2270,
      "ift": 2271,
      "ifier": 2272,
      "query": 2273,
      "oder": 2274,
      "ĠForm": 2275,
      "Ġgu": 2276,
      "Ġgener": 2277,
      "antas": 2278,
      "ework": 2279,
      "Ġcons": 2280,
      "eart": 2281,
      "uding": 2282,
      "ĠNo": 2283,
      "Cont": 2284,
      "ĠCont": 2285,
      "alisation": 2286,
      "loaded": 2287,
      "medi": 2288,
      "tification": 2289,
      "atrix": 2290,
      "uzz": 2291,
      "Det": 2292,
      "Free": 2293,
      "Hand": 2294,
      "Rest": 2295,
      "Serv": 2296,
      "Val": 2297,
      "Work": 2298,
      "aug": 2299,
      "can": 2300,
      "case": 2301,
      "eor": 2302,
      "gru": 2303,
      "iqu": 2304,
      "mig": 2305,
      "norm": 2306,
      "Ġo": 2307,
      "erb": 2308,
      "ital": 2309,
      "start": 2310,
      "empt": 2311,
      "ĠRest": 2312,
      "idity": 2313,
      "Ġmo": 2314,
      "Ġmed": 2315,
      "ume": 2316,
      "proc": 2317,
      "Ġhand": 2318,
      "ained": 2319,
      "Ġne": 2320,
      "full": 2321,
      "regular": 2322,
      "Gu": 2323,
      "Hyper": 2324,
      "IP": 2325,
      "Med": 2326,
      "Pass": 2327,
      "Well": 2328,
      "aver": 2329,
      "crib": 2330,
      "core": 2331,
      "foc": 2332,
      "gg": 2333,
      "ike": 2334,
      "lass": 2335,
      "new": 2336,
      "och": 2337,
      "tech": 2338,
      "turn": 2339,
      "Ġver": 2340,
      "oning": 2341,
      "orch": 2342,
      "ories": 2343,
      "arant": 2344,
      "ister": 2345,
      "ulator": 2346,
      "econd": 2347,
      "ationally": 2348,
      "eted": 2349,
      "ether": 2350,
      "utr": 2351,
      "Ġpred": 2352,
      "vex": 2353,
      "oped": 2354,
      "osc": 2355,
      "rang": 2356,
      "rants": 2357,
      "enders": 2358,
      "prove": 2359,
      "ighting": 2360,
      "ĠHyper": 2361,
      "orship": 2362,
      "Ġgo": 2363,
      "ugging": 2364,
      "ĠWell": 2365,
      "scal": 2366,
      "ĠGener": 2367,
      "times": 2368,
      "ryp": 2369,
      "integ": 2370,
      "pool": 2371,
      "lessness": 2372,
      "ologies": 2373,
      "ologists": 2374,
      "parameter": 2375,
      "rowd": 2376,
      "armed": 2377,
      "tained": 2378,
      "Ġimp": 2379,
      "random": 2380,
      "ircum": 2381,
      "ampling": 2382,
      "present": 2383,
      "ypothes": 2384,
      "Aff": 2385,
      "Dev": 2386,
      "Ev": 2387,
      "Long": 2388,
      "Ne": 2389,
      "OS": 2390,
      "ees": 2391,
      "fall": 2392,
      "file": 2393,
      "made": 2394,
      "rite": 2395,
      "spl": 2396,
      "suff": 2397,
      "Ġz": 2398,
      "Ġoc": 2399,
      "Ġall": 2400,
      "Ġann": 2401,
      "Ġlog": 2402,
      "itter": 2403,
      "rooms": 2404,
      "utable": 2405,
      "adi": 2406,
      "ĠAff": 2407,
      "ĠDet": 2408,
      "ĠDown": 2409,
      "ĠData": 2410,
      "umm": 2411,
      "through": 2412,
      "pled": 2413,
      "open": 2414,
      "Ġfin": 2415,
      "osing": 2416,
      "ĠEv": 2417,
      "shot": 2418,
      "resses": 2419,
      "Ġdev": 2420,
      "raction": 2421,
      "value": 2422,
      "wards": 2423,
      "layer": 2424,
      "Class": 2425,
      "raft": 2426,
      "dependent": 2427,
      "16": 2428,
      "PU": 2429,
      "aith": 2430,
      "ause": 2431,
      "bot": 2432,
      "cell": 2433,
      "cern": 2434,
      "draw": 2435,
      "fe": 2436,
      "human": 2437,
      "hentic": 2438,
      "language": 2439,
      "mpt": 2440,
      "oo": 2441,
      "techn": 2442,
      "inting": 2443,
      "eration": 2444,
      "eries": 2445,
      "enef": 2446,
      "orted": 2447,
      "arc": 2448,
      "itect": 2449,
      "icon": 2450,
      "roc": 2451,
      "ros": 2452,
      "ulators": 2453,
      "eline": 2454,
      "acing": 2455,
      "Ġsol": 2456,
      "ury": 2457,
      "etch": 2458,
      "ritic": 2459,
      "Ġpost": 2460,
      "izable": 2461,
      "add": 2462,
      "adic": 2463,
      "ĠAtt": 2464,
      "plor": 2465,
      "Ġfull": 2466,
      "oded": 2467,
      "Ġtext": 2468,
      "ocument": 2469,
      "propag": 2470,
      "ĠOne": 2471,
      "coura": 2472,
      "ugs": 2473,
      "avig": 2474,
      "avour": 2475,
      "Cons": 2476,
      "ĠCons": 2477,
      "reci": 2478,
      "rectional": 2479,
      "aste": 2480,
      "alists": 2481,
      "rowser": 2482,
      "ounded": 2483,
      "answ": 2484,
      "arming": 2485,
      "olds": 2486,
      "ports": 2487,
      "jection": 2488,
      "loading": 2489,
      "person": 2490,
      "atisf": 2491,
      "eliev": 2492,
      "metric": 2493,
      "istribution": 2494,
      "oftware": 2495,
      "egoti": 2496,
      "Eff": 2497,
      "Key": 2498,
      "Post": 2499,
      "Sol": 2500,
      "Squ": 2501,
      "dd": 2502,
      "pan": 2503,
      "pace": 2504,
      "rer": 2505,
      "rub": 2506,
      "rass": 2507,
      "ĠQ": 2508,
      "Ġter": 2509,
      "Ġast": 2510,
      "Ġlow": 2511,
      "Ġarch": 2512,
      "Ġelect": 2513,
      "ester": 2514,
      "atable": 2515,
      "orrow": 2516,
      "ares": 2517,
      "itted": 2518,
      "rable": 2519,
      "stage": 2520,
      "ecess": 2521,
      "acted": 2522,
      "acting": 2523,
      "Ġche": 2524,
      "Ġsign": 2525,
      "urt": 2526,
      "amm": 2527,
      "ĠPost": 2528,
      "ĠTop": 2529,
      "conven": 2530,
      "aying": 2531,
      "enses": 2532,
      "ensive": 2533,
      "ĠHand": 2534,
      "spect": 2535,
      "ĠLL": 2536,
      "ĠLo": 2537,
      "ĠLoc": 2538,
      "ĠLong": 2539,
      "ĠWork": 2540,
      "ĠNe": 2541,
      "inds": 2542,
      "inder": 2543,
      "minist": 2544,
      "posing": 2545,
      "version": 2546,
      "force": 2547,
      "lected": 2548,
      "Point": 2549,
      "factor": 2550,
      "change": 2551,
      "Emb": 2552,
      "Mo": 2553,
      "Ro": 2554,
      "born": 2555,
      "ci": 2556,
      "care": 2557,
      "eap": 2558,
      "first": 2559,
      "ground": 2560,
      "lers": 2561,
      "ner": 2562,
      "oing": 2563,
      "power": 2564,
      "stim": 2565,
      "uated": 2566,
      "Ġi": 2567,
      "Ġid": 2568,
      "Ġend": 2569,
      "Ġanti": 2570,
      "inted": 2571,
      "onder": 2572,
      "till": 2573,
      "enn": 2574,
      "alloc": 2575,
      "alys": 2576,
      "arter": 2577,
      "itated": 2578,
      "asts": 2579,
      "astic": 2580,
      "unct": 2581,
      "str": 2582,
      "iler": 2583,
      "utt": 2584,
      "utor": 2585,
      "aded": 2586,
      "Inst": 2587,
      "agne": 2588,
      "agger": 2589,
      "ĠRo": 2590,
      "plied": 2591,
      "ĠMed": 2592,
      "irl": 2593,
      "owing": 2594,
      "Ġinst": 2595,
      "ocra": 2596,
      "ogle": 2597,
      "mentation": 2598,
      "aker": 2599,
      "ruit": 2600,
      "ivity": 2601,
      "ĠGu": 2602,
      "Conf": 2603,
      "obile": 2604,
      "ĠConf": 2605,
      "ference": 2606,
      "awn": 2607,
      "taining": 2608,
      "ĠEnd": 2609,
      "duction": 2610,
      "anned": 2611,
      "ithm": 2612,
      "crip": 2613,
      "loads": 2614,
      "Arch": 2615,
      "ypes": 2616,
      "ructure": 2617,
      "istingu": 2618,
      "allel": 2619,
      "Specific": 2620,
      "fession": 2621,
      "written": 2622,
      "Book": 2623,
      "Elect": 2624,
      "Fin": 2625,
      "Full": 2626,
      "Gl": 2627,
      "PS": 2628,
      "Pres": 2629,
      "Prec": 2630,
      "Tun": 2631,
      "aj": 2632,
      "bet": 2633,
      "block": 2634,
      "cut": 2635,
      "cuss": 2636,
      "dest": 2637,
      "determin": 2638,
      "pu": 2639,
      "sour": 2640,
      "tru": 2641,
      "Ġkey": 2642,
      "inct": 2643,
      "index": 2644,
      "eri": 2645,
      "erver": 2646,
      "tition": 2647,
      "alities": 2648,
      "isc": 2649,
      "asp": 2650,
      "rations": 2651,
      "ental": 2652,
      "erse": 2653,
      "oles": 2654,
      "ĠSol": 2655,
      "Ġpass": 2656,
      "ader": 2657,
      "amer": 2658,
      "Inv": 2659,
      "ĠAll": 2660,
      "Ġmar": 2661,
      "umes": 2662,
      "umble": 2663,
      "exam": 2664,
      "Ġrem": 2665,
      "ods": 2666,
      "Ġbe": 2667,
      "Ġtri": 2668,
      "ĠFin": 2669,
      "ĠFull": 2670,
      "aken": 2671,
      "andard": 2672,
      "rud": 2673,
      "arding": 2674,
      "phones": 2675,
      "Ġuns": 2676,
      "training": 2677,
      "ĠGl": 2678,
      "igning": 2679,
      "poses": 2680,
      "typ": 2681,
      "ularity": 2682,
      "ounding": 2683,
      "comb": 2684,
      "coming": 2685,
      "defined": 2686,
      "standing": 2687,
      "urable": 2688,
      "Open": 2689,
      "ĠOpen": 2690,
      "ehav": 2691,
      "ould": 2692,
      "Be": 2693,
      "First": 2694,
      "Oc": 2695,
      "QL": 2696,
      "aud": 2697,
      "bility": 2698,
      "clo": 2699,
      "date": 2700,
      "fast": 2701,
      "fire": 2702,
      "field": 2703,
      "grow": 2704,
      "hab": 2705,
      "hard": 2706,
      "hyper": 2707,
      "iom": 2708,
      "iol": 2709,
      "jac": 2710,
      "joy": 2711,
      "matic": 2712,
      "oic": 2713,
      "page": 2714,
      "prac": 2715,
      "pons": 2716,
      "rill": 2717,
      "site": 2718,
      "ui": 2719,
      "vation": 2720,
      "vable": 2721,
      "walk": 2722,
      "yb": 2723,
      "Ġti": 2724,
      "tious": 2725,
      "tiveness": 2726,
      "alib": 2727,
      "alse": 2728,
      "reath": 2729,
      "leas": 2730,
      "radi": 2731,
      "rains": 2732,
      "stop": 2733,
      "elp": 2734,
      "ilos": 2735,
      "rief": 2736,
      "chec": 2737,
      "amps": 2738,
      "imit": 2739,
      "umping": 2740,
      "pling": 2741,
      "ĠMo": 2742,
      "Ġflo": 2743,
      "Ġbo": 2744,
      "ĠEmb": 2745,
      "Ġinc": 2746,
      "rance": 2747,
      "Ġhyper": 2748,
      "Ġwor": 2749,
      "ighted": 2750,
      "ĠInst": 2751,
      "arded": 2752,
      "ivil": 2753,
      "tradic": 2754,
      "inded": 2755,
      "ustri": 2756,
      "formation": 2757,
      "ordered": 2758,
      "seud": 2759,
      "Ġval": 2760,
      "Exper": 2761,
      "armon": 2762,
      "mooth": 2763,
      "jected": 2764,
      "correct": 2765,
      "ĠArch": 2766,
      "ealth": 2767,
      "works": 2768,
      "mitted": 2769,
      "ampled": 2770,
      "Optim": 2771,
      "iciency": 2772,
      "connected": 2773,
      "Cur": 2774,
      "Del": 2775,
      "Diss": 2776,
      "Flo": 2777,
      "ID": 2778,
      "Leg": 2779,
      "Of": 2780,
      "Sn": 2781,
      "Stra": 2782,
      "bow": 2783,
      "gent": 2784,
      "group": 2785,
      "iver": 2786,
      "neg": 2787,
      "sim": 2788,
      "seg": 2789,
      "syn": 2790,
      "inger": 2791,
      "lem": 2792,
      "icks": 2793,
      "roub": 2794,
      "race": 2795,
      "unity": 2796,
      "enting": 2797,
      "elong": 2798,
      "abs": 2799,
      "Ġsqu": 2800,
      "ĠSn": 2801,
      "ĠStra": 2802,
      "ĠCur": 2803,
      "rimin": 2804,
      "Ġprec": 2805,
      "ĠPres": 2806,
      "agin": 2807,
      "Ġdig": 2808,
      "Ġdest": 2809,
      "ims": 2810,
      "ĠDel": 2811,
      "ĠDiss": 2812,
      "ape": 2813,
      "idly": 2814,
      "tices": 2815,
      "Ġret": 2816,
      "quire": 2817,
      "ĠElect": 2818,
      "ĠInv": 2819,
      "ĠLeg": 2820,
      "ews": 2821,
      "Ġstra": 2822,
      "Ġlong": 2823,
      "rame": 2824,
      "lows": 2825,
      "locks": 2826,
      "locking": 2827,
      "ission": 2828,
      "touch": 2829,
      "Process": 2830,
      "away": 2831,
      "Check": 2832,
      "come": 2833,
      "model": 2834,
      "server": 2835,
      "ĠKey": 2836,
      "Ġopen": 2837,
      "boards": 2838,
      "inner": 2839,
      "friendly": 2840,
      "'re": 2841,
      "20": 2842,
      "AR": 2843,
      "Bit": 2844,
      "Cap": 2845,
      "Dig": 2846,
      "Emp": 2847,
      "Ori": 2848,
      "Pred": 2849,
      "SD": 2850,
      "Sec": 2851,
      "Tim": 2852,
      "User": 2853,
      "ait": 2854,
      "car": 2855,
      "cast": 2856,
      "eem": 2857,
      "fter": 2858,
      "how": 2859,
      "house": 2860,
      "iatur": 2861,
      "ltra": 2862,
      "law": 2863,
      "link": 2864,
      "pond": 2865,
      "powered": 2866,
      "task": 2867,
      "uate": 2868,
      "ufact": 2869,
      "win": 2870,
      "Ġx": 2871,
      "Ġis": 2872,
      "Ġtim": 2873,
      "Ġele": 2874,
      "any": 2875,
      "arts": 2876,
      "iser": 2877,
      "ich": 2878,
      "iction": 2879,
      "icity": 2880,
      "rok": 2881,
      "omen": 2882,
      "acity": 2883,
      "Ġcar": 2884,
      "ership": 2885,
      "izz": 2886,
      "igen": 2887,
      "emper": 2888,
      "ĠPred": 2889,
      "ags": 2890,
      "Ġder": 2891,
      "apse": 2892,
      "idence": 2893,
      "umped": 2894,
      "plom": 2895,
      "exc": 2896,
      "irth": 2897,
      "iform": 2898,
      "qual": 2899,
      "const": 2900,
      "rank": 2901,
      "Ġhard": 2902,
      "andom": 2903,
      "android": 2904,
      "phone": 2905,
      "ĠWor": 2906,
      "eared": 2907,
      "okes": 2908,
      "udd": 2909,
      "cluster": 2910,
      "angs": 2911,
      "angular": 2912,
      "formed": 2913,
      "rams": 2914,
      "ativity": 2915,
      "Ġaw": 2916,
      "peech": 2917,
      "type": 2918,
      "tifies": 2919,
      "ysic": 2920,
      "arms": 2921,
      "ixel": 2922,
      "Ġren": 2923,
      "plicated": 2924,
      "jects": 2925,
      "atics": 2926,
      "curs": 2927,
      "chedul": 2928,
      "Image": 2929,
      "whel": 2930,
      "itches": 2931,
      "eliver": 2932,
      "working": 2933,
      "Order": 2934,
      "ambig": 2935,
      "stitution": 2936,
      "caten": 2937,
      "Cre": 2938,
      "Deep": 2939,
      "Hard": 2940,
      "Log": 2941,
      "Lay": 2942,
      "ML": 2943,
      "Py": 2944,
      "Play": 2945,
      "Tri": 2946,
      "cases": 2947,
      "ek": 2948,
      "ft": 2949,
      "fix": 2950,
      "lif": 2951,
      "pun": 2952,
      "rumb": 2953,
      "sem": 2954,
      "vc": 2955,
      "Ġec": 2956,
      "Ġus": 2957,
      "Ġill": 2958,
      "inated": 2959,
      "eder": 2960,
      "aters": 2961,
      "orting": 2962,
      "rele": 2963,
      "lets": 2964,
      "asm": 2965,
      "rot": 2966,
      "rained": 2967,
      "stud": 2968,
      "elves": 2969,
      "active": 2970,
      "access": 2971,
      "Ġcap": 2972,
      "oli": 2973,
      "ĠSqu": 2974,
      "chest": 2975,
      "Ġpers": 2976,
      "Ind": 2977,
      "Ins": 2978,
      "ĠDev": 2979,
      "ĠDeep": 2980,
      "exp": 2981,
      "istent": 2982,
      "Ġhe": 2983,
      "Ġhead": 2984,
      "eps": 2985,
      "ĠInd": 2986,
      "rug": 2987,
      "resolution": 2988,
      "ĠHard": 2989,
      "ĠLog": 2990,
      "perf": 2991,
      "scrip": 2992,
      "screen": 2993,
      "clim": 2994,
      "ange": 2995,
      "poly": 2996,
      "igns": 2997,
      "rown": 2998,
      "preh": 2999,
      "Anti": 3000,
      "ĠAnti": 3001,
      "auto": 3002,
      "backs": 3003,
      "monst": 3004,
      "Ġauto": 3005,
      "abilities": 3006,
      "Learning": 3007,
      "Em": 3008,
      "He": 3009,
      "Head": 3010,
      "Sym": 3011,
      "Us": 3012,
      "Vari": 3013,
      "View": 3014,
      "div": 3015,
      "gling": 3016,
      "ha": 3017,
      "hom": 3018,
      "iors": 3019,
      "mal": 3020,
      "main": 3021,
      "nn": 3022,
      "ooth": 3023,
      "pain": 3024,
      "rint": 3025,
      "rase": 3026,
      "ton": 3027,
      "tens": 3028,
      "ture": 3029,
      "transp": 3030,
      "utive": 3031,
      "uously": 3032,
      "vector": 3033,
      "Ġuser": 3034,
      "erve": 3035,
      "arrow": 3036,
      "itors": 3037,
      "icking": 3038,
      "ason": 3039,
      "asks": 3040,
      "rome": 3041,
      "rab": 3042,
      "rative": 3043,
      "unb": 3044,
      "unf": 3045,
      "stract": 3046,
      "ections": 3047,
      "aced": 3048,
      "ilation": 3049,
      "Ġcomb": 3050,
      "urning": 3051,
      "ette": 3052,
      "ried": 3053,
      "Ġpe": 3054,
      "igor": 3055,
      "ĠPass": 3056,
      "agent": 3057,
      "agging": 3058,
      "implement": 3059,
      "api": 3060,
      "osis": 3061,
      "ĠTim": 3062,
      "ifiers": 3063,
      "Ġtransp": 3064,
      "owers": 3065,
      "ĠEm": 3066,
      "controll": 3067,
      "ĠBe": 3068,
      "ocation": 3069,
      "ocking": 3070,
      "prob": 3071,
      "product": 3072,
      "ayed": 3073,
      "Ġhom": 3074,
      "ighter": 3075,
      "menting": 3076,
      "ipher": 3077,
      "anding": 3078,
      "ĠHe": 3079,
      "alizations": 3080,
      "ibr": 3081,
      "Ġunb": 3082,
      "Ġunf": 3083,
      "ĠOc": 3084,
      "uge": 3085,
      "ugged": 3086,
      "event": 3087,
      "alluc": 3088,
      "nesses": 3089,
      "itig": 3090,
      "usting": 3091,
      "ressive": 3092,
      "observ": 3093,
      "ectors": 3094,
      "rystall": 3095,
      "lowing": 3096,
      "atized": 3097,
      "Ġexc": 3098,
      "locked": 3099,
      "erved": 3100,
      "athematic": 3101,
      "vious": 3102,
      "team": 3103,
      "itely": 3104,
      "pected": 3105,
      "iousness": 3106,
      "olding": 3107,
      "ember": 3108,
      "after": 3109,
      "motiv": 3110,
      "titude": 3111,
      "yster": 3112,
      "prise": 3113,
      "defin": 3114,
      "learn": 3115,
      "doub": 3116,
      "tility": 3117,
      "mitting": 3118,
      "tifications": 3119,
      "built": 3120,
      "viron": 3121,
      "ilosoph": 3122,
      "Air": 3123,
      "By": 3124,
      "Break": 3125,
      "Go": 3126,
      "Gen": 3127,
      "Graph": 3128,
      "Ir": 3129,
      "Is": 3130,
      "Ill": 3131,
      "Line": 3132,
      "Ver": 3133,
      "auc": 3134,
      "hing": 3135,
      "hum": 3136,
      "ij": 3137,
      "iking": 3138,
      "jud": 3139,
      "kit": 3140,
      "master": 3141,
      "na": 3142,
      "rent": 3143,
      "size": 3144,
      "synchron": 3145,
      "transc": 3146,
      "yed": 3147,
      "Ġes": 3148,
      "Ġear": 3149,
      "Ġovers": 3150,
      "invent": 3151,
      "alt": 3152,
      "reb": 3153,
      "anim": 3154,
      "ison": 3155,
      "isions": 3156,
      "itate": 3157,
      "icted": 3158,
      "icked": 3159,
      "rays": 3160,
      "activity": 3161,
      "ilities": 3162,
      "Ġsuff": 3163,
      "urring": 3164,
      "uth": 3165,
      "amper": 3166,
      "amping": 3167,
      "ĠPrec": 3168,
      "Inc": 3169,
      "imm": 3170,
      "image": 3171,
      "aping": 3172,
      "idate": 3173,
      "Ġreb": 3174,
      "Ġbreak": 3175,
      "Ġteam": 3176,
      "conduct": 3177,
      "condition": 3178,
      "Ġiniti": 3179,
      "ĠFlo": 3180,
      "ĠBo": 3181,
      "ĠBreak": 3182,
      "ĠInc": 3183,
      "ĠIns": 3184,
      "akers": 3185,
      "space": 3186,
      "performing": 3187,
      "ucks": 3188,
      "train": 3189,
      "cles": 3190,
      "anging": 3191,
      "short": 3192,
      "former": 3193,
      "Ġvol": 3194,
      "ĠIr": 3195,
      "ĠIll": 3196,
      "ĠVal": 3197,
      "races": 3198,
      "tool": 3199,
      "Ġshort": 3200,
      "marks": 3201,
      "ĠCheck": 3202,
      "berry": 3203,
      "lecting": 3204,
      "services": 3205,
      "Code": 3206,
      "rapped": 3207,
      "Ġclass": 3208,
      "testing": 3209,
      "track": 3210,
      "App": 3211,
      "Organ": 3212,
      "build": 3213,
      "frame": 3214,
      "Ast": 3215,
      "Car": 3216,
      "Cent": 3217,
      "Dimensional": 3218,
      "Er": 3219,
      "Flow": 3220,
      "Set": 3221,
      "System": 3222,
      "aur": 3223,
      "db": 3224,
      "etic": 3225,
      "ht": 3226,
      "hop": 3227,
      "hot": 3228,
      "hear": 3229,
      "iat": 3230,
      "pir": 3231,
      "rator": 3232,
      "sized": 3233,
      "soci": 3234,
      "separ": 3235,
      "sql": 3236,
      "uations": 3237,
      "vy": 3238,
      "inity": 3239,
      "inations": 3240,
      "onest": 3241,
      "onstruct": 3242,
      "atural": 3243,
      "reet": 3244,
      "anes": 3245,
      "anks": 3246,
      "anking": 3247,
      "arsh": 3248,
      "arrel": 3249,
      "itations": 3250,
      "asive": 3251,
      "rost": 3252,
      "station": 3253,
      "ults": 3254,
      "ulting": 3255,
      "ultra": 3256,
      "abric": 3257,
      "Ġcre": 3258,
      "Ġsoci": 3259,
      "urse": 3260,
      "ĠSym": 3261,
      "uture": 3262,
      "ĠCar": 3263,
      "ĠCap": 3264,
      "usc": 3265,
      "usions": 3266,
      "rive": 3267,
      "Ġpsych": 3268,
      "ama": 3269,
      "amped": 3270,
      "amili": 3271,
      "emon": 3272,
      "ague": 3273,
      "Ġdoub": 3274,
      "ĠAst": 3275,
      "idn": 3276,
      "iders": 3277,
      "establ": 3278,
      "ĠTri": 3279,
      "ĠThe": 3280,
      "odd": 3281,
      "ĠEmp": 3282,
      "conce": 3283,
      "ocol": 3284,
      "propri": 3285,
      "ander": 3286,
      "phas": 3287,
      "trapol": 3288,
      "ĠGPT": 3289,
      "even": 3290,
      "ression": 3291,
      "eller": 3292,
      "asty": 3293,
      "atization": 3294,
      "Ġdeb": 3295,
      "achable": 3296,
      "paramet": 3297,
      "ronoun": 3298,
      "compet": 3299,
      "vention": 3300,
      "ditional": 3301,
      "Read": 3302,
      "psych": 3303,
      "ween": 3304,
      "marked": 3305,
      "interpre": 3306,
      "isms": 3307,
      "plicate": 3308,
      "plications": 3309,
      "attle": 3310,
      "Short": 3311,
      "ĠShort": 3312,
      "ateri": 3313,
      "calc": 3314,
      "jecting": 3315,
      "Ġeff": 3316,
      "riter": 3317,
      "tention": 3318,
      "communic": 3319,
      "decomp": 3320,
      "constit": 3321,
      "Ġoptim": 3322,
      "attern": 3323,
      "tracted": 3324,
      "sider": 3325,
      "ometry": 3326,
      "ĠOptim": 3327,
      "Poly": 3328,
      "superv": 3329,
      "gorithm": 3330,
      "respons": 3331,
      "zero": 3332,
      "device": 3333,
      "rehens": 3334,
      "ynamic": 3335,
      "omestic": 3336,
      "ospit": 3337,
      "Block": 3338,
      "Dat": 3339,
      "Le": 3340,
      "Lab": 3341,
      "Rew": 3342,
      "Rob": 3343,
      "Scal": 3344,
      "Scale": 3345,
      "Vol": 3346,
      "band": 3347,
      "bio": 3348,
      "circ": 3349,
      "custom": 3350,
      "drop": 3351,
      "ief": 3352,
      "liv": 3353,
      "lined": 3354,
      "lining": 3355,
      "pay": 3356,
      "patch": 3357,
      "rinc": 3358,
      "take": 3359,
      "uct": 3360,
      "vinc": 3361,
      "water": 3362,
      "ycle": 3363,
      "Ġide": 3364,
      "Ġone": 3365,
      "edding": 3366,
      "tile": 3367,
      "orc": 3368,
      "arge": 3369,
      "itating": 3370,
      "ication": 3371,
      "rage": 3372,
      "unning": 3373,
      "Ġcat": 3374,
      "Ġcustom": 3375,
      "Ġcapit": 3376,
      "Ġseg": 3377,
      "Ġsyn": 3378,
      "ersion": 3379,
      "Ġpun": 3380,
      "Ġpur": 3381,
      "dep": 3382,
      "deep": 3383,
      "Ġdata": 3384,
      "ĠRew": 3385,
      "ĠDat": 3386,
      "verted": 3387,
      "quis": 3388,
      "istence": 3389,
      "ĠEff": 3390,
      "Ġher": 3391,
      "Ġhum": 3392,
      "ept": 3393,
      "assed": 3394,
      "aks": 3395,
      "pher": 3396,
      "Ġnet": 3397,
      "traction": 3398,
      "scaling": 3399,
      "overn": 3400,
      "anger": 3401,
      "recogn": 3402,
      "orded": 3403,
      "Ġdeep": 3404,
      "ignment": 3405,
      "Ġexper": 3406,
      "location": 3407,
      "ĠVer": 3408,
      "positions": 3409,
      "possess": 3410,
      "Encod": 3411,
      "vels": 3412,
      "axes": 3413,
      "axis": 3414,
      "crew": 3415,
      "meas": 3416,
      "grade": 3417,
      "corpor": 3418,
      "rapping": 3419,
      "processor": 3420,
      "Decomp": 3421,
      "losed": 3422,
      "character": 3423,
      "echnology": 3424,
      "capit": 3425,
      "lections": 3426,
      "aught": 3427,
      "ethod": 3428,
      "Ġpoly": 3429,
      "structs": 3430,
      "focused": 3431,
      "Box": 3432,
      "Diff": 3433,
      "Ed": 3434,
      "Id": 3435,
      "Pur": 3436,
      "Pay": 3437,
      "Sign": 3438,
      "SQL": 3439,
      "ae": 3440,
      "brush": 3441,
      "categor": 3442,
      "fre": 3443,
      "fill": 3444,
      "gles": 3445,
      "gence": 3446,
      "gpt": 3447,
      "ients": 3448,
      "itively": 3449,
      "lat": 3450,
      "mel": 3451,
      "mos": 3452,
      "nal": 3453,
      "pat": 3454,
      "pop": 3455,
      "ril": 3456,
      "sed": 3457,
      "safe": 3458,
      "tly": 3459,
      "turb": 3460,
      "uity": 3461,
      "uits": 3462,
      "wide": 3463,
      "watch": 3464,
      "Ġing": 3465,
      "Ġorgan": 3466,
      "iny": 3467,
      "inks": 3468,
      "infor": 3469,
      "ertain": 3470,
      "tial": 3471,
      "tire": 3472,
      "tized": 3473,
      "tization": 3474,
      "ali": 3475,
      "atom": 3476,
      "anted": 3477,
      "arly": 3478,
      "istics": 3479,
      "lete": 3480,
      "itarian": 3481,
      "rolog": 3482,
      "raz": 3483,
      "unes": 3484,
      "ulous": 3485,
      "ulling": 3486,
      "ulative": 3487,
      "elly": 3488,
      "oment": 3489,
      "actions": 3490,
      "ilot": 3491,
      "ilder": 3492,
      "Ġcal": 3493,
      "Ġcan": 3494,
      "Ġsim": 3495,
      "ĠSign": 3496,
      "essed": 3497,
      "utting": 3498,
      "chann": 3499,
      "child": 3500,
      "Ġpop": 3501,
      "Ġplay": 3502,
      "look": 3503,
      "empor": 3504,
      "agged": 3505,
      "Ġden": 3506,
      "imag": 3507,
      "ĠDig": 3508,
      "idel": 3509,
      "umber": 3510,
      "explain": 3511,
      "opath": 3512,
      "quest": 3513,
      "Ġte": 3514,
      "Ġtransc": 3515,
      "istant": 3516,
      "ranked": 3517,
      "ocks": 3518,
      "ocial": 3519,
      "ouses": 3520,
      "assing": 3521,
      "ĠHead": 3522,
      "ivable": 3523,
      "alizer": 3524,
      "efore": 3525,
      "scope": 3526,
      "ewing": 3527,
      "eval": 3528,
      "ishment": 3529,
      "boot": 3530,
      "itivity": 3531,
      "Contin": 3532,
      "angled": 3533,
      "usted": 3534,
      "ustain": 3535,
      "ustry": 3536,
      "outh": 3537,
      "obil": 3538,
      "obility": 3539,
      "reck": 3540,
      "asters": 3541,
      "formance": 3542,
      "orders": 3543,
      "illa": 3544,
      "inters": 3545,
      "Ġvis": 3546,
      "partic": 3547,
      "rone": 3548,
      "rons": 3549,
      "ronom": 3550,
      "erves": 3551,
      "compan": 3552,
      "comput": 3553,
      "ashion": 3554,
      "dient": 3555,
      "oster": 3556,
      "ideo": 3557,
      "ferring": 3558,
      "ĠExper": 3559,
      "ney": 3560,
      "ysical": 3561,
      "teen": 3562,
      "interpret": 3563,
      "plicit": 3564,
      "olded": 3565,
      "porting": 3566,
      "icker": 3567,
      "anner": 3568,
      "ĠUser": 3569,
      "jections": 3570,
      "ierarch": 3571,
      "pressive": 3572,
      "prising": 3573,
      "ceptions": 3574,
      "rands": 3575,
      "Ġdecomp": 3576,
      "plos": 3577,
      "rupted": 3578,
      "tractive": 3579,
      "security": 3580,
      "Ġautom": 3581,
      "ĠClass": 3582,
      "legitim": 3583,
      "install": 3584,
      "icially": 3585,
      "generated": 3586,
      "nowledg": 3587,
      "Integ": 3588,
      "requency": 3589,
      "efully": 3590,
      "unctions": 3591,
      "ĠPoly": 3592,
      "clusive": 3593,
      "abyte": 3594,
      "abytes": 3595,
      "grat": 3596,
      "domain": 3597,
      "cipl": 3598,
      "Comb": 3599,
      "DB": 3600,
      "LO": 3601,
      "Oper": 3602,
      "Psych": 3603,
      "Person": 3604,
      "Se": 3605,
      "Sim": 3606,
      "Spar": 3607,
      "Suff": 3608,
      "Sequ": 3609,
      "Single": 3610,
      "Tree": 3611,
      "Use": 3612,
      "bre": 3613,
      "browser": 3614,
      "clock": 3615,
      "cloud": 3616,
      "fol": 3617,
      "jug": 3618,
      "memory": 3619,
      "nic": 3620,
      "nect": 3621,
      "oos": 3622,
      "ply": 3623,
      "pack": 3624,
      "source": 3625,
      "uce": 3626,
      "uals": 3627,
      "wid": 3628,
      "year": 3629,
      "Ġarm": 3630,
      "inj": 3631,
      "inate": 3632,
      "inating": 3633,
      "error": 3634,
      "edd": 3635,
      "tip": 3636,
      "real": 3637,
      "around": 3638,
      "lement": 3639,
      "icate": 3640,
      "asy": 3641,
      "ravel": 3642,
      "sts": 3643,
      "style": 3644,
      "Ġsec": 3645,
      "Ġspo": 3646,
      "urry": 3647,
      "ĠSim": 3648,
      "ĠSingle": 3649,
      "essing": 3650,
      "ĠCre": 3651,
      "ĠComb": 3652,
      "Ġpy": 3653,
      "adap": 3654,
      "emble": 3655,
      "employ": 3656,
      "ĠPy": 3657,
      "ĠPsych": 3658,
      "agree": 3659,
      "ĠAir": 3660,
      "verting": 3661,
      "apes": 3662,
      "idates": 3663,
      "Ġmer": 3664,
      "uming": 3665,
      "plies": 3666,
      "platform": 3667,
      "opes": 3668,
      "ĠTime": 3669,
      "ubric": 3670,
      "ogs": 3671,
      "proof": 3672,
      "ĠLe": 3673,
      "phere": 3674,
      "ĠOper": 3675,
      "Ġneg": 3676,
      "trained": 3677,
      "Ġcontin": 3678,
      "inders": 3679,
      "astes": 3680,
      "Stream": 3681,
      "Ġvari": 3682,
      "Ġview": 3683,
      "minim": 3684,
      "Ġexp": 3685,
      "ĠVol": 3686,
      "Ġair": 3687,
      "Prot": 3688,
      "pread": 3689,
      "Ent": 3690,
      "Ġchar": 3691,
      "Chat": 3692,
      "relation": 3693,
      "aired": 3694,
      "atten": 3695,
      "offs": 3696,
      "ĠUs": 3697,
      "ringing": 3698,
      "valued": 3699,
      "reading": 3700,
      "acceler": 3701,
      "pressed": 3702,
      "ushes": 3703,
      "print": 3704,
      "views": 3705,
      "ooks": 3706,
      "downs": 3707,
      "Ġauthor": 3708,
      "ĠDecomp": 3709,
      "playing": 3710,
      "missions": 3711,
      "world": 3712,
      "standard": 3713,
      "charge": 3714,
      "Ġminim": 3715,
      "counter": 3716,
      "ruth": 3717,
      "efficient": 3718,
      "hoods": 3719,
      "currence": 3720,
      "development": 3721,
      "known": 3722,
      "Service": 3723,
      "Oriented": 3724,
      "AM": 3725,
      "Bi": 3726,
      "Che": 3727,
      "Deb": 3728,
      "Function": 3729,
      "Kn": 3730,
      "Mar": 3731,
      "Ren": 3732,
      "Sens": 3733,
      "Syn": 3734,
      "Script": 3735,
      "Speed": 3736,
      "Transp": 3737,
      "breed": 3738,
      "da": 3739,
      "dro": 3740,
      "diff": 3741,
      "fund": 3742,
      "fusc": 3743,
      "gine": 3744,
      "gets": 3745,
      "grid": 3746,
      "hun": 3747,
      "hash": 3748,
      "hyth": 3749,
      "haus": 3750,
      "iration": 3751,
      "lim": 3752,
      "lib": 3753,
      "life": 3754,
      "men": 3755,
      "mail": 3756,
      "most": 3757,
      "nation": 3758,
      "native": 3759,
      "otic": 3760,
      "pot": 3761,
      "popular": 3762,
      "sus": 3763,
      "school": 3764,
      "where": 3765,
      "Ġed": 3766,
      "Ġasc": 3767,
      "inal": 3768,
      "erce": 3769,
      "erate": 3770,
      "onent": 3771,
      "enomen": 3772,
      "rev": 3773,
      "recon": 3774,
      "anity": 3775,
      "arran": 3776,
      "arrass": 3777,
      "lev": 3778,
      "lead": 3779,
      "lever": 3780,
      "itched": 3781,
      "itude": 3782,
      "icial": 3783,
      "icious": 3784,
      "asking": 3785,
      "star": 3786,
      "ully": 3787,
      "ulatory": 3788,
      "ecd": 3789,
      "ece": 3790,
      "ellow": 3791,
      "ometer": 3792,
      "acilit": 3793,
      "ilers": 3794,
      "Ġcyber": 3795,
      "Ġsystem": 3796,
      "ĠSyn": 3797,
      "ĠChe": 3798,
      "Ġperson": 3799,
      "Initi": 3800,
      "Ġdiv": 3801,
      "Ġdiff": 3802,
      "ĠRen": 3803,
      "ĠDeb": 3804,
      "vertis": 3805,
      "aphor": 3806,
      "iddle": 3807,
      "Ġmain": 3808,
      "pless": 3809,
      "places": 3810,
      "ĠMar": 3811,
      "ople": 3812,
      "opping": 3813,
      "Ġrev": 3814,
      "Ġread": 3815,
      "Ġrecon": 3816,
      "Ġfre": 3817,
      "Ġforg": 3818,
      "ostic": 3819,
      "ĠTransp": 3820,
      "oto": 3821,
      "uber": 3822,
      "ĠEr": 3823,
      "ĠFirst": 3824,
      "ĠBi": 3825,
      "ocum": 3826,
      "ocked": 3827,
      "ogen": 3828,
      "ogene": 3829,
      "proportion": 3830,
      "Ġwin": 3831,
      "ipe": 3832,
      "ĠIniti": 3833,
      "anded": 3834,
      "lings": 3835,
      "speed": 3836,
      "Ġgen": 3837,
      "phab": 3838,
      "Ġnew": 3839,
      "ugges": 3840,
      "avel": 3841,
      "ewed": 3842,
      "ĠGo": 3843,
      "Ġconst": 3844,
      "earest": 3845,
      "bour": 3846,
      "Const": 3847,
      "clude": 3848,
      "ango": 3849,
      "angles": 3850,
      "ĠContin": 3851,
      "oured": 3852,
      "ancies": 3853,
      "ĠId": 3854,
      "Ġext": 3855,
      "located": 3856,
      "ĠVari": 3857,
      "entil": 3858,
      "Ġprogram": 3859,
      "ditions": 3860,
      "Exc": 3861,
      "ferred": 3862,
      "ferences": 3863,
      "ribute": 3864,
      "eleb": 3865,
      "ĠExc": 3866,
      "vile": 3867,
      "blem": 3868,
      "nee": 3869,
      "ularly": 3870,
      "ysics": 3871,
      "Ġcheck": 3872,
      "Chain": 3873,
      "uffed": 3874,
      "Ġrub": 3875,
      "iently": 3876,
      "ateral": 3877,
      "calib": 3878,
      "modern": 3879,
      "eeing": 3880,
      "ocket": 3881,
      "eats": 3882,
      "volve": 3883,
      "ultural": 3884,
      "umbling": 3885,
      "umbled": 3886,
      "network": 3887,
      "structure": 3888,
      "consider": 3889,
      "Ġkn": 3890,
      "aze": 3891,
      "ernel": 3892,
      "Autom": 3893,
      "player": 3894,
      "door": 3895,
      "Ġabs": 3896,
      "electric": 3897,
      "Ġradi": 3898,
      "inned": 3899,
      "rayed": 3900,
      "Ġinteg": 3901,
      "emplate": 3902,
      "uttered": 3903,
      "uttering": 3904,
      "cyber": 3905,
      "ponenti": 3906,
      "preci": 3907,
      "facing": 3908,
      "links": 3909,
      "joint": 3910,
      "sequence": 3911,
      "ableness": 3912,
      "reason": 3913,
      "keeper": 3914,
      "Minim": 3915,
      "ĠMinim": 3916,
      "engineering": 3917,
      "functional": 3918,
      "rolling": 3919,
      "vantage": 3920,
      "complete": 3921,
      "oscill": 3922,
      "answer": 3923,
      "alysis": 3924,
      "agnetic": 3925,
      "amiliar": 3926,
      "AP": 3927,
      "Cat": 3928,
      "DD": 3929,
      "Direct": 3930,
      "Fast": 3931,
      "Her": 3932,
      "Human": 3933,
      "IS": 3934,
      "Mer": 3935,
      "Neg": 3936,
      "So": 3937,
      "Soci": 3938,
      "Ups": 3939,
      "bly": 3940,
      "bra": 3941,
      "bur": 3942,
      "bling": 3943,
      "beg": 3944,
      "bles": 3945,
      "burn": 3946,
      "bows": 3947,
      "bench": 3948,
      "card": 3949,
      "call": 3950,
      "crypt": 3951,
      "divid": 3952,
      "eel": 3953,
      "fits": 3954,
      "happ": 3955,
      "iant": 3956,
      "iproc": 3957,
      "luc": 3958,
      "lists": 3959,
      "mate": 3960,
      "mist": 3961,
      "must": 3962,
      "nom": 3963,
      "public": 3964,
      "soft": 3965,
      "semi": 3966,
      "tal": 3967,
      "trust": 3968,
      "toler": 3969,
      "uality": 3970,
      "ualized": 3971,
      "wear": 3972,
      "with": 3973,
      "Ġ3": 3974,
      "Ġeng": 3975,
      "ince": 3976,
      "ertion": 3977,
      "erts": 3978,
      "enabled": 3979,
      "allo": 3980,
      "atures": 3981,
      "oration": 3982,
      "repe": 3983,
      "aning": 3984,
      "anch": 3985,
      "artic": 3986,
      "iced": 3987,
      "icated": 3988,
      "rout": 3989,
      "raise": 3990,
      "unch": 3991,
      "stack": 3992,
      "elic": 3993,
      "abol": 3994,
      "ilog": 3995,
      "Ġcirc": 3996,
      "Ġse": 3997,
      "Ġso": 3998,
      "Ġspl": 3999,
      "Ġspar": 4000,
      "Ġsingle": 4001,
      "urance": 4002,
      "ĠSe": 4003,
      "ĠSoci": 4004,
      "eters": 4005,
      "utation": 4006,
      "ĠCat": 4007,
      "users": 4008,
      "ript": 4009,
      "ĠPlay": 4010,
      "ĠPerson": 4011,
      "Ġdo": 4012,
      "verb": 4013,
      "idation": 4014,
      "Ġmor": 4015,
      "Ġmust": 4016,
      "thought": 4017,
      "Ġrepe": 4018,
      "ifts": 4019,
      "ifted": 4020,
      "quer": 4021,
      "quit": 4022,
      "otation": 4023,
      "Ġbi": 4024,
      "Ġbur": 4025,
      "Ġbet": 4026,
      "ocus": 4027,
      "unders": 4028,
      "ĠHer": 4029,
      "spo": 4030,
      "aven": 4031,
      "sci": 4032,
      "uds": 4033,
      "ĠNet": 4034,
      "allen": 4035,
      "Connec": 4036,
      "Context": 4037,
      "anged": 4038,
      "ships": 4039,
      "ĠContext": 4040,
      "format": 4041,
      "ording": 4042,
      "Step": 4043,
      "intro": 4044,
      "ĠIP": 4045,
      "racing": 4046,
      "Ġprot": 4047,
      "Ġprov": 4048,
      "verses": 4049,
      "elec": 4050,
      "ĠProt": 4051,
      "Real": 4052,
      "airy": 4053,
      "ĠReal": 4054,
      "marking": 4055,
      "ĠEnt": 4056,
      "Ġrer": 4057,
      "motion": 4058,
      "valu": 4059,
      "understand": 4060,
      "models": 4061,
      "ready": 4062,
      "management": 4063,
      "duce": 4064,
      "Recon": 4065,
      "ĠRecon": 4066,
      "Ġrot": 4067,
      "Art": 4068,
      "pending": 4069,
      "necess": 4070,
      "structured": 4071,
      "ooting": 4072,
      "centric": 4073,
      "Ġoper": 4074,
      "byte": 4075,
      "organized": 4076,
      "demn": 4077,
      "quired": 4078,
      "Depend": 4079,
      "lects": 4080,
      "lective": 4081,
      "single": 4082,
      "ĠOrgan": 4083,
      "information": 4084,
      "closed": 4085,
      "eaning": 4086,
      "graphs": 4087,
      "AT": 4088,
      "As": 4089,
      "Circ": 4090,
      "Custom": 4091,
      "Do": 4092,
      "Factor": 4093,
      "Hom": 4094,
      "Main": 4095,
      "Mark": 4096,
      "Norm": 4097,
      "Pers": 4098,
      "Prac": 4099,
      "Reb": 4100,
      "Spl": 4101,
      "Spo": 4102,
      "Separ": 4103,
      "Task": 4104,
      "Team": 4105,
      "aution": 4106,
      "ban": 4107,
      "dram": 4108,
      "eers": 4109,
      "gest": 4110,
      "game": 4111,
      "het": 4112,
      "hanc": 4113,
      "iod": 4114,
      "jus": 4115,
      "know": 4116,
      "live": 4117,
      "mechan": 4118,
      "matically": 4119,
      "oly": 4120,
      "pen": 4121,
      "python": 4122,
      "rases": 4123,
      "sil": 4124,
      "sco": 4125,
      "swe": 4126,
      "uver": 4127,
      "uilt": 4128,
      "uctu": 4129,
      "vs": 4130,
      "write": 4131,
      "ye": 4132,
      "yles": 4133,
      "ĠX": 4134,
      "Ġip": 4135,
      "Ġram": 4136,
      "Ġration": 4137,
      "Ġrid": 4138,
      "ino": 4139,
      "inos": 4140,
      "incl": 4141,
      "inary": 4142,
      "tise": 4143,
      "tize": 4144,
      "tism": 4145,
      "tizing": 4146,
      "alty": 4147,
      "react": 4148,
      "analy": 4149,
      "arse": 4150,
      "levi": 4151,
      "itory": 4152,
      "icting": 4153,
      "lyph": 4154,
      "unw": 4155,
      "unky": 4156,
      "ulus": 4157,
      "ulpt": 4158,
      "ecks": 4159,
      "econom": 4160,
      "eliness": 4161,
      "acerb": 4162,
      "abit": 4163,
      "Ġsil": 4164,
      "Ġset": 4165,
      "Ġsus": 4166,
      "Ġsens": 4167,
      "Ġsco": 4168,
      "Ġserv": 4169,
      "Ġside": 4170,
      "Ġswe": 4171,
      "urally": 4172,
      "urred": 4173,
      "olith": 4174,
      "ĠSpo": 4175,
      "etched": 4176,
      "essim": 4177,
      "utur": 4178,
      "utors": 4179,
      "ĠCirc": 4180,
      "ĠCustom": 4181,
      "usive": 4182,
      "ride": 4183,
      "Ġpen": 4184,
      "Ġprac": 4185,
      "loop": 4186,
      "vey": 4187,
      "adox": 4188,
      "amin": 4189,
      "ammer": 4190,
      "amming": 4191,
      "ĠPur": 4192,
      "ĠPay": 4193,
      "ĠReb": 4194,
      "ĠDiff": 4195,
      "verber": 4196,
      "apers": 4197,
      "idd": 4198,
      "idable": 4199,
      "idents": 4200,
      "idential": 4201,
      "umph": 4202,
      "thinking": 4203,
      "exic": 4204,
      "exual": 4205,
      "expression": 4206,
      "ĠMain": 4207,
      "opped": 4208,
      "irts": 4209,
      "Ġfil": 4210,
      "Ġfast": 4211,
      "Ġfire": 4212,
      "oton": 4213,
      "otograph": 4214,
      "otrop": 4215,
      "Ġbook": 4216,
      "Ġtech": 4217,
      "oward": 4218,
      "isters": 4219,
      "conom": 4220,
      "consc": 4221,
      "ranqu": 4222,
      "ocal": 4223,
      "ocor": 4224,
      "ainting": 4225,
      "ipes": 4226,
      "ipper": 4227,
      "resol": 4228,
      "ĠHom": 4229,
      "ivari": 4230,
      "alizable": 4231,
      "Ġunw": 4232,
      "cou": 4233,
      "Ġnorm": 4234,
      "ucceed": 4235,
      "avas": 4236,
      "avers": 4237,
      "ewise": 4238,
      "oker": 4239,
      "ĠNorm": 4240,
      "itives": 4241,
      "Control": 4242,
      "she": 4243,
      "obe": 4244,
      "ĠConst": 4245,
      "ourcing": 4246,
      "asturb": 4247,
      "astroph": 4248,
      "rames": 4249,
      "State": 4250,
      "rich": 4251,
      "riction": 4252,
      "herent": 4253,
      "ebra": 4254,
      "ativeness": 4255,
      "hetic": 4256,
      "Ġaud": 4257,
      "rowds": 4258,
      "compati": 4259,
      "computer": 4260,
      "osting": 4261,
      "Ext": 4262,
      "Prov": 4263,
      "athers": 4264,
      "often": 4265,
      "arious": 4266,
      "arians": 4267,
      "ĠExt": 4268,
      "eterior": 4269,
      "tifier": 4270,
      "tifiable": 4271,
      "need": 4272,
      "keys": 4273,
      "pleas": 4274,
      "pecting": 4275,
      "ĠRead": 4276,
      "tainable": 4277,
      "uffing": 4278,
      "plicable": 4279,
      "plicates": 4280,
      "olders": 4281,
      "subscrib": 4282,
      "attention": 4283,
      "trovers": 4284,
      "Ann": 4285,
      "incarn": 4286,
      "ĠAnn": 4287,
      "ithme": 4288,
      "oods": 4289,
      "ographical": 4290,
      "ographically": 4291,
      "onds": 4292,
      "volving": 4293,
      "volved": 4294,
      "ulture": 4295,
      "adem": 4296,
      "curring": 4297,
      "grav": 4298,
      "ooling": 4299,
      "prene": 4300,
      "archy": 4301,
      "structed": 4302,
      "consist": 4303,
      "drive": 4304,
      "ypical": 4305,
      "dict": 4306,
      "tested": 4307,
      "tracts": 4308,
      "Ġobserv": 4309,
      "thetic": 4310,
      "tracting": 4311,
      "umpy": 4312,
      "files": 4313,
      "filled": 4314,
      "aneous": 4315,
      "iciencies": 4316,
      "Model": 4317,
      "respect": 4318,
      "colon": 4319,
      "Ġregular": 4320,
      "connection": 4321,
      "aughter": 4322,
      "certain": 4323,
      "ĠInteg": 4324,
      "framework": 4325,
      "Ġcolon": 4326,
      "writing": 4327,
      "structions": 4328,
      "volutional": 4329,
      "imilarity": 4330,
      "ottom": 4331,
      "predict": 4332,
      "exuality": 4333,
      "hedron": 4334,
      "tuned": 4335,
      "ublish": 4336,
      "programming": 4337,
      "purpose": 4338,
      "LLM": 4339,
      "arciss": 4340,
      "ĠLLM": 4341,
      "ocratic": 4342,
      "istinguish": 4343,
      "seudo": 4344,
      "vironment": 4345,
      "AN": 4346,
      "Aw": 4347,
      "CI": 4348,
      "Can": 4349,
      "Cyber": 4350,
      "Der": 4351,
      "Den": 4352,
      "Dest": 4353,
      "Determin": 4354,
      "Fre": 4355,
      "Forg": 4356,
      "Follow": 4357,
      "IT": 4358,
      "New": 4359,
      "Pi": 4360,
      "Power": 4361,
      "ST": 4362,
      "Side": 4363,
      "Te": 4364,
      "Test": 4365,
      "Vis": 4366,
      "Wind": 4367,
      "base": 4368,
      "cling": 4369,
      "cord": 4370,
      "differ": 4371,
      "falls": 4372,
      "gar": 4373,
      "hon": 4374,
      "had": 4375,
      "held": 4376,
      "iability": 4377,
      "iences": 4378,
      "java": 4379,
      "kes": 4380,
      "kill": 4381,
      "length": 4382,
      "mat": 4383,
      "mort": 4384,
      "maps": 4385,
      "pc": 4386,
      "rend": 4387,
      "rength": 4388,
      "sd": 4389,
      "vm": 4390,
      "void": 4391,
      "whe": 4392,
      "Ġq": 4393,
      "Ġep": 4394,
      "Ġenti": 4395,
      "Ġtime": 4396,
      "infl": 4397,
      "input": 4398,
      "erated": 4399,
      "erting": 4400,
      "edge": 4401,
      "alks": 4402,
      "orous": 4403,
      "represent": 4404,
      "arted": 4405,
      "arting": 4406,
      "arks": 4407,
      "letion": 4408,
      "itness": 4409,
      "icing": 4410,
      "icts": 4411,
      "roy": 4412,
      "raining": 4413,
      "radic": 4414,
      "unp": 4415,
      "uning": 4416,
      "unks": 4417,
      "stat": 4418,
      "sters": 4419,
      "state": 4420,
      "styl": 4421,
      "omed": 4422,
      "Ġcer": 4423,
      "Ġcrypt": 4424,
      "Ġcounter": 4425,
      "Ġsynchron": 4426,
      "ĠSpar": 4427,
      "ĠServ": 4428,
      "ĠSuff": 4429,
      "ĠCan": 4430,
      "ĠCyber": 4431,
      "rival": 4432,
      "riving": 4433,
      "chat": 4434,
      "Ġped": 4435,
      "Ġpan": 4436,
      "Ġpay": 4437,
      "lose": 4438,
      "tery": 4439,
      "agg": 4440,
      "agers": 4441,
      "Ġdial": 4442,
      "imb": 4443,
      "ĠAw": 4444,
      "ĠRob": 4445,
      "ĠDer": 4446,
      "ĠDen": 4447,
      "ĠDest": 4448,
      "appoint": 4449,
      "idated": 4450,
      "thers": 4451,
      "think": 4452,
      "express": 4453,
      "ĠMer": 4454,
      "upon": 4455,
      "ifest": 4456,
      "ifting": 4457,
      "quaint": 4458,
      "Ġbeg": 4459,
      "Ġblock": 4460,
      "Ġtre": 4461,
      "Ġtest": 4462,
      "Ġtot": 4463,
      "Ġtechn": 4464,
      "istry": 4465,
      "congru": 4466,
      "Ġinfl": 4467,
      "ĠFre": 4468,
      "ĠFast": 4469,
      "ĠForg": 4470,
      "ĠBlock": 4471,
      "ocr": 4472,
      "Ġhon": 4473,
      "aky": 4474,
      "andal": 4475,
      "rude": 4476,
      "ĠHuman": 4477,
      "spe": 4478,
      "Ġunp": 4479,
      "avail": 4480,
      "traum": 4481,
      "scra": 4482,
      "ĠNew": 4483,
      "Ġstyl": 4484,
      "clusion": 4485,
      "cluded": 4486,
      "cluding": 4487,
      "sheet": 4488,
      "outing": 4489,
      "Start": 4490,
      "intellig": 4491,
      "lower": 4492,
      "Ġvoc": 4493,
      "Ġvisu": 4494,
      "party": 4495,
      "heet": 4496,
      "ighty": 4497,
      "raced": 4498,
      "tox": 4499,
      "poss": 4500,
      "isely": 4501,
      "Exp": 4502,
      "discre": 4503,
      "ofing": 4504,
      "eleg": 4505,
      "elev": 4506,
      "ĠExp": 4507,
      "neigh": 4508,
      "Ġcharacter": 4509,
      "forg": 4510,
      "ixes": 4511,
      "ixture": 4512,
      "comes": 4513,
      "Ġjava": 4514,
      "creens": 4515,
      "Query": 4516,
      "mother": 4517,
      "appear": 4518,
      "annot": 4519,
      "Ġcode": 4520,
      "eather": 4521,
      "Ġpret": 4522,
      "orns": 4523,
      "ushed": 4524,
      "ushing": 4525,
      "ridge": 4526,
      "ools": 4527,
      "viewing": 4528,
      "architect": 4529,
      "black": 4530,
      "processed": 4531,
      "processors": 4532,
      "eeds": 4533,
      "tracking": 4534,
      "trins": 4535,
      "ripped": 4536,
      "ripping": 4537,
      "tractable": 4538,
      "charged": 4539,
      "ructured": 4540,
      "variance": 4541,
      "supported": 4542,
      "covered": 4543,
      "Observ": 4544,
      "Black": 4545,
      "counted": 4546,
      "boxes": 4547,
      "Forward": 4548,
      "fitting": 4549,
      "changing": 4550,
      "unny": 4551,
      "balanced": 4552,
      "effect": 4553,
      "strained": 4554,
      "production": 4555,
      "ĠObserv": 4556,
      "breaking": 4557,
      "Many": 4558,
      "casts": 4559,
      "claimed": 4560,
      "configured": 4561,
      "assembly": 4562,
      "ycles": 4563,
      "behav": 4564,
      "Two": 4565,
      "ĠTwo": 4566,
      "10": 4567,
      "AD": 4568,
      "Cer": 4569,
      "Cal": 4570,
      "Cloud": 4571,
      "Capit": 4572,
      "Fire": 4573,
      "Friend": 4574,
      "Look": 4575,
      "Language": 4576,
      "MA": 4577,
      "Mid": 4578,
      "Memory": 4579,
      "Machine": 4580,
      "Sil": 4581,
      "Source": 4582,
      "TF": 4583,
      "Tele": 4584,
      "Techn": 4585,
      "Visu": 4586,
      "bul": 4587,
      "bus": 4588,
      "blo": 4589,
      "bid": 4590,
      "beat": 4591,
      "dish": 4592,
      "domin": 4593,
      "eve": 4594,
      "eties": 4595,
      "fly": 4596,
      "fur": 4597,
      "follow": 4598,
      "front": 4599,
      "gin": 4600,
      "gam": 4601,
      "hanced": 4602,
      "iour": 4603,
      "jango": 4604,
      "kward": 4605,
      "knowledge": 4606,
      "leness": 4607,
      "lier": 4608,
      "lived": 4609,
      "moun": 4610,
      "mises": 4611,
      "maxim": 4612,
      "nets": 4613,
      "otion": 4614,
      "pad": 4615,
      "rist": 4616,
      "rors": 4617,
      "render": 4618,
      "snow": 4619,
      "tac": 4620,
      "tele": 4621,
      "uic": 4622,
      "uates": 4623,
      "vib": 4624,
      "Ġur": 4625,
      "Ġve": 4626,
      "Ġens": 4627,
      "inator": 4628,
      "inked": 4629,
      "incre": 4630,
      "influ": 4631,
      "eral": 4632,
      "eros": 4633,
      "onation": 4634,
      "tigu": 4635,
      "ingu": 4636,
      "eners": 4637,
      "alv": 4638,
      "alyst": 4639,
      "atto": 4640,
      "orth": 4641,
      "orks": 4642,
      "reass": 4643,
      "antic": 4644,
      "anting": 4645,
      "anked": 4646,
      "anning": 4647,
      "arring": 4648,
      "ley": 4649,
      "itary": 4650,
      "itters": 4651,
      "itoring": 4652,
      "icle": 4653,
      "rail": 4654,
      "staff": 4655,
      "uli": 4656,
      "ulver": 4657,
      "ulled": 4658,
      "ulary": 4659,
      "eles": 4660,
      "acious": 4661,
      "acrif": 4662,
      "abase": 4663,
      "abulary": 4664,
      "Ġcoun": 4665,
      "Ġsnow": 4666,
      "Ġsequ": 4667,
      "Ġspeed": 4668,
      "Ġsummar": 4669,
      "ĠSec": 4670,
      "ĠSil": 4671,
      "ĠSet": 4672,
      "ĠSens": 4673,
      "ĠSpeed": 4674,
      "etching": 4675,
      "esses": 4676,
      "ĠCer": 4677,
      "ĠCal": 4678,
      "ĠCent": 4679,
      "ĠCapit": 4680,
      "usias": 4681,
      "rides": 4682,
      "cher": 4683,
      "chiev": 4684,
      "deav": 4685,
      "adly": 4686,
      "adig": 4687,
      "adjust": 4688,
      "ameless": 4689,
      "ĠPers": 4690,
      "ĠPrac": 4691,
      "Ġdram": 4692,
      "Ġdirect": 4693,
      "imal": 4694,
      "iments": 4695,
      "Ġmark": 4696,
      "Ġmechan": 4697,
      "Ġmaxim": 4698,
      "there": 4699,
      "plant": 4700,
      "exec": 4701,
      "explo": 4702,
      "expens": 4703,
      "ĠMid": 4704,
      "ĠMark": 4705,
      "irit": 4706,
      "Ġreass": 4707,
      "Ġfirst": 4708,
      "ĠTele": 4709,
      "ĠTeam": 4710,
      "otted": 4711,
      "otonic": 4712,
      "Ġby": 4713,
      "Ġblo": 4714,
      "ube": 4715,
      "ubs": 4716,
      "Ġto": 4717,
      "Ġty": 4718,
      "Ġtele": 4719,
      "owering": 4720,
      "ĠEd": 4721,
      "conv": 4722,
      "convex": 4723,
      "ĠFire": 4724,
      "ranking": 4725,
      "occup": 4726,
      "Uns": 4727,
      "proper": 4728,
      "profit": 4729,
      "Ġwe": 4730,
      "Ġwind": 4731,
      "associ": 4732,
      "ultiv": 4733,
      "orse": 4734,
      "spic": 4735,
      "efs": 4736,
      "eft": 4737,
      "efer": 4738,
      "avoid": 4739,
      "trace": 4740,
      "Ġconv": 4741,
      "Ġconce": 4742,
      "earn": 4743,
      "angling": 4744,
      "indle": 4745,
      "ellation": 4746,
      "ellers": 4747,
      "ouring": 4748,
      "ĠUns": 4749,
      "formers": 4750,
      "formations": 4751,
      "rice": 4752,
      "rict": 4753,
      "lowed": 4754,
      "Ġvib": 4755,
      "atial": 4756,
      "atile": 4757,
      "atize": 4758,
      "Ġdep": 4759,
      "achment": 4760,
      "ĠState": 4761,
      "Ġexec": 4762,
      "parent": 4763,
      "local": 4764,
      "erving": 4765,
      "ĠVisu": 4766,
      "osts": 4767,
      "Program": 4768,
      "Propag": 4769,
      "ribe": 4770,
      "ribes": 4771,
      "vial": 4772,
      "arters": 4773,
      "ĠProgram": 4774,
      "veloper": 4775,
      "ysi": 4776,
      "pects": 4777,
      "uffs": 4778,
      "plicating": 4779,
      "embl": 4780,
      "porter": 4781,
      "comfort": 4782,
      "ducing": 4783,
      "ductive": 4784,
      "Ġther": 4785,
      "incere": 4786,
      "desc": 4787,
      "inker": 4788,
      "speci": 4789,
      "manip": 4790,
      "enger": 4791,
      "auth": 4792,
      "ockets": 4793,
      "loader": 4794,
      "media": 4795,
      "ĠKn": 4796,
      "decre": 4797,
      "laying": 4798,
      "umbers": 4799,
      "urned": 4800,
      "arget": 4801,
      "ampion": 4802,
      "cepts": 4803,
      "randed": 4804,
      "structing": 4805,
      "ruption": 4806,
      "ruptions": 4807,
      "aleont": 4808,
      "retched": 4809,
      "Author": 4810,
      "ĠImage": 4811,
      "ealing": 4812,
      "urses": 4813,
      "attery": 4814,
      "iffs": 4815,
      "urban": 4816,
      "ĠAutom": 4817,
      "runch": 4818,
      "racted": 4819,
      "ĠApp": 4820,
      "umption": 4821,
      "filling": 4822,
      "Refer": 4823,
      "Reform": 4824,
      "inners": 4825,
      "ĠRefer": 4826,
      "ĠReform": 4827,
      "transl": 4828,
      "rified": 4829,
      "variable": 4830,
      "Ġdesign": 4831,
      "quiring": 4832,
      "iliation": 4833,
      "Regular": 4834,
      "rafted": 4835,
      "ĠRegular": 4836,
      "Ġmodern": 4837,
      "frames": 4838,
      "rutin": 4839,
      "going": 4840,
      "urolog": 4841,
      "ulsion": 4842,
      "ikit": 4843,
      "rolls": 4844,
      "summ": 4845,
      "summar": 4846,
      "auti": 4847,
      "ergy": 4848,
      "casion": 4849,
      "placed": 4850,
      "entioned": 4851,
      "rastructure": 4852,
      "appropri": 4853,
      "between": 4854,
      "ehavior": 4855,
      "ocumented": 4856,
      "avascript": 4857,
      "Aud": 4858,
      "Bet": 4859,
      "Beg": 4860,
      "Calc": 4861,
      "Counter": 4862,
      "De": 4863,
      "Day": 4864,
      "Dial": 4865,
      "Drop": 4866,
      "Doub": 4867,
      "Differenti": 4868,
      "Fine": 4869,
      "Face": 4870,
      "Foot": 4871,
      "Hum": 4872,
      "Kit": 4873,
      "LE": 4874,
      "Maxim": 4875,
      "NE": 4876,
      "Overs": 4877,
      "Pe": 4878,
      "Ped": 4879,
      "Pan": 4880,
      "Pop": 4881,
      "Random": 4882,
      "SS": 4883,
      "Sus": 4884,
      "Semi": 4885,
      "Server": 4886,
      "Ther": 4887,
      "Train": 4888,
      "Transc": 4889,
      "Ultra": 4890,
      "bas": 4891,
      "best": 4892,
      "bef": 4893,
      "broad": 4894,
      "business": 4895,
      "cos": 4896,
      "cement": 4897,
      "casting": 4898,
      "crast": 4899,
      "dil": 4900,
      "done": 4901,
      "days": 4902,
      "distribution": 4903,
      "foot": 4904,
      "fantas": 4905,
      "gran": 4906,
      "grand": 4907,
      "glob": 4908,
      "har": 4909,
      "ique": 4910,
      "la": 4911,
      "lights": 4912,
      "matching": 4913,
      "mvc": 4914,
      "ny": 4915,
      "names": 4916,
      "oop": 4917,
      "oves": 4918,
      "pill": 4919,
      "rilling": 4920,
      "search": 4921,
      "taking": 4922,
      "token": 4923,
      "ualization": 4924,
      "util": 4925,
      "Ġ.": 4926,
      "Ġ2": 4927,
      "Ġact": 4928,
      "Ġart": 4929,
      "Ġrandom": 4930,
      "insp": 4931,
      "erted": 4932,
      "eds": 4933,
      "inging": 4934,
      "alking": 4935,
      "arning": 4936,
      "lee": 4937,
      "itates": 4938,
      "icit": 4939,
      "icates": 4940,
      "rave": 4941,
      "uned": 4942,
      "unit": 4943,
      "unches": 4944,
      "stance": 4945,
      "store": 4946,
      "stead": 4947,
      "uld": 4948,
      "elines": 4949,
      "actively": 4950,
      "Ġcall": 4951,
      "Ġser": 4952,
      "Ġsem": 4953,
      "urer": 4954,
      "urers": 4955,
      "urious": 4956,
      "olves": 4957,
      "olving": 4958,
      "ĠSo": 4959,
      "ĠSus": 4960,
      "ĠSequ": 4961,
      "ĠCounter": 4962,
      "usable": 4963,
      "chip": 4964,
      "Ġpart": 4965,
      "Ġposs": 4966,
      "Ġpublic": 4967,
      "loth": 4968,
      "looking": 4969,
      "depress": 4970,
      "aders": 4971,
      "emed": 4972,
      "ĠPe": 4973,
      "ĠPed": 4974,
      "ĠPan": 4975,
      "ĠPop": 4976,
      "Infl": 4977,
      "Instruction": 4978,
      "agre": 4979,
      "Ġded": 4980,
      "Ġdil": 4981,
      "Ġdetermin": 4982,
      "ĠAud": 4983,
      "ĠDe": 4984,
      "ĠDial": 4985,
      "ĠDoub": 4986,
      "ĠDifferenti": 4987,
      "aped": 4988,
      "apper": 4989,
      "idating": 4990,
      "idget": 4991,
      "identif": 4992,
      "ticed": 4993,
      "ticism": 4994,
      "ummer": 4995,
      "throw": 4996,
      "plus": 4997,
      "plug": 4998,
      "expl": 4999,
      "ĠMaxim": 5000,
      "irus": 5001,
      "Ġfe": 5002,
      "Ġfile": 5003,
      "Ġfoot": 5004,
      "Ġfunction": 5005,
      "Ġfactor": 5006,
      "Ġfantas": 5007,
      "ĠTher": 5008,
      "ĠTransc": 5009,
      "ques": 5010,
      "question": 5011,
      "oders": 5012,
      "Ġbef": 5013,
      "Ġboot": 5014,
      "Ġbroad": 5015,
      "Ġtyp": 5016,
      "owel": 5017,
      "context": 5018,
      "ĠFine": 5019,
      "ĠFoot": 5020,
      "ĠFollow": 5021,
      "ĠBit": 5022,
      "ĠBeg": 5023,
      "endable": 5024,
      "Ġhor": 5025,
      "Ġhar": 5026,
      "Ġhash": 5027,
      "Ġhapp": 5028,
      "Ġwater": 5029,
      "Ġwith": 5030,
      "assisted": 5031,
      "ensed": 5032,
      "ensity": 5033,
      "ĠInfl": 5034,
      "ĠInstruction": 5035,
      "ĠHum": 5036,
      "Ġgran": 5037,
      "Ġglob": 5038,
      "ĠOvers": 5039,
      "Ġnot": 5040,
      "ucked": 5041,
      "ĠWind": 5042,
      "science": 5043,
      "script": 5044,
      "ĠGen": 5045,
      "Ġcontext": 5046,
      "udge": 5047,
      "ĠNeg": 5048,
      "overing": 5049,
      "cludes": 5050,
      "angers": 5051,
      "shop": 5052,
      "sharing": 5053,
      "lown": 5054,
      "pointing": 5055,
      "Ġdepend": 5056,
      "ĠVis": 5057,
      "heets": 5058,
      "ightly": 5059,
      "racking": 5060,
      "compar": 5061,
      "computing": 5062,
      "competi": 5063,
      "owns": 5064,
      "positive": 5065,
      "directional": 5066,
      "Exec": 5067,
      "ĠExec": 5068,
      "Ġdiscre": 5069,
      "aware": 5070,
      "relations": 5071,
      "airing": 5072,
      "ounce": 5073,
      "tainers": 5074,
      "ĠEncod": 5075,
      "ĠChat": 5076,
      "subsid": 5077,
      "Ġjs": 5078,
      "Discre": 5079,
      "ĠDiscre": 5080,
      "ĠUltra": 5081,
      "modal": 5082,
      "modality": 5083,
      "many": 5084,
      "Resolution": 5085,
      "ridges": 5086,
      "grading": 5087,
      "graded": 5088,
      "urns": 5089,
      "viewed": 5090,
      "Activ": 5091,
      "iterate": 5092,
      "driver": 5093,
      "Parameter": 5094,
      "easy": 5095,
      "priv": 5096,
      "hips": 5097,
      "guided": 5098,
      "runc": 5099,
      "innings": 5100,
      "installing": 5101,
      "ructures": 5102,
      "Modern": 5103,
      "smart": 5104,
      "ields": 5105,
      "classified": 5106,
      "variate": 5107,
      "flows": 5108,
      "ieve": 5109,
      "eaks": 5110,
      "ĠBlack": 5111,
      "rafts": 5112,
      "Only": 5113,
      "listed": 5114,
      "allows": 5115,
      "Review": 5116,
      "Ġsmart": 5117,
      "morph": 5118,
      "versely": 5119,
      "minded": 5120,
      "placement": 5121,
      "digit": 5122,
      "symmetric": 5123,
      "threaded": 5124,
      "threading": 5125,
      "closure": 5126,
      "countable": 5127,
      "label": 5128,
      "labeled": 5129,
      "Ġpriv": 5130,
      "rolled": 5131,
      "assembled": 5132,
      "Acceler": 5133,
      "directed": 5134,
      "tuning": 5135,
      "Ġutil": 5136,
      "existence": 5137,
      "controlled": 5138,
      "World": 5139,
      "propagation": 5140,
      "supervised": 5141,
      "depth": 5142,
      "channel": 5143,
      "Amb": 5144,
      "Abs": 5145,
      "Bal": 5146,
      "Bur": 5147,
      "Broad": 5148,
      "CU": 5149,
      "Coun": 5150,
      "Du": 5151,
      "Div": 5152,
      "Differ": 5153,
      "Feature": 5154,
      "Frame": 5155,
      "Group": 5156,
      "Hon": 5157,
      "Hor": 5158,
      "How": 5159,
      "Half": 5160,
      "Ide": 5161,
      "Knowledge": 5162,
      "Lat": 5163,
      "List": 5164,
      "Life": 5165,
      "Me": 5166,
      "Mac": 5167,
      "Neigh": 5168,
      "Ow": 5169,
      "Obl": 5170,
      "Path": 5171,
      "Poss": 5172,
      "RM": 5173,
      "Rad": 5174,
      "Rot": 5175,
      "Seg": 5176,
      "Synchron": 5177,
      "Summar": 5178,
      "Speech": 5179,
      "Tre": 5180,
      "Toler": 5181,
      "Voc": 5182,
      "Vector": 5183,
      "We": 5184,
      "Water": 5185,
      "Weight": 5186,
      "ah": 5187,
      "aic": 5188,
      "afer": 5189,
      "auses": 5190,
      "brain": 5191,
      "cs": 5192,
      "camp": 5193,
      "caps": 5194,
      "clear": 5195,
      "copy": 5196,
      "dk": 5197,
      "don": 5198,
      "dation": 5199,
      "dream": 5200,
      "distrib": 5201,
      "differenti": 5202,
      "ely": 5203,
      "eating": 5204,
      "fers": 5205,
      "fish": 5206,
      "father": 5207,
      "gre": 5208,
      "gro": 5209,
      "gled": 5210,
      "gory": 5211,
      "gebra": 5212,
      "ih": 5213,
      "ienced": 5214,
      "junction": 5215,
      "ka": 5216,
      "kt": 5217,
      "kins": 5218,
      "late": 5219,
      "lared": 5220,
      "mac": 5221,
      "mid": 5222,
      "mise": 5223,
      "mits": 5224,
      "matrix": 5225,
      "nar": 5226,
      "noc": 5227,
      "next": 5228,
      "name": 5229,
      "oe": 5230,
      "oir": 5231,
      "oint": 5232,
      "oise": 5233,
      "oved": 5234,
      "oever": 5235,
      "oices": 5236,
      "pal": 5237,
      "pus": 5238,
      "pick": 5239,
      "rased": 5240,
      "rasing": 5241,
      "rints": 5242,
      "synthes": 5243,
      "sampling": 5244,
      "tem": 5245,
      "tax": 5246,
      "tures": 5247,
      "uating": 5248,
      "uance": 5249,
      "vac": 5250,
      "vet": 5251,
      "vals": 5252,
      "virt": 5253,
      "voice": 5254,
      "wood": 5255,
      "xy": 5256,
      "yping": 5257,
      "ypers": 5258,
      "zen": 5259,
      "zers": 5260,
      "zens": 5261,
      "Ġant": 5262,
      "Ġarg": 5263,
      "Ġups": 5264,
      "Ġtermin": 5265,
      "Ġandroid": 5266,
      "iner": 5267,
      "inus": 5268,
      "inates": 5269,
      "innov": 5270,
      "erod": 5271,
      "erry": 5272,
      "onents": 5273,
      "tir": 5274,
      "orp": 5275,
      "orig": 5276,
      "orter": 5277,
      "ority": 5278,
      "orable": 5279,
      "orate": 5280,
      "ortra": 5281,
      "orities": 5282,
      "revolution": 5283,
      "isper": 5284,
      "istered": 5285,
      "left": 5286,
      "item": 5287,
      "itative": 5288,
      "icul": 5289,
      "ician": 5290,
      "asion": 5291,
      "asiti": 5292,
      "asiveness": 5293,
      "rob": 5294,
      "rous": 5295,
      "robor": 5296,
      "robot": 5297,
      "raid": 5298,
      "unsh": 5299,
      "unge": 5300,
      "unte": 5301,
      "strac": 5302,
      "story": 5303,
      "string": 5304,
      "stabil": 5305,
      "stabl": 5306,
      "entry": 5307,
      "entrop": 5308,
      "uler": 5309,
      "ulted": 5310,
      "ulner": 5311,
      "ellect": 5312,
      "omain": 5313,
      "omew": 5314,
      "omatic": 5315,
      "acle": 5316,
      "acher": 5317,
      "accept": 5318,
      "abolic": 5319,
      "abouts": 5320,
      "illo": 5321,
      "Ġcent": 5322,
      "Ġcentr": 5323,
      "Ġclean": 5324,
      "Ġcrimin": 5325,
      "Ġstim": 5326,
      "Ġsepar": 5327,
      "urder": 5328,
      "olf": 5329,
      "oled": 5330,
      "olly": 5331,
      "olve": 5332,
      "older": 5333,
      "ĠSpl": 5334,
      "ĠSeg": 5335,
      "ĠSystem": 5336,
      "ĠSynchron": 5337,
      "ĠSepar": 5338,
      "ĠSummar": 5339,
      "etary": 5340,
      "ettes": 5341,
      "utf": 5342,
      "utters": 5343,
      "ĠCoun": 5344,
      "ĠCloud": 5345,
      "rier": 5346,
      "river": 5347,
      "cholar": 5348,
      "Ġpat": 5349,
      "Ġpopular": 5350,
      "demon": 5351,
      "developer": 5352,
      "ige": 5353,
      "igs": 5354,
      "tere": 5355,
      "amic": 5356,
      "amel": 5357,
      "aments": 5358,
      "ammers": 5359,
      "eme": 5360,
      "emes": 5361,
      "ĠPoss": 5362,
      "agu": 5363,
      "agues": 5364,
      "Ġdraw": 5365,
      "Ġdifferenti": 5366,
      "ceived": 5367,
      "imming": 5368,
      "import": 5369,
      "ĠAs": 5370,
      "ĠAmb": 5371,
      "ĠAbs": 5372,
      "ĠRad": 5373,
      "ĠRot": 5374,
      "ĠDiv": 5375,
      "vertible": 5376,
      "apy": 5377,
      "approxim": 5378,
      "idia": 5379,
      "Ġmac": 5380,
      "Ġmut": 5381,
      "Ġmid": 5382,
      "ategory": 5383,
      "explor": 5384,
      "ĠMachine": 5385,
      "opper": 5386,
      "irmed": 5387,
      "irms": 5388,
      "Ġreact": 5389,
      "Ġreli": 5390,
      "uple": 5391,
      "osity": 5392,
      "esty": 5393,
      "estep": 5394,
      "ĠTre": 5395,
      "ĠTechn": 5396,
      "quality": 5397,
      "odb": 5398,
      "odec": 5399,
      "otal": 5400,
      "oters": 5401,
      "otos": 5402,
      "Ġbar": 5403,
      "Ġbit": 5404,
      "ubbing": 5405,
      "owder": 5406,
      "Ġincre": 5407,
      "Ġintro": 5408,
      "Ġindic": 5409,
      "Ġinflu": 5410,
      "Ġinnov": 5411,
      "rane": 5412,
      "rances": 5413,
      "ĠBur": 5414,
      "ĠBroad": 5415,
      "ocity": 5416,
      "ocracy": 5417,
      "proved": 5418,
      "ousness": 5419,
      "Ġhow": 5420,
      "Ġhuman": 5421,
      "eping": 5422,
      "epper": 5423,
      "iper": 5424,
      "ippers": 5425,
      "rule": 5426,
      "ruits": 5427,
      "ĠHon": 5428,
      "ĠHor": 5429,
      "ĠHalf": 5430,
      "lingual": 5431,
      "spelling": 5432,
      "ĠLook": 5433,
      "Ġgrand": 5434,
      "ibilities": 5435,
      "inee": 5436,
      "inearity": 5437,
      "ĠOw": 5438,
      "ĠObl": 5439,
      "cohol": 5440,
      "ucc": 5441,
      "uction": 5442,
      "ucking": 5443,
      "ĠWe": 5444,
      "ĠWater": 5445,
      "avy": 5446,
      "egra": 5447,
      "scre": 5448,
      "scill": 5449,
      "Ġconnec": 5450,
      "earable": 5451,
      "encoder": 5452,
      "oks": 5453,
      "udg": 5454,
      "udget": 5455,
      "aller": 5456,
      "ishments": 5457,
      "boy": 5458,
      "Conv": 5459,
      "Config": 5460,
      "overl": 5461,
      "Ġstart": 5462,
      "Ġstream": 5463,
      "Ġstabil": 5464,
      "individu": 5465,
      "usts": 5466,
      "ustod": 5467,
      "object": 5468,
      "Ġll": 5469,
      "Ġlab": 5470,
      "urely": 5471,
      "ĠConv": 5472,
      "rects": 5473,
      "recomp": 5474,
      "ourced": 5475,
      "ourney": 5476,
      "ordering": 5477,
      "Stack": 5478,
      "illenn": 5479,
      "lesh": 5480,
      "rices": 5481,
      "ricted": 5482,
      "eby": 5483,
      "Ġvac": 5484,
      "Ġvector": 5485,
      "atise": 5486,
      "Ġdemon": 5487,
      "achiev": 5488,
      "ancer": 5489,
      "ancers": 5490,
      "ĠIde": 5491,
      "ĠStart": 5492,
      "ologic": 5493,
      "ortex": 5494,
      "ĠView": 5495,
      "entials": 5496,
      "heal": 5497,
      "heads": 5498,
      "Ġafter": 5499,
      "issing": 5500,
      "prepar": 5501,
      "viously": 5502,
      "onsm": 5503,
      "neys": 5504,
      "Enter": 5505,
      "ĠProv": 5506,
      "aires": 5507,
      "pective": 5508,
      "weigh": 5509,
      "weak": 5510,
      "uffy": 5511,
      "uffle": 5512,
      "ĠEnter": 5513,
      "interface": 5514,
      "ongo": 5515,
      "olls": 5516,
      "embers": 5517,
      "atters": 5518,
      "created": 5519,
      "duced": 5520,
      "Ġthread": 5521,
      "Ġthere": 5522,
      "appreci": 5523,
      "titudes": 5524,
      "anners": 5525,
      "annib": 5526,
      "Analy": 5527,
      "atern": 5528,
      "aterial": 5529,
      "designed": 5530,
      "caling": 5531,
      "valent": 5532,
      "ĠAnaly": 5533,
      "bery": 5534,
      "module": 5535,
      "accu": 5536,
      "meet": 5537,
      "ographer": 5538,
      "ographers": 5539,
      "Add": 5540,
      "ultant": 5541,
      "ĠAdd": 5542,
      "visu": 5543,
      "orned": 5544,
      "utely": 5545,
      "ooled": 5546,
      "argin": 5547,
      "arger": 5548,
      "argeted": 5549,
      "prints": 5550,
      "liament": 5551,
      "cepted": 5552,
      "cepting": 5553,
      "ceptible": 5554,
      "pended": 5555,
      "Ġqual": 5556,
      "apsed": 5557,
      "while": 5558,
      "azard": 5559,
      "rupting": 5560,
      "Paramet": 5561,
      "rawling": 5562,
      "tractions": 5563,
      "easible": 5564,
      "itching": 5565,
      "retch": 5566,
      "prioriti": 5567,
      "Ġactiv": 5568,
      "truth": 5569,
      "atism": 5570,
      "atises": 5571,
      "atistic": 5572,
      "attered": 5573,
      "attering": 5574,
      "missive": 5575,
      "missible": 5576,
      "Ġanaly": 5577,
      "rateg": 5578,
      "thetically": 5579,
      "doors": 5580,
      "ĠAuthor": 5581,
      "metry": 5582,
      "rounded": 5583,
      "puts": 5584,
      "mitt": 5585,
      "lexes": 5586,
      "amples": 5587,
      "aneously": 5588,
      "aneuver": 5589,
      "asket": 5590,
      "icians": 5591,
      "righten": 5592,
      "operating": 5593,
      "letes": 5594,
      "ielding": 5595,
      "iority": 5596,
      "estimon": 5597,
      "estimate": 5598,
      "estimating": 5599,
      "Object": 5600,
      "aunting": 5601,
      "vocation": 5602,
      "ponent": 5603,
      "ponents": 5604,
      "aturated": 5605,
      "ĠModel": 5606,
      "hibition": 5607,
      "hibited": 5608,
      "hibiting": 5609,
      "risk": 5610,
      "sett": 5611,
      "Manip": 5612,
      "urope": 5613,
      "iciently": 5614,
      "ulsive": 5615,
      "Ġindividu": 5616,
      "structive": 5617,
      "Agent": 5618,
      "steps": 5619,
      "Ġspeci": 5620,
      "idental": 5621,
      "identally": 5622,
      "placing": 5623,
      "keeping": 5624,
      "symbol": 5625,
      "imilar": 5626,
      "founded": 5627,
      "clusions": 5628,
      "configuration": 5629,
      "aults": 5630,
      "rieval": 5631,
      "maj": 5632,
      "hedral": 5633,
      "Ġlegitim": 5634,
      "orphic": 5635,
      "Ġsymbol": 5636,
      "cerned": 5637,
      "asticity": 5638,
      "sourced": 5639,
      "200": 5640,
      "roken": 5641,
      "Layer": 5642,
      "rincip": 5643,
      "obilenet": 5644,
      "brevi": 5645,
      "otropic": 5646,
      "preneur": 5647,
      "AS": 5648,
      "Aug": 5649,
      "Bas": 5650,
      "Blo": 5651,
      "Build": 5652,
      "Care": 5653,
      "Core": 5654,
      "Crypt": 5655,
      "Clean": 5656,
      "ER": 5657,
      "Fac": 5658,
      "Fil": 5659,
      "Feed": 5660,
      "Game": 5661,
      "Har": 5662,
      "Hel": 5663,
      "Hash": 5664,
      "Iter": 5665,
      "JS": 5666,
      "Java": 5667,
      "Live": 5668,
      "Light": 5669,
      "Linear": 5670,
      "Nar": 5671,
      "Pen": 5672,
      "Pun": 5673,
      "Page": 5674,
      "Part": 5675,
      "Range": 5676,
      "Stim": 5677,
      "Search": 5678,
      "Take": 5679,
      "Trust": 5680,
      "Type": 5681,
      "UI": 5682,
      "Util": 5683,
      "Word": 5684,
      "Wide": 5685,
      "Walk": 5686,
      "bes": 5687,
      "bel": 5688,
      "bled": 5689,
      "batch": 5690,
      "balls": 5691,
      "cu": 5692,
      "cro": 5693,
      "crow": 5694,
      "crowd": 5695,
      "dated": 5696,
      "dog": 5697,
      "document": 5698,
      "eated": 5699,
      "fi": 5700,
      "fs": 5701,
      "fair": 5702,
      "frag": 5703,
      "feature": 5704,
      "ho": 5705,
      "hole": 5706,
      "houses": 5707,
      "jure": 5708,
      "kind": 5709,
      "mess": 5710,
      "mag": 5711,
      "mine": 5712,
      "more": 5713,
      "max": 5714,
      "making": 5715,
      "motor": 5716,
      "memor": 5717,
      "multic": 5718,
      "null": 5719,
      "pg": 5720,
      "pin": 5721,
      "pped": 5722,
      "pping": 5723,
      "rings": 5724,
      "rises": 5725,
      "sets": 5726,
      "saf": 5727,
      "sole": 5728,
      "success": 5729,
      "sample": 5730,
      "tab": 5731,
      "talk": 5732,
      "uent": 5733,
      "zone": 5734,
      "Ġrac": 5735,
      "Ġrap": 5736,
      "Ġiter": 5737,
      "Ġamb": 5738,
      "Ġultra": 5739,
      "inux": 5740,
      "investig": 5741,
      "erates": 5742,
      "eding": 5743,
      "esis": 5744,
      "onate": 5745,
      "onating": 5746,
      "onations": 5747,
      "enumer": 5748,
      "orb": 5749,
      "ortion": 5750,
      "reach": 5751,
      "aned": 5752,
      "analysis": 5753,
      "lew": 5754,
      "itudes": 5755,
      "rav": 5756,
      "raps": 5757,
      "raising": 5758,
      "univers": 5759,
      "stated": 5760,
      "Ġcro": 5761,
      "Ġcloud": 5762,
      "Ġcategor": 5763,
      "Ġcalc": 5764,
      "Ġcrowd": 5765,
      "Ġsql": 5766,
      "Ġsemi": 5767,
      "Ġsuccess": 5768,
      "urts": 5769,
      "ĠStim": 5770,
      "ession": 5771,
      "ĠCrypt": 5772,
      "ĠCalc": 5773,
      "ĠClean": 5774,
      "chains": 5775,
      "Ġpol": 5776,
      "Ġpath": 5777,
      "Ġpower": 5778,
      "adv": 5779,
      "ĠPen": 5780,
      "ĠPun": 5781,
      "ĠPower": 5782,
      "Intro": 5783,
      "Indic": 5784,
      "Ġdrop": 5785,
      "Ġdiffer": 5786,
      "immers": 5787,
      "ĠDrop": 5788,
      "ĠDetermin": 5789,
      "ĠDirect": 5790,
      "verts": 5791,
      "Ġmig": 5792,
      "Ġmist": 5793,
      "Ġmaster": 5794,
      "Ġmotor": 5795,
      "Ġmemor": 5796,
      "Ġmultic": 5797,
      "umed": 5798,
      "ths": 5799,
      "plane": 5800,
      "extra": 5801,
      "Ġreal": 5802,
      "Ġrepresent": 5803,
      "Ġfree": 5804,
      "ositions": 5805,
      "ĠTe": 5806,
      "ĠTo": 5807,
      "ĠTake": 5808,
      "quad": 5809,
      "Ġbas": 5810,
      "Ġbest": 5811,
      "Ġburn": 5812,
      "Ġbeh": 5813,
      "Ġbusiness": 5814,
      "Ġtab": 5815,
      "Ġtake": 5816,
      "Ġtroub": 5817,
      "owels": 5818,
      "Ġinters": 5819,
      "Ġindex": 5820,
      "ĠFil": 5821,
      "ĠFree": 5822,
      "ĠFeed": 5823,
      "ĠBas": 5824,
      "ĠBet": 5825,
      "ĠBlo": 5826,
      "ocused": 5827,
      "project": 5828,
      "profession": 5829,
      "unds": 5830,
      "Ġwhe": 5831,
      "mentary": 5832,
      "ĠIntro": 5833,
      "ĠIndic": 5834,
      "ĠHar": 5835,
      "ĠHel": 5836,
      "ĠHash": 5837,
      "spaces": 5838,
      "ĠLive": 5839,
      "Ġgr": 5840,
      "phrase": 5841,
      "covers": 5842,
      "course": 5843,
      "Ġnar": 5844,
      "Ġneed": 5845,
      "Ġneigh": 5846,
      "ĠGraph": 5847,
      "Ġconfig": 5848,
      "early": 5849,
      "ĠNar": 5850,
      "Ġstandard": 5851,
      "show": 5852,
      "Ġlist": 5853,
      "Ġlight": 5854,
      "ellular": 5855,
      "rammar": 5856,
      "Stand": 5857,
      "Stabil": 5858,
      "Standard": 5859,
      "rical": 5860,
      "ĠIs": 5861,
      "ĠIter": 5862,
      "miner": 5863,
      "ĠStand": 5864,
      "ĠStream": 5865,
      "ĠStabil": 5866,
      "Ġextra": 5867,
      "parts": 5868,
      "rowing": 5869,
      "isses": 5870,
      "issions": 5871,
      "ightful": 5872,
      "tou": 5873,
      "compress": 5874,
      "Ġprocess": 5875,
      "ventions": 5876,
      "osted": 5877,
      "Progress": 5878,
      "awns": 5879,
      "neutr": 5880,
      "Engine": 5881,
      "Ġchat": 5882,
      "Char": 5883,
      "Character": 5884,
      "relational": 5885,
      "ounced": 5886,
      "ouncing": 5887,
      "week": 5888,
      "Ġshow": 5889,
      "fores": 5890,
      "ixing": 5891,
      "Ġrun": 5892,
      "axed": 5893,
      "axing": 5894,
      "embling": 5895,
      "ĠChar": 5896,
      "ĠCharacter": 5897,
      "Shot": 5898,
      "ickle": 5899,
      "ductivity": 5900,
      "troub": 5901,
      "Analog": 5902,
      "ĠUtil": 5903,
      "Ġspect": 5904,
      "values": 5905,
      "ĠAnalog": 5906,
      "Ġadd": 5907,
      "Ġadv": 5908,
      "rational": 5909,
      "critic": 5910,
      "readed": 5911,
      "lector": 5912,
      "presses": 5913,
      "pressing": 5914,
      "Adap": 5915,
      "seri": 5916,
      "adequ": 5917,
      "persu": 5918,
      "logs": 5919,
      "common": 5920,
      "commod": 5921,
      "community": 5922,
      "ĠJava": 5923,
      "layered": 5924,
      "umbles": 5925,
      "gradu": 5926,
      "liqu": 5927,
      "Arm": 5928,
      "pends": 5929,
      "Ġquad": 5930,
      "Ġenumer": 5931,
      "ĠActiv": 5932,
      "equipped": 5933,
      "Cluster": 5934,
      "refresh": 5935,
      "ĠArm": 5936,
      "ĠCode": 5937,
      "centr": 5938,
      "venting": 5939,
      "Ġaccess": 5940,
      "played": 5941,
      "worked": 5942,
      "worthy": 5943,
      "theore": 5944,
      "runk": 5945,
      "puted": 5946,
      "Ġradic": 5947,
      "Plug": 5948,
      "Ġrecogn": 5949,
      "urations": 5950,
      "installed": 5951,
      "passing": 5952,
      "organization": 5953,
      "ĠPlug": 5954,
      "misc": 5955,
      "Represent": 5956,
      "Defin": 5957,
      "Defined": 5958,
      "Ġblack": 5959,
      "ĠRepresent": 5960,
      "covering": 5961,
      "coverable": 5962,
      "quires": 5963,
      "cycle": 5964,
      "skill": 5965,
      "Training": 5966,
      "Ġminer": 5967,
      "connects": 5968,
      "counts": 5969,
      "Ġtraum": 5970,
      "fitted": 5971,
      "changed": 5972,
      "request": 5973,
      "chemical": 5974,
      "balance": 5975,
      "Ġenter": 5976,
      "ĠModern": 5977,
      "google": 5978,
      "produced": 5979,
      "productive": 5980,
      "faced": 5981,
      "Related": 5982,
      "linked": 5983,
      "dependence": 5984,
      "ditionally": 5985,
      "ikes": 5986,
      "Correct": 5987,
      "informative": 5988,
      "Ġcompl": 5989,
      "positional": 5990,
      "Ġatten": 5991,
      "biased": 5992,
      "digital": 5993,
      "content": 5994,
      "claiming": 5995,
      "Demon": 5996,
      "Superv": 5997,
      "pathy": 5998,
      "activation": 5999,
      "ĠDemon": 6000,
      "Termin": 6001,
      "validation": 6002,
      "optimized": 6003,
      "ĠTermin": 6004,
      "mediate": 6005,
      "Value": 6006,
      "startup": 6007,
      "Ġneutr": 6008,
      "econds": 6009,
      "Ġgoogle": 6010,
      "integrated": 6011,
      "technical": 6012,
      "Tuning": 6013,
      "aspberry": 6014,
      "growing": 6015,
      "checked": 6016,
      "qualified": 6017,
      "whelming": 6018,
      "Error": 6019,
      "Encoder": 6020,
      "sheets": 6021,
      "86": 6022,
      "Ax": 6023,
      "Big": 6024,
      "CNN": 6025,
      "Dil": 6026,
      "Domin": 6027,
      "Distrib": 6028,
      "Devel": 6029,
      "EM": 6030,
      "Fact": 6031,
      "GG": 6032,
      "Hot": 6033,
      "Happ": 6034,
      "Lock": 6035,
      "Length": 6036,
      "Like": 6037,
      "Mind": 6038,
      "Master": 6039,
      "Magn": 6040,
      "Mechan": 6041,
      "Memor": 6042,
      "OM": 6043,
      "Orig": 6044,
      "Ps": 6045,
      "Pref": 6046,
      "Public": 6047,
      "Peer": 6048,
      "Prim": 6049,
      "Que": 6050,
      "Qual": 6051,
      "Run": 6052,
      "Radi": 6053,
      "SE": 6054,
      "Sal": 6055,
      "Sem": 6056,
      "Swe": 6057,
      "Success": 6058,
      "Synthes": 6059,
      "Ty": 6060,
      "Tor": 6061,
      "There": 6062,
      "Token": 6063,
      "Touch": 6064,
      "VM": 6065,
      "Vib": 6066,
      "Win": 6067,
      "War": 6068,
      "Watch": 6069,
      "With": 6070,
      "Writ": 6071,
      "aited": 6072,
      "aused": 6073,
      "bers": 6074,
      "big": 6075,
      "buff": 6076,
      "cens": 6077,
      "cred": 6078,
      "civil": 6079,
      "eering": 6080,
      "food": 6081,
      "feed": 6082,
      "fox": 6083,
      "fault": 6084,
      "faith": 6085,
      "frequency": 6086,
      "gres": 6087,
      "hel": 6088,
      "hist": 6089,
      "hack": 6090,
      "hill": 6091,
      "habil": 6092,
      "half": 6093,
      "heart": 6094,
      "hypothes": 6095,
      "help": 6096,
      "iation": 6097,
      "iet": 6098,
      "irac": 6099,
      "iances": 6100,
      "ialism": 6101,
      "ju": 6102,
      "junc": 6103,
      "journ": 6104,
      "kin": 6105,
      "killing": 6106,
      "lation": 6107,
      "mant": 6108,
      "mised": 6109,
      "magn": 6110,
      "mature": 6111,
      "nan": 6112,
      "night": 6113,
      "note": 6114,
      "nership": 6115,
      "natural": 6116,
      "oter": 6117,
      "pent": 6118,
      "pages": 6119,
      "pict": 6120,
      "rul": 6121,
      "rus": 6122,
      "rity": 6123,
      "ratch": 6124,
      "rute": 6125,
      "rums": 6126,
      "sal": 6127,
      "sav": 6128,
      "squir": 6129,
      "try": 6130,
      "tail": 6131,
      "tasks": 6132,
      "uy": 6133,
      "uities": 6134,
      "vail": 6135,
      "wen": 6136,
      "wall": 6137,
      "Ġod": 6138,
      "Ġign": 6139,
      "Ġtick": 6140,
      "ina": 6141,
      "intim": 6142,
      "inher": 6143,
      "eras": 6144,
      "erable": 6145,
      "erge": 6146,
      "eded": 6147,
      "ese": 6148,
      "esh": 6149,
      "escap": 6150,
      "tily": 6151,
      "tist": 6152,
      "tiff": 6153,
      "tising": 6154,
      "ingual": 6155,
      "enable": 6156,
      "ald": 6157,
      "aler": 6158,
      "alked": 6159,
      "orer": 6160,
      "rece": 6161,
      "rets": 6162,
      "revers": 6163,
      "refer": 6164,
      "review": 6165,
      "arth": 6166,
      "arist": 6167,
      "arcas": 6168,
      "isk": 6169,
      "leet": 6170,
      "leman": 6171,
      "itty": 6172,
      "iteness": 6173,
      "ictim": 6174,
      "asked": 6175,
      "asions": 6176,
      "rode": 6177,
      "roth": 6178,
      "rote": 6179,
      "roads": 6180,
      "raying": 6181,
      "unts": 6182,
      "stri": 6183,
      "studio": 6184,
      "ulmin": 6185,
      "eces": 6186,
      "ecode": 6187,
      "eculi": 6188,
      "oming": 6189,
      "oman": 6190,
      "omeness": 6191,
      "acon": 6192,
      "acqu": 6193,
      "abling": 6194,
      "abys": 6195,
      "ilk": 6196,
      "Ġcred": 6197,
      "Ġcare": 6198,
      "Ġcritic": 6199,
      "Ġsal": 6200,
      "Ġscal": 6201,
      "Ġseas": 6202,
      "Ġsquir": 6203,
      "Ġsumm": 6204,
      "uries": 6205,
      "olt": 6206,
      "ĠSal": 6207,
      "ĠSem": 6208,
      "ĠSwe": 6209,
      "ĠScal": 6210,
      "ĠSuccess": 6211,
      "essential": 6212,
      "ussing": 6213,
      "riends": 6214,
      "Ġpet": 6215,
      "Ġpain": 6216,
      "Ġperv": 6217,
      "Ġpict": 6218,
      "Ġprim": 6219,
      "lots": 6220,
      "deploy": 6221,
      "deavour": 6222,
      "adness": 6223,
      "administ": 6224,
      "amor": 6225,
      "amas": 6226,
      "amous": 6227,
      "ammed": 6228,
      "amily": 6229,
      "amorph": 6230,
      "ĠPath": 6231,
      "ĠPref": 6232,
      "ĠPrim": 6233,
      "Inform": 6234,
      "Incre": 6235,
      "Index": 6236,
      "Innov": 6237,
      "Ġdu": 6238,
      "Ġdream": 6239,
      "Ġdomin": 6240,
      "Ġdistrib": 6241,
      "imps": 6242,
      "ĠRun": 6243,
      "ĠRadi": 6244,
      "ĠDo": 6245,
      "ĠDu": 6246,
      "ĠDil": 6247,
      "ĠDiffer": 6248,
      "ĠDomin": 6249,
      "ĠDistrib": 6250,
      "ĠDevel": 6251,
      "idar": 6252,
      "idual": 6253,
      "idently": 6254,
      "Ġme": 6255,
      "Ġmel": 6256,
      "Ġmind": 6257,
      "Ġmagn": 6258,
      "Ġmaj": 6259,
      "though": 6260,
      "exception": 6261,
      "ĠMac": 6262,
      "ĠMaster": 6263,
      "ĠMagn": 6264,
      "ĠMechan": 6265,
      "ĠMemor": 6266,
      "opro": 6267,
      "irling": 6268,
      "irty": 6269,
      "Ġrecomp": 6270,
      "Ġrefer": 6271,
      "Ġretri": 6272,
      "Ġrevolution": 6273,
      "Ġfac": 6274,
      "Ġfram": 6275,
      "Ġfollow": 6276,
      "Ġfront": 6277,
      "oser": 6278,
      "estor": 6279,
      "estly": 6280,
      "ĠThere": 6281,
      "ifiable": 6282,
      "quan": 6283,
      "quanti": 6284,
      "odies": 6285,
      "odiment": 6286,
      "Ġbul": 6287,
      "ubers": 6288,
      "ubborn": 6289,
      "Ġtool": 6290,
      "Ġtype": 6291,
      "owl": 6292,
      "ionic": 6293,
      "istance": 6294,
      "confl": 6295,
      "concept": 6296,
      "connect": 6297,
      "Ġintim": 6298,
      "Ġinform": 6299,
      "Ġinher": 6300,
      "ĠFact": 6301,
      "ĠFactor": 6302,
      "ĠFeature": 6303,
      "ranch": 6304,
      "ĠBig": 6305,
      "ĠBook": 6306,
      "endo": 6307,
      "endant": 6308,
      "proach": 6309,
      "proves": 6310,
      "progress": 6311,
      "ffic": 6312,
      "Ġhel": 6313,
      "Ġhot": 6314,
      "Ġhalf": 6315,
      "Ġheart": 6316,
      "Ġhypothes": 6317,
      "Ġwar": 6318,
      "Ġwid": 6319,
      "Ġwide": 6320,
      "Ġwalk": 6321,
      "Ġwhere": 6322,
      "Ġweak": 6323,
      "Ġweigh": 6324,
      "assy": 6325,
      "iped": 6326,
      "iping": 6327,
      "ĠInform": 6328,
      "ĠIncre": 6329,
      "ĠIndex": 6330,
      "ĠInnov": 6331,
      "andsc": 6332,
      "ĠHapp": 6333,
      "lingu": 6334,
      "spell": 6335,
      "spire": 6336,
      "ĠLat": 6337,
      "Ġgam": 6338,
      "Ġgpt": 6339,
      "Ġgraph": 6340,
      "Ġgame": 6341,
      "inely": 6342,
      "perpet": 6343,
      "Ġunt": 6344,
      "cost": 6345,
      "Ġnan": 6346,
      "ugger": 6347,
      "ĠWar": 6348,
      "ĠWith": 6349,
      "eget": 6350,
      "eworks": 6351,
      "ĠGroup": 6352,
      "Ġconfl": 6353,
      "earth": 6354,
      "earched": 6355,
      "okers": 6356,
      "udden": 6357,
      "ĠNeigh": 6358,
      "allant": 6359,
      "ishness": 6360,
      "Ġstri": 6361,
      "Ġstand": 6362,
      "Ġstud": 6363,
      "industri": 6364,
      "objective": 6365,
      "oblig": 6366,
      "Ġlat": 6367,
      "Ġlay": 6368,
      "Ġlive": 6369,
      "ageable": 6370,
      "urement": 6371,
      "rections": 6372,
      "astly": 6373,
      "Star": 6374,
      "Stud": 6375,
      "Styl": 6376,
      "ricts": 6377,
      "pointed": 6378,
      "Ġvs": 6379,
      "Ġvirt": 6380,
      "Ġviol": 6381,
      "atizing": 6382,
      "atizes": 6383,
      "ommod": 6384,
      "minent": 6385,
      "ĠStud": 6386,
      "ĠStyl": 6387,
      "Ġexplo": 6388,
      "parti": 6389,
      "locations": 6390,
      "ronics": 6391,
      "ĠVib": 6392,
      "ĠVector": 6393,
      "entist": 6394,
      "entiment": 6395,
      "owner": 6396,
      "owned": 6397,
      "Ġproduct": 6398,
      "direction": 6399,
      "arely": 6400,
      "discrimin": 6401,
      "ribed": 6402,
      "Ġdiscrimin": 6403,
      "viol": 6404,
      "awning": 6405,
      "eteros": 6406,
      "flip": 6407,
      "ync": 6408,
      "ialist": 6409,
      "veled": 6410,
      "energ": 6411,
      "energy": 6412,
      "ountain": 6413,
      "weighting": 6414,
      "uffling": 6415,
      "ixels": 6416,
      "plicity": 6417,
      "axi": 6418,
      "attles": 6419,
      "crete": 6420,
      "ickest": 6421,
      "ickness": 6422,
      "duces": 6423,
      "Ġimplement": 6424,
      "aft": 6425,
      "Quan": 6426,
      "Quad": 6427,
      "Question": 6428,
      "mode": 6429,
      "Discrimin": 6430,
      "office": 6431,
      "ĠDiscrimin": 6432,
      "title": 6433,
      "Answ": 6434,
      "desk": 6435,
      "ringe": 6436,
      "Ġrespons": 6437,
      "Ġadap": 6438,
      "reads": 6439,
      "readable": 6440,
      "accur": 6441,
      "metic": 6442,
      "Ġcomputer": 6443,
      "eeks": 6444,
      "authentic": 6445,
      "Adv": 6446,
      "volves": 6447,
      "volunt": 6448,
      "reaks": 6449,
      "reaking": 6450,
      "noo": 6451,
      "ĠAdv": 6452,
      "ĠKnowledge": 6453,
      "curred": 6454,
      "Recogn": 6455,
      "ĠRecogn": 6456,
      "ushy": 6457,
      "Through": 6458,
      "Ġrob": 6459,
      "monopol": 6460,
      "Ġlem": 6461,
      "ceptive": 6462,
      "randing": 6463,
      "netes": 6464,
      "Ġquan": 6465,
      "Ġquanti": 6466,
      "apses": 6467,
      "Ġdecre": 6468,
      "rapes": 6469,
      "meric": 6470,
      "untu": 6471,
      "diction": 6472,
      "Ġpartic": 6473,
      "Ġparameter": 6474,
      "azy": 6475,
      "azon": 6476,
      "rupts": 6477,
      "rawl": 6478,
      "Ġperpet": 6479,
      "Ġapproxim": 6480,
      "rusts": 6481,
      "rusting": 6482,
      "Ġacqu": 6483,
      "Ġoblig": 6484,
      "ealthy": 6485,
      "atised": 6486,
      "atisfac": 6487,
      "Approxim": 6488,
      "affle": 6489,
      "affles": 6490,
      "ossy": 6491,
      "osses": 6492,
      "worth": 6493,
      "Ġanim": 6494,
      "meth": 6495,
      "rounds": 6496,
      "ĠApproxim": 6497,
      "ereot": 6498,
      "siders": 6499,
      "ĠQuan": 6500,
      "ĠQuad": 6501,
      "ĠQuestion": 6502,
      "uckle": 6503,
      "ucket": 6504,
      "ttp": 6505,
      "anker": 6506,
      "ielded": 6507,
      "ensely": 6508,
      "generation": 6509,
      "stitute": 6510,
      "stitutes": 6511,
      "stitutions": 6512,
      "Ġcommunic": 6513,
      "ophistic": 6514,
      "estimation": 6515,
      "estimated": 6516,
      "estimates": 6517,
      "Ġeval": 6518,
      "Ġevent": 6519,
      "surprising": 6520,
      "Depth": 6521,
      "glom": 6522,
      "tight": 6523,
      "romatic": 6524,
      "coded": 6525,
      "aunch": 6526,
      "aunted": 6527,
      "requently": 6528,
      "efulness": 6529,
      "Ġamor": 6530,
      "hibit": 6531,
      "hibits": 6532,
      "ĠObject": 6533,
      "alfunction": 6534,
      "emption": 6535,
      "Colon": 6536,
      "Ġindustri": 6537,
      "uggling": 6538,
      "clean": 6539,
      "Ġmonopol": 6540,
      "ĠColon": 6541,
      "erci": 6542,
      "ercial": 6543,
      "elta": 6544,
      "irable": 6545,
      "wares": 6546,
      "keepers": 6547,
      "digiti": 6548,
      "Atten": 6549,
      "oader": 6550,
      "ynamically": 6551,
      "emini": 6552,
      "planted": 6553,
      "clusively": 6554,
      "totype": 6555,
      "rogate": 6556,
      "Ġmanip": 6557,
      "collabor": 6558,
      "Ġprioriti": 6559,
      "amental": 6560,
      "ĠManip": 6561,
      "engineers": 6562,
      "Smart": 6563,
      "ĠSmart": 6564,
      "fortun": 6565,
      "ĠAtten": 6566,
      "ivalent": 6567,
      "Ġorig": 6568,
      "gnostic": 6569,
      "Ġcollabor": 6570,
      "rongly": 6571,
      "plexity": 6572,
      "Learn": 6573,
      "ublished": 6574,
      "ensorflow": 6575,
      "agrams": 6576,
      "automated": 6577,
      "canon": 6578,
      "Ġmotiv": 6579,
      "cribing": 6580,
      "provement": 6581,
      "rypted": 6582,
      "pooling": 6583,
      "Device": 6584,
      "Ġoccup": 6585,
      "ummy": 6586,
      "iconduct": 6587,
      "addles": 6588,
      "courage": 6589,
      "atisfied": 6590,
      "ĠQue": 6591,
      "ĠQual": 6592,
      "obileNet": 6593,
      "rudence": 6594,
      "types": 6595,
      "close": 6596,
      "habit": 6597,
      "jacent": 6598,
      "Ġdigiti": 6599,
      "201": 6600,
      "Employ": 6601,
      "ysicist": 6602,
      "stitutional": 6603,
      "relevant": 6604,
      "perfect": 6605,
      "parametric": 6606,
      "Robot": 6607,
      "Ġcanon": 6608,
      "idelity": 6609,
      "computers": 6610,
      "ashioned": 6611,
      "Sequence": 6612,
      "hythm": 6613,
      "ubernetes": 6614,
      "Connected": 6615,
      "courag": 6616,
      "STM": 6617,
      "speech": 6618,
      "adigm": 6619,
      "tereot": 6620,
      "Act": 6621,
      "Bul": 6622,
      "Best": 6623,
      "Beh": 6624,
      "Cro": 6625,
      "Cred": 6626,
      "Categor": 6627,
      "Critic": 6628,
      "Draw": 6629,
      "DNN": 6630,
      "Distribution": 6631,
      "Ep": 6632,
      "Educ": 6633,
      "Emer": 6634,
      "Estim": 6635,
      "Fi": 6636,
      "Fund": 6637,
      "Fix": 6638,
      "Frag": 6639,
      "Front": 6640,
      "Gam": 6641,
      "Gran": 6642,
      "Grand": 6643,
      "HT": 6644,
      "Ign": 6645,
      "Law": 6646,
      "LSTM": 6647,
      "Mel": 6648,
      "Mig": 6649,
      "Mist": 6650,
      "Mail": 6651,
      "Max": 6652,
      "Meas": 6653,
      "Matrix": 6654,
      "Numer": 6655,
      "OC": 6656,
      "Oct": 6657,
      "Ops": 6658,
      "PG": 6659,
      "PI": 6660,
      "Pat": 6661,
      "Pol": 6662,
      "Pos": 6663,
      "Pick": 6664,
      "Python": 6665,
      "Rer": 6666,
      "Rac": 6667,
      "Ray": 6668,
      "Rain": 6669,
      "Rele": 6670,
      "Rank": 6671,
      "RAM": 6672,
      "SI": 6673,
      "Ser": 6674,
      "Sing": 6675,
      "Snow": 6676,
      "Simpl": 6677,
      "Tech": 6678,
      "Tool": 6679,
      "Torch": 6680,
      "Ur": 6681,
      "VA": 6682,
      "Viol": 6683,
      "Wild": 6684,
      "Weak": 6685,
      "Weigh": 6686,
      "bon": 6687,
      "bro": 6688,
      "bew": 6689,
      "bits": 6690,
      "bull": 6691,
      "bee": 6692,
      "body": 6693,
      "bird": 6694,
      "battle": 6695,
      "cased": 6696,
      "culti": 6697,
      "corn": 6698,
      "cache": 6699,
      "circum": 6700,
      "crystall": 6701,
      "dam": 6702,
      "dates": 6703,
      "due": 6704,
      "drag": 6705,
      "dark": 6706,
      "divers": 6707,
      "documented": 6708,
      "eered": 6709,
      "fail": 6710,
      "fore": 6711,
      "faces": 6712,
      "fresh": 6713,
      "fixed": 6714,
      "hoc": 6715,
      "hold": 6716,
      "haul": 6717,
      "iked": 6718,
      "junctions": 6719,
      "knowledg": 6720,
      "len": 6721,
      "liber": 6722,
      "lasting": 6723,
      "lighting": 6724,
      "mates": 6725,
      "machine": 6726,
      "mobility": 6727,
      "numer": 6728,
      "peg": 6729,
      "patched": 6730,
      "paste": 6731,
      "pixel": 6732,
      "rash": 6733,
      "sne": 6734,
      "some": 6735,
      "schem": 6736,
      "simpl": 6737,
      "sales": 6738,
      "sleep": 6739,
      "sexu": 6740,
      "sweet": 6741,
      "software": 6742,
      "tor": 6743,
      "tter": 6744,
      "tles": 6745,
      "tml": 6746,
      "torch": 6747,
      "tasking": 6748,
      "uable": 6749,
      "utility": 6750,
      "viv": 6751,
      "vote": 6752,
      "voted": 6753,
      "votes": 6754,
      "vapor": 6755,
      "was": 6756,
      "wher": 6757,
      "walks": 6758,
      "xml": 6759,
      "yeb": 6760,
      "zip": 6761,
      "Ġlock": 6762,
      "Ġampl": 6763,
      "Ġorient": 6764,
      "Ġie": 6765,
      "Ġeduc": 6766,
      "Ġoct": 6767,
      "Ġangular": 6768,
      "Ġoscill": 6769,
      "ini": 6770,
      "erk": 6771,
      "escal": 6772,
      "onally": 6773,
      "tiles": 6774,
      "enhanced": 6775,
      "aligned": 6776,
      "orations": 6777,
      "rely": 6778,
      "realistic": 6779,
      "analog": 6780,
      "areness": 6781,
      "array": 6782,
      "isp": 6783,
      "isons": 6784,
      "leted": 6785,
      "icrow": 6786,
      "aser": 6787,
      "asual": 6788,
      "rots": 6789,
      "raised": 6790,
      "raises": 6791,
      "union": 6792,
      "unking": 6793,
      "unities": 6794,
      "uniform": 6795,
      "std": 6796,
      "stood": 6797,
      "stances": 6798,
      "strap": 6799,
      "entation": 6800,
      "ecked": 6801,
      "about": 6802,
      "ilinear": 6803,
      "Ġcos": 6804,
      "Ġclear": 6805,
      "Ġcopy": 6806,
      "Ġcircum": 6807,
      "Ġcrystall": 6808,
      "Ġschem": 6809,
      "Ġsimpl": 6810,
      "Ġsleep": 6811,
      "Ġsexu": 6812,
      "Ġsweet": 6813,
      "Ġsoftware": 6814,
      "olved": 6815,
      "ĠSer": 6816,
      "ĠSing": 6817,
      "ĠSide": 6818,
      "ĠSnow": 6819,
      "ĠSimpl": 6820,
      "ĠSemi": 6821,
      "utability": 6822,
      "ĠCro": 6823,
      "ĠCred": 6824,
      "ĠCare": 6825,
      "ĠCategor": 6826,
      "ĠCritic": 6827,
      "usability": 6828,
      "chair": 6829,
      "Ġpot": 6830,
      "Ġport": 6831,
      "dead": 6832,
      "dequ": 6833,
      "adow": 6834,
      "adder": 6835,
      "advis": 6836,
      "addle": 6837,
      "advert": 6838,
      "advantage": 6839,
      "amy": 6840,
      "emo": 6841,
      "ĠPat": 6842,
      "ĠPol": 6843,
      "ĠPart": 6844,
      "ĠPick": 6845,
      "Influ": 6846,
      "Investig": 6847,
      "Ġday": 6848,
      "Ġdrag": 6849,
      "Ġdark": 6850,
      "Ġdivers": 6851,
      "ceful": 6852,
      "ceive": 6853,
      "cefully": 6854,
      "imped": 6855,
      "ĠAct": 6856,
      "ĠRer": 6857,
      "ĠRac": 6858,
      "ĠRain": 6859,
      "ĠRandom": 6860,
      "ĠDraw": 6861,
      "verge": 6862,
      "verging": 6863,
      "verges": 6864,
      "verbal": 6865,
      "vergence": 6866,
      "appe": 6867,
      "idi": 6868,
      "idding": 6869,
      "Ġment": 6870,
      "Ġmess": 6871,
      "Ġmag": 6872,
      "Ġmeas": 6873,
      "ticing": 6874,
      "ummed": 6875,
      "thog": 6876,
      "plays": 6877,
      "pliers": 6878,
      "exped": 6879,
      "existing": 6880,
      "expected": 6881,
      "ĠMel": 6882,
      "ĠMig": 6883,
      "ĠMist": 6884,
      "ĠMeas": 6885,
      "opened": 6886,
      "irrit": 6887,
      "Ġrecomm": 6888,
      "Ġfund": 6889,
      "Ġfail": 6890,
      "Ġfact": 6891,
      "Ġfore": 6892,
      "Ġfrag": 6893,
      "esters": 6894,
      "ĠTree": 6895,
      "ĠTool": 6896,
      "ĠType": 6897,
      "odor": 6898,
      "Ġbro": 6899,
      "Ġbew": 6900,
      "Ġten": 6901,
      "Ġtru": 6902,
      "Ġtoler": 6903,
      "Ġtoken": 6904,
      "Ġtouch": 6905,
      "Ġtooth": 6906,
      "istently": 6907,
      "ĠEp": 6908,
      "ĠEmer": 6909,
      "ĠEstim": 6910,
      "contr": 6911,
      "concer": 6912,
      "constrained": 6913,
      "Ġinvestig": 6914,
      "ĠFac": 6915,
      "ĠFund": 6916,
      "ĠFace": 6917,
      "ĠFrag": 6918,
      "ĠFront": 6919,
      "ranging": 6920,
      "ĠBul": 6921,
      "ĠBest": 6922,
      "occurrence": 6923,
      "occurring": 6924,
      "endors": 6925,
      "Univers": 6926,
      "provis": 6927,
      "atings": 6928,
      "Ġhes": 6929,
      "Ġhost": 6930,
      "Ġwher": 6931,
      "assess": 6932,
      "ensions": 6933,
      "ensively": 6934,
      "ainted": 6935,
      "orms": 6936,
      "ighth": 6937,
      "ĠInflu": 6938,
      "ĠInvestig": 6939,
      "rests": 6940,
      "ĠHow": 6941,
      "spiring": 6942,
      "ĠLab": 6943,
      "ĠLay": 6944,
      "ĠLight": 6945,
      "Ġgent": 6946,
      "Ġget": 6947,
      "Ġgroup": 6948,
      "phon": 6949,
      "pertin": 6950,
      "ĠOct": 6951,
      "coin": 6952,
      "coordin": 6953,
      "ledged": 6954,
      "Ġnull": 6955,
      "Ġnumer": 6956,
      "Ġnecess": 6957,
      "ĠWild": 6958,
      "ĠWalk": 6959,
      "ĠWeak": 6960,
      "avoring": 6961,
      "trade": 6962,
      "screw": 6963,
      "ĠGam": 6964,
      "ĠGran": 6965,
      "ĠGrand": 6966,
      "Ġcontr": 6967,
      "ĠNumer": 6968,
      "bots": 6969,
      "Contr": 6970,
      "overed": 6971,
      "Ġstat": 6972,
      "Ġstar": 6973,
      "Ġstep": 6974,
      "clust": 6975,
      "client": 6976,
      "click": 6977,
      "industry": 6978,
      "share": 6979,
      "shake": 6980,
      "sharp": 6981,
      "outed": 6982,
      "Ġlif": 6983,
      "Ġliv": 6984,
      "Ġlaw": 6985,
      "Ġliter": 6986,
      "Ġliber": 6987,
      "ĠConnec": 6988,
      "ĠContr": 6989,
      "recomm": 6990,
      "ramble": 6991,
      "Stop": 6992,
      "illions": 6993,
      "Ġvapor": 6994,
      "reduc": 6995,
      "Ġdevelop": 6996,
      "ĠID": 6997,
      "ĠIT": 6998,
      "ĠIgn": 6999,
      "mining": 7000,
      "miniatur": 7001,
      "Ġexam": 7002,
      "Ġexped": 7003,
      "particip": 7004,
      "ronic": 7005,
      "ronically": 7006,
      "ĠViol": 7007,
      "rowns": 7008,
      "rowned": 7009,
      "issed": 7010,
      "tooth": 7011,
      "complex": 7012,
      "comprehens": 7013,
      "versed": 7014,
      "versing": 7015,
      "versal": 7016,
      "versions": 7017,
      "Explo": 7018,
      "Product": 7019,
      "ofs": 7020,
      "typed": 7021,
      "cesses": 7022,
      "ĠExplo": 7023,
      "atcher": 7024,
      "flies": 7025,
      "blems": 7026,
      "ught": 7027,
      "Child": 7028,
      "rels": 7029,
      "relate": 7030,
      "forget": 7031,
      "forces": 7032,
      "interpol": 7033,
      "Ġjus": 7034,
      "attacks": 7035,
      "duck": 7036,
      "Ġthe": 7037,
      "Ġthought": 7038,
      "Ġsubsid": 7039,
      "Quanti": 7040,
      "moving": 7041,
      "Ant": 7042,
      "Anim": 7043,
      "ĠUr": 7044,
      "ĠUps": 7045,
      "region": 7046,
      "inky": 7047,
      "ĠAnt": 7048,
      "ĠAnim": 7049,
      "berries": 7050,
      "modified": 7051,
      "modeling": 7052,
      "accum": 7053,
      "specified": 7054,
      "managed": 7055,
      "manager": 7056,
      "means": 7057,
      "riters": 7058,
      "Ġcompar": 7059,
      "Compar": 7060,
      "Computer": 7061,
      "serve": 7062,
      "node": 7063,
      "ĠAdap": 7064,
      "linearity": 7065,
      "logging": 7066,
      "visual": 7067,
      "visited": 7068,
      "Resource": 7069,
      "Respons": 7070,
      "command": 7071,
      "ĠCompar": 7072,
      "ĠComputer": 7073,
      "Rece": 7074,
      "ĠRece": 7075,
      "Thought": 7076,
      "Ġround": 7077,
      "Ġroll": 7078,
      "rided": 7079,
      "riding": 7080,
      "ĠResource": 7081,
      "ĠRespons": 7082,
      "monitoring": 7083,
      "ampa": 7084,
      "Ġlex": 7085,
      "Ġquestion": 7086,
      "being": 7087,
      "structures": 7088,
      "correction": 7089,
      "consol": 7090,
      "worker": 7091,
      "Implement": 7092,
      "Ġkind": 7093,
      "Ġparticip": 7094,
      "Particip": 7095,
      "slashes": 7096,
      "tracing": 7097,
      "easing": 7098,
      "Ġappe": 7099,
      "vented": 7100,
      "section": 7101,
      "second": 7102,
      "Auth": 7103,
      "ĠImplement": 7104,
      "Overl": 7105,
      "ĠParameter": 7106,
      "ĠParticip": 7107,
      "Ġany": 7108,
      "Ġanalog": 7109,
      "stands": 7110,
      "tractor": 7111,
      "tractors": 7112,
      "olec": 7113,
      "eyed": 7114,
      "eeping": 7115,
      "Ġemploy": 7116,
      "ceptor": 7117,
      "ĠQuanti": 7118,
      "rested": 7119,
      "ructuring": 7120,
      "ructural": 7121,
      "operable": 7122,
      "operate": 7123,
      "operated": 7124,
      "organize": 7125,
      "oids": 7126,
      "rift": 7127,
      "variant": 7128,
      "factory": 7129,
      "demand": 7130,
      "Ġtransl": 7131,
      "Phone": 7132,
      "rench": 7133,
      "Trade": 7134,
      "topic": 7135,
      "educed": 7136,
      "eduction": 7137,
      "Ġminiatur": 7138,
      "counting": 7139,
      "Ġtrade": 7140,
      "changes": 7141,
      "precision": 7142,
      "rafting": 7143,
      "chemist": 7144,
      "Ġmodel": 7145,
      "Communic": 7146,
      "Speci": 7147,
      "trivial": 7148,
      "straight": 7149,
      "rison": 7150,
      "Ġaccum": 7151,
      "Ġacceler": 7152,
      "plaining": 7153,
      "ĠTrade": 7154,
      "allowing": 7155,
      "two": 7156,
      "informed": 7157,
      "informatics": 7158,
      "ĠCommunic": 7159,
      "sequent": 7160,
      "sequences": 7161,
      "market": 7162,
      "provided": 7163,
      "ooming": 7164,
      "hosted": 7165,
      "oading": 7166,
      "onomy": 7167,
      "onomic": 7168,
      "claims": 7169,
      "planes": 7170,
      "current": 7171,
      "currences": 7172,
      "Ġirrit": 7173,
      "continuous": 7174,
      "configurable": 7175,
      "mutable": 7176,
      "rophy": 7177,
      "activated": 7178,
      "activating": 7179,
      "lotted": 7180,
      "piece": 7181,
      "Ġasp": 7182,
      "terminated": 7183,
      "scribe": 7184,
      "octor": 7185,
      "arriage": 7186,
      "urrency": 7187,
      "experiment": 7188,
      "Ġtwo": 7189,
      "Ampl": 7190,
      "ĠAmpl": 7191,
      "assembling": 7192,
      "Accum": 7193,
      "notation": 7194,
      "systems": 7195,
      "ĠSpeci": 7196,
      "compliance": 7197,
      "optimal": 7198,
      "ĠAccum": 7199,
      "ĠAcceler": 7200,
      "developers": 7201,
      "sensitive": 7202,
      "existent": 7203,
      "automation": 7204,
      "holder": 7205,
      "squared": 7206,
      "Board": 7207,
      "Collabor": 7208,
      "storms": 7209,
      "stantiated": 7210,
      "ĠCollabor": 7211,
      "Ġverb": 7212,
      "ruby": 7213,
      "changeable": 7214,
      "grounds": 7215,
      "Ġidentif": 7216,
      "ehaviour": 7217,
      "checks": 7218,
      "Ġworld": 7219,
      "Straight": 7220,
      "negative": 7221,
      "ĠStraight": 7222,
      "Ġstraight": 7223,
      "Processing": 7224,
      "eemed": 7225,
      "study": 7226,
      "Ġpersu": 7227,
      "controller": 7228,
      "probable": 7229,
      "definite": 7230,
      "double": 7231,
      "html": 7232,
      "stationary": 7233,
      "Ġdouble": 7234,
      "parameters": 7235,
      "interpreted": 7236,
      "communication": 7237,
      "Scaling": 7238,
      "Ġexperiment": 7239,
      "Identif": 7240,
      "aliasing": 7241,
      "interpretation": 7242,
      "clockwise": 7243,
      "width": 7244,
      "accelerated": 7245,
      "breeding": 7246,
      "ĠIdentif": 7247,
      "Ġruby": 7248,
      "Dependent": 7249,
      "availability": 7250,
      "Friendly": 7251,
      "explored": 7252,
      "entropy": 7253,
      "screens": 7254,
      "Audio": 7255,
      "Bound": 7256,
      "Boot": 7257,
      "Benef": 7258,
      "CD": 7259,
      "Cand": 7260,
      "Cost": 7261,
      "Copy": 7262,
      "Circum": 7263,
      "DA": 7264,
      "Ded": 7265,
      "Dark": 7266,
      "Duck": 7267,
      "Divers": 7268,
      "Domain": 7269,
      "Ever": 7270,
      "Eth": 7271,
      "Esc": 7272,
      "Ess": 7273,
      "Event": 7274,
      "Every": 7275,
      "Econom": 7276,
      "Fram": 7277,
      "Fort": 7278,
      "Fail": 7279,
      "Fixed": 7280,
      "False": 7281,
      "FLO": 7282,
      "Gro": 7283,
      "Ground": 7284,
      "GPU": 7285,
      "Hack": 7286,
      "Host": 7287,
      "Ion": 7288,
      "Jus": 7289,
      "Journ": 7290,
      "LU": 7291,
      "Lead": 7292,
      "Liter": 7293,
      "Liber": 7294,
      "Ment": 7295,
      "Mus": 7296,
      "Map": 7297,
      "Multic": 7298,
      "NI": 7299,
      "Nan": 7300,
      "Need": 7301,
      "Nomin": 7302,
      "Navig": 7303,
      "Os": 7304,
      "Old": 7305,
      "Pot": 7306,
      "Ra": 7307,
      "Rub": 7308,
      "Right": 7309,
      "Round": 7310,
      "Road": 7311,
      "SB": 7312,
      "She": 7313,
      "Size": 7314,
      "Seas": 7315,
      "Safe": 7316,
      "TP": 7317,
      "Ten": 7318,
      "Troub": 7319,
      "UR": 7320,
      "Vers": 7321,
      "Vision": 7322,
      "Virt": 7323,
      "Voice": 7324,
      "Verb": 7325,
      "Way": 7326,
      "aS": 7327,
      "aire": 7328,
      "aunt": 7329,
      "aiting": 7330,
      "aude": 7331,
      "aque": 7332,
      "audio": 7333,
      "aBy": 7334,
      "ahedron": 7335,
      "aaS": 7336,
      "bear": 7337,
      "bian": 7338,
      "buster": 7339,
      "benef": 7340,
      "cd": 7341,
      "cp": 7342,
      "cand": 7343,
      "cled": 7344,
      "cav": 7345,
      "canc": 7346,
      "cements": 7347,
      "cnn": 7348,
      "dit": 7349,
      "dol": 7350,
      "dos": 7351,
      "dling": 7352,
      "dled": 7353,
      "dry": 7354,
      "dles": 7355,
      "dual": 7356,
      "doms": 7357,
      "docker": 7358,
      "deliver": 7359,
      "dynamic": 7360,
      "eit": 7361,
      "eign": 7362,
      "etit": 7363,
      "feat": 7364,
      "fade": 7365,
      "gig": 7366,
      "gument": 7367,
      "hz": 7368,
      "hal": 7369,
      "hous": 7370,
      "hair": 7371,
      "hou": 7372,
      "home": 7373,
      "hale": 7374,
      "hands": 7375,
      "haling": 7376,
      "holic": 7377,
      "haled": 7378,
      "harmon": 7379,
      "husias": 7380,
      "iD": 7381,
      "iP": 7382,
      "itic": 7383,
      "ieg": 7384,
      "iably": 7385,
      "iography": 7386,
      "lity": 7387,
      "ltim": 7388,
      "liness": 7389,
      "mn": 7390,
      "mus": 7391,
      "mable": 7392,
      "mass": 7393,
      "make": 7394,
      "nes": 7395,
      "nally": 7396,
      "nomin": 7397,
      "navig": 7398,
      "negoti": 7399,
      "oed": 7400,
      "oil": 7401,
      "ooping": 7402,
      "pit": 7403,
      "pable": 7404,
      "pric": 7405,
      "paces": 7406,
      "pelled": 7407,
      "ppy": 7408,
      "plying": 7409,
      "rat": 7410,
      "rine": 7411,
      "rals": 7412,
      "rins": 7413,
      "rators": 7414,
      "rists": 7415,
      "rump": 7416,
      "rils": 7417,
      "rilled": 7418,
      "sen": 7419,
      "sense": 7420,
      "schedul": 7421,
      "tur": 7422,
      "tog": 7423,
      "tude": 7424,
      "templ": 7425,
      "trick": 7426,
      "temper": 7427,
      "uum": 7428,
      "upl": 7429,
      "uep": 7430,
      "ueb": 7431,
      "uite": 7432,
      "ualize": 7433,
      "vents": 7434,
      "vacc": 7435,
      "voic": 7436,
      "vidia": 7437,
      "wash": 7438,
      "welling": 7439,
      "yen": 7440,
      "yll": 7441,
      "zations": 7442,
      "zilla": 7443,
      "Ġri": 7444,
      "Ġif": 7445,
      "Ġack": 7446,
      "Ġke": 7447,
      "Ġeth": 7448,
      "inom": 7449,
      "inion": 7450,
      "infer": 7451,
      "inality": 7452,
      "inational": 7453,
      "inery": 7454,
      "instruction": 7455,
      "ero": 7456,
      "erity": 7457,
      "erco": 7458,
      "erks": 7459,
      "erator": 7460,
      "erings": 7461,
      "erators": 7462,
      "ede": 7463,
      "edited": 7464,
      "estiv": 7465,
      "esian": 7466,
      "esigned": 7467,
      "onant": 7468,
      "onish": 7469,
      "onance": 7470,
      "onna": 7471,
      "tique": 7472,
      "tibility": 7473,
      "titious": 7474,
      "entim": 7475,
      "entions": 7476,
      "enari": 7477,
      "ename": 7478,
      "enium": 7479,
      "alg": 7480,
      "alax": 7481,
      "alties": 7482,
      "altern": 7483,
      "ato": 7484,
      "atness": 7485,
      "atell": 7486,
      "atoes": 7487,
      "ora": 7488,
      "oric": 7489,
      "orim": 7490,
      "oreg": 7491,
      "orage": 7492,
      "orical": 7493,
      "orial": 7494,
      "reve": 7495,
      "reform": 7496,
      "rell": 7497,
      "reme": 7498,
      "ana": 7499,
      "anic": 7500,
      "anion": 7501,
      "aniti": 7502,
      "anatic": 7503,
      "anonym": 7504,
      "arer": 7505,
      "arce": 7506,
      "aried": 7507,
      "arith": 7508,
      "arbit": 7509,
      "arithm": 7510,
      "isor": 7511,
      "istive": 7512,
      "isive": 7513,
      "leb": 7514,
      "leader": 7515,
      "itance": 7516,
      "itability": 7517,
      "ittle": 7518,
      "icol": 7519,
      "aset": 7520,
      "astics": 7521,
      "asms": 7522,
      "rogram": 7523,
      "rott": 7524,
      "roeconom": 7525,
      "rad": 7526,
      "ratic": 7527,
      "rape": 7528,
      "raving": 7529,
      "unm": 7530,
      "unked": 7531,
      "strate": 7532,
      "enty": 7533,
      "ulp": 7534,
      "ulable": 7535,
      "ulum": 7536,
      "ulse": 7537,
      "ecl": 7538,
      "elder": 7539,
      "elcome": 7540,
      "elenium": 7541,
      "omal": 7542,
      "omeb": 7543,
      "omorphic": 7544,
      "acs": 7545,
      "acec": 7546,
      "acies": 7547,
      "abin": 7548,
      "abular": 7549,
      "ilo": 7550,
      "illy": 7551,
      "ilest": 7552,
      "ilted": 7553,
      "iliti": 7554,
      "ilob": 7555,
      "illow": 7556,
      "ilized": 7557,
      "ilky": 7558,
      "Ġcand": 7559,
      "Ġcour": 7560,
      "Ġcanc": 7561,
      "Ġclos": 7562,
      "Ġcount": 7563,
      "Ġceleb": 7564,
      "Ġsed": 7565,
      "Ġsing": 7566,
      "Ġshe": 7567,
      "Ġscre": 7568,
      "Ġsever": 7569,
      "Ġsynthes": 7570,
      "urric": 7571,
      "urized": 7572,
      "urrect": 7573,
      "urger": 7574,
      "ols": 7575,
      "ĠShe": 7576,
      "ĠSeas": 7577,
      "ĠSynthes": 7578,
      "ĠSpeech": 7579,
      "etal": 7580,
      "etra": 7581,
      "etches": 7582,
      "essell": 7583,
      "essive": 7584,
      "utures": 7585,
      "ĠCand": 7586,
      "ĠCook": 7587,
      "ĠCopy": 7588,
      "ĠCircum": 7589,
      "usk": 7590,
      "usal": 7591,
      "rization": 7592,
      "chart": 7593,
      "cheer": 7594,
      "Ġpython": 7595,
      "Ġpleas": 7596,
      "izar": 7597,
      "izard": 7598,
      "izont": 7599,
      "love": 7600,
      "loqu": 7601,
      "igent": 7602,
      "igens": 7603,
      "igare": 7604,
      "adm": 7605,
      "ado": 7606,
      "ady": 7607,
      "admin": 7608,
      "terror": 7609,
      "ampo": 7610,
      "amins": 7611,
      "ameness": 7612,
      "amously": 7613,
      "ĠPot": 7614,
      "ĠPublic": 7615,
      "Input": 7616,
      "agraph": 7617,
      "aggle": 7618,
      "aggreg": 7619,
      "aggers": 7620,
      "Ġdon": 7621,
      "Ġdro": 7622,
      "Ġdish": 7623,
      "Ġdocker": 7624,
      "celeb": 7625,
      "imod": 7626,
      "immer": 7627,
      "imented": 7628,
      "ĠAx": 7629,
      "ĠRa": 7630,
      "ĠRub": 7631,
      "ĠRound": 7632,
      "ĠDed": 7633,
      "ĠDark": 7634,
      "ĠDivers": 7635,
      "verter": 7636,
      "verage": 7637,
      "verged": 7638,
      "verters": 7639,
      "vergent": 7640,
      "apist": 7641,
      "apple": 7642,
      "application": 7643,
      "idic": 7644,
      "idences": 7645,
      "Ġms": 7646,
      "Ġmus": 7647,
      "Ġmass": 7648,
      "umn": 7649,
      "umper": 7650,
      "uments": 7651,
      "umatic": 7652,
      "thunder": 7653,
      "thood": 7654,
      "throp": 7655,
      "plen": 7656,
      "plier": 7657,
      "pliance": 7658,
      "exts": 7659,
      "ĠMe": 7660,
      "ĠMent": 7661,
      "ĠMus": 7662,
      "ĠMultic": 7663,
      "opaths": 7664,
      "opilot": 7665,
      "opartic": 7666,
      "irr": 7667,
      "irs": 7668,
      "irror": 7669,
      "irls": 7670,
      "Ġreform": 7671,
      "uplex": 7672,
      "Ġflow": 7673,
      "Ġfort": 7674,
      "Ġfix": 7675,
      "Ġfade": 7676,
      "Ġfeed": 7677,
      "Ġfresh": 7678,
      "Ġfaith": 7679,
      "osable": 7680,
      "osystem": 7681,
      "osphere": 7682,
      "atedly": 7683,
      "estri": 7684,
      "estors": 7685,
      "esture": 7686,
      "ĠTy": 7687,
      "ĠTen": 7688,
      "ĠTask": 7689,
      "ĠToler": 7690,
      "ĠToken": 7691,
      "ĠTouch": 7692,
      "ĠTroub": 7693,
      "ifty": 7694,
      "quari": 7695,
      "quests": 7696,
      "odic": 7697,
      "oday": 7698,
      "odless": 7699,
      "ota": 7700,
      "otting": 7701,
      "otechnology": 7702,
      "Ġbig": 7703,
      "Ġbot": 7704,
      "Ġboy": 7705,
      "Ġbenef": 7706,
      "ubes": 7707,
      "ubble": 7708,
      "ubby": 7709,
      "ubbed": 7710,
      "ubuntu": 7711,
      "Ġtro": 7712,
      "Ġtry": 7713,
      "Ġtrick": 7714,
      "ionate": 7715,
      "istors": 7716,
      "istration": 7717,
      "ĠEth": 7718,
      "ĠEsc": 7719,
      "ĠEvent": 7720,
      "ĠEvery": 7721,
      "ĠEconom": 7722,
      "conserv": 7723,
      "container": 7724,
      "Ġinfer": 7725,
      "Ġinser": 7726,
      "Ġinstruction": 7727,
      "Ġinstall": 7728,
      "ĠFram": 7729,
      "ĠFort": 7730,
      "ĠFail": 7731,
      "ĠFunction": 7732,
      "ĠFixed": 7733,
      "ĠFalse": 7734,
      "ranes": 7735,
      "rangle": 7736,
      "ĠBoot": 7737,
      "ĠBenef": 7738,
      "ocomp": 7739,
      "ocating": 7740,
      "oglyph": 7741,
      "endation": 7742,
      "endum": 7743,
      "endants": 7744,
      "Unb": 7745,
      "Unit": 7746,
      "ffle": 7747,
      "Ġhous": 7748,
      "Ġhear": 7749,
      "Ġhair": 7750,
      "Ġhome": 7751,
      "Ġhands": 7752,
      "Ġharmon": 7753,
      "tingu": 7754,
      "undling": 7755,
      "undant": 7756,
      "undry": 7757,
      "undred": 7758,
      "eped": 7759,
      "epad": 7760,
      "eptic": 7761,
      "assle": 7762,
      "assad": 7763,
      "ensing": 7764,
      "aints": 7765,
      "ormal": 7766,
      "ormalization": 7767,
      "mentations": 7768,
      "ipel": 7769,
      "ipse": 7770,
      "ipolar": 7771,
      "akef": 7772,
      "anda": 7773,
      "andw": 7774,
      "andon": 7775,
      "andar": 7776,
      "andel": 7777,
      "ruel": 7778,
      "ruises": 7779,
      "ardon": 7780,
      "ĠHot": 7781,
      "ĠHost": 7782,
      "alizability": 7783,
      "spiration": 7784,
      "ĠList": 7785,
      "ĠLead": 7786,
      "ĠLiter": 7787,
      "ĠLiber": 7788,
      "ĠLife": 7789,
      "Ġgre": 7790,
      "Ġgro": 7791,
      "Ġgig": 7792,
      "Ġground": 7793,
      "ibl": 7794,
      "ibles": 7795,
      "ibli": 7796,
      "php": 7797,
      "phony": 7798,
      "inees": 7799,
      "Ġunm": 7800,
      "ĠOri": 7801,
      "ĠOrig": 7802,
      "ĠOld": 7803,
      "coup": 7804,
      "coholic": 7805,
      "Ġnomin": 7806,
      "Ġnavig": 7807,
      "Ġnegoti": 7808,
      "eform": 7809,
      "efined": 7810,
      "ĠWeight": 7811,
      "egap": 7812,
      "tration": 7813,
      "scop": 7814,
      "score": 7815,
      "ewel": 7816,
      "ewable": 7817,
      "ĠGro": 7818,
      "ĠGround": 7819,
      "Ġconven": 7820,
      "Ġconserv": 7821,
      "Ġconsol": 7822,
      "Ġcontainer": 7823,
      "earches": 7824,
      "earching": 7825,
      "eves": 7826,
      "eview": 7827,
      "evolution": 7828,
      "encil": 7829,
      "encils": 7830,
      "uddle": 7831,
      "ĠNan": 7832,
      "ĠNeed": 7833,
      "ĠNomin": 7834,
      "ĠNavig": 7835,
      "allest": 7836,
      "ishable": 7837,
      "itious": 7838,
      "itizens": 7839,
      "Concept": 7840,
      "Controll": 7841,
      "overeign": 7842,
      "angible": 7843,
      "induc": 7844,
      "indings": 7845,
      "shell": 7846,
      "obs": 7847,
      "ober": 7848,
      "obic": 7849,
      "objec": 7850,
      "obia": 7851,
      "obby": 7852,
      "obiles": 7853,
      "obody": 7854,
      "ectable": 7855,
      "Ġless": 7856,
      "Ġlib": 7857,
      "Ġlik": 7858,
      "Ġlinear": 7859,
      "ellations": 7860,
      "ureauc": 7861,
      "ĠConfig": 7862,
      "rective": 7863,
      "ourist": 7864,
      "ĠUnb": 7865,
      "ordination": 7866,
      "Stat": 7867,
      "Station": 7868,
      "illis": 7869,
      "illain": 7870,
      "illust": 7871,
      "ryst": 7872,
      "rictions": 7873,
      "ricks": 7874,
      "inty": 7875,
      "herence": 7876,
      "sever": 7877,
      "pointer": 7878,
      "Ġvacc": 7879,
      "Ġvoice": 7880,
      "atig": 7881,
      "atient": 7882,
      "atially": 7883,
      "atience": 7884,
      "atility": 7885,
      "atories": 7886,
      "Ġdefin": 7887,
      "achel": 7888,
      "ignation": 7889,
      "ignments": 7890,
      "mini": 7891,
      "minently": 7892,
      "ĠStat": 7893,
      "ĠStar": 7894,
      "parallel": 7895,
      "locate": 7896,
      "locating": 7897,
      "locates": 7898,
      "rones": 7899,
      "ronts": 7900,
      "ronym": 7901,
      "ronaut": 7902,
      "ortable": 7903,
      "ervation": 7904,
      "ervoir": 7905,
      "geo": 7906,
      "ĠVoc": 7907,
      "ĠVirt": 7908,
      "ĠVoice": 7909,
      "ĠVerb": 7910,
      "entity": 7911,
      "entiality": 7912,
      "entists": 7913,
      "Ġax": 7914,
      "rowning": 7915,
      "racts": 7916,
      "ractive": 7917,
      "racies": 7918,
      "ractions": 7919,
      "racks": 7920,
      "racked": 7921,
      "ailment": 7922,
      "ailbo": 7923,
      "comprom": 7924,
      "compreh": 7925,
      "owners": 7926,
      "Ġprob": 7927,
      "Ġproduc": 7928,
      "Ġprogress": 7929,
      "posal": 7930,
      "ashback": 7931,
      "people": 7932,
      "ventive": 7933,
      "versari": 7934,
      "osters": 7935,
      "ostalg": 7936,
      "Exped": 7937,
      "ideog": 7938,
      "discipl": 7939,
      "ferable": 7940,
      "athon": 7941,
      "athing": 7942,
      "athons": 7943,
      "atholic": 7944,
      "actly": 7945,
      "actness": 7946,
      "rible": 7947,
      "ribly": 7948,
      "ribun": 7949,
      "ribution": 7950,
      "ributed": 7951,
      "ributing": 7952,
      "ributes": 7953,
      "element": 7954,
      "eleton": 7955,
      "cession": 7956,
      "ĠExped": 7957,
      "awed": 7958,
      "awned": 7959,
      "eterin": 7960,
      "eterogene": 7961,
      "artment": 7962,
      "artments": 7963,
      "onsense": 7964,
      "tifiers": 7965,
      "Entro": 7966,
      "Enumer": 7967,
      "veling": 7968,
      "yself": 7969,
      "ificant": 7970,
      "ificance": 7971,
      "oney": 7972,
      "onetization": 7973,
      "enerate": 7974,
      "reeze": 7975,
      "Ġchild": 7976,
      "plements": 7977,
      "peck": 7978,
      "weighted": 7979,
      "armer": 7980,
      "armony": 7981,
      "tainability": 7982,
      "ĠEnumer": 7983,
      "tivate": 7984,
      "plicability": 7985,
      "axoph": 7986,
      "ĠChain": 7987,
      "comment": 7988,
      "attling": 7989,
      "Sharp": 7990,
      "icken": 7991,
      "ickening": 7992,
      "Ġimag": 7993,
      "afts": 7994,
      "Ġthunder": 7995,
      "rigg": 7996,
      "rigon": 7997,
      "move": 7998,
      "troph": 7999,
      "anny": 8000,
      "Any": 8001,
      "incor": 8002,
      "incub": 8003,
      "inctive": 8004,
      "inctively": 8005,
      "aternal": 8006,
      "aterpill": 8007,
      "called": 8008,
      "Ġspell": 8009,
      "ĠAny": 8010,
      "Ġadm": 8011,
      "Ġadjust": 8012,
      "Ġadminist": 8013,
      "iths": 8014,
      "oodles": 8015,
      "spection": 8016,
      "spects": 8017,
      "spective": 8018,
      "specting": 8019,
      "manufact": 8020,
      "Ġevery": 8021,
      "mean": 8022,
      "Ġcompet": 8023,
      "engu": 8024,
      "Ġoverl": 8025,
      "warded": 8026,
      "warding": 8027,
      "wardly": 8028,
      "ockro": 8029,
      "ieroglyph": 8030,
      "ographics": 8031,
      "Compet": 8032,
      "eaters": 8033,
      "volutions": 8034,
      "ultures": 8035,
      "ademic": 8036,
      "persed": 8037,
      "personal": 8038,
      "perspir": 8039,
      "logged": 8040,
      "visit": 8041,
      "visions": 8042,
      "commit": 8043,
      "commonly": 8044,
      "ĠCompet": 8045,
      "Recomm": 8046,
      "ĠRecomm": 8047,
      "Spect": 8048,
      "Space": 8049,
      "ĠJus": 8050,
      "chedule": 8051,
      "layers": 8052,
      "umbn": 8053,
      "umbered": 8054,
      "umbering": 8055,
      "ourable": 8056,
      "oolig": 8057,
      "argo": 8058,
      "argers": 8059,
      "argeting": 8060,
      "prises": 8061,
      "lik": 8062,
      "Ġlearn": 8063,
      "ceptional": 8064,
      "Internet": 8065,
      "viewer": 8066,
      "Ġque": 8067,
      "ĠInternet": 8068,
      "arching": 8069,
      "beit": 8070,
      "structor": 8071,
      "structors": 8072,
      "correspond": 8073,
      "ĠSpect": 8074,
      "bler": 8075,
      "ragm": 8076,
      "Ġclim": 8077,
      "equis": 8078,
      "ypically": 8079,
      "what": 8080,
      "Ġaltern": 8081,
      "testation": 8082,
      "testant": 8083,
      "Ġparallel": 8084,
      "azing": 8085,
      "azingly": 8086,
      "Partic": 8087,
      "rawler": 8088,
      "rustrating": 8089,
      "raints": 8090,
      "rainstorm": 8091,
      "Decre": 8092,
      "itcher": 8093,
      "Ġauthentic": 8094,
      "Ġobjec": 8095,
      "Ġobject": 8096,
      "elessness": 8097,
      "atising": 8098,
      "atisfactory": 8099,
      "ursed": 8100,
      "elihood": 8101,
      "Altern": 8102,
      "Sci": 8103,
      "ĠPartic": 8104,
      "kyscra": 8105,
      "Ġanonym": 8106,
      "urbs": 8107,
      "ĠAltern": 8108,
      "doct": 8109,
      "ĠSci": 8110,
      "racting": 8111,
      "eeps": 8112,
      "ything": 8113,
      "tilling": 8114,
      "ombs": 8115,
      "Platform": 8116,
      "sides": 8117,
      "lexible": 8118,
      "anely": 8119,
      "uckily": 8120,
      "Ġassoci": 8121,
      "Flip": 8122,
      "askets": 8123,
      "ipses": 8124,
      "capac": 8125,
      "instanti": 8126,
      "Ġwhat": 8127,
      "imensionality": 8128,
      "operation": 8129,
      "Orchest": 8130,
      "leteness": 8131,
      "oidal": 8132,
      "Ġarbit": 8133,
      "rific": 8134,
      "rifying": 8135,
      "classification": 8136,
      "ascul": 8137,
      "ambda": 8138,
      "generate": 8139,
      "generating": 8140,
      "polar": 8141,
      "alyzed": 8142,
      "ophysical": 8143,
      "gorith": 8144,
      "Associ": 8145,
      "Ġitem": 8146,
      "nowledges": 8147,
      "Transl": 8148,
      "Ġphp": 8149,
      "renal": 8150,
      "skills": 8151,
      "tigh": 8152,
      "romos": 8153,
      "romagnetic": 8154,
      "rument": 8155,
      "ausing": 8156,
      "ausible": 8157,
      "codes": 8158,
      "enetic": 8159,
      "auna": 8160,
      "aunched": 8161,
      "aunching": 8162,
      "remend": 8163,
      "remote": 8164,
      "ĠTransl": 8165,
      "vocations": 8166,
      "acterial": 8167,
      "agonal": 8168,
      "agonist": 8169,
      "agonists": 8170,
      "ponder": 8171,
      "allets": 8172,
      "requent": 8173,
      "chemy": 8174,
      "ĠAssoci": 8175,
      "unnel": 8176,
      "unnels": 8177,
      "unneling": 8178,
      "rutable": 8179,
      "effective": 8180,
      "uitable": 8181,
      "ĠDepth": 8182,
      "ĠDepend": 8183,
      "facilit": 8184,
      "rought": 8185,
      "unicip": 8186,
      "linking": 8187,
      "imentary": 8188,
      "empts": 8189,
      "empted": 8190,
      "empting": 8191,
      "otherapy": 8192,
      "Office": 8193,
      "ĠOrchest": 8194,
      "Color": 8195,
      "Ġaggreg": 8196,
      "imples": 8197,
      "sequently": 8198,
      "echanical": 8199,
      "Ġcorrespond": 8200,
      "rasp": 8201,
      "autious": 8202,
      "ceeds": 8203,
      "ceeding": 8204,
      "earcher": 8205,
      "Aggreg": 8206,
      "onyms": 8207,
      "impan": 8208,
      "oomed": 8209,
      "arbers": 8210,
      "Ġsuperv": 8211,
      "iraff": 8212,
      "irations": 8213,
      "placements": 8214,
      "Network": 8215,
      "closing": 8216,
      "rushed": 8217,
      "rushes": 8218,
      "rushing": 8219,
      "ticeable": 8220,
      "entific": 8221,
      "ynamics": 8222,
      "hesis": 8223,
      "hesion": 8224,
      "planatory": 8225,
      "etition": 8226,
      "etitions": 8227,
      "lossing": 8228,
      "ĠAggreg": 8229,
      "ottlen": 8230,
      "NNs": 8231,
      "aulted": 8232,
      "aulting": 8233,
      "tised": 8234,
      "irdly": 8235,
      "engineer": 8236,
      "visioned": 8237,
      "visioning": 8238,
      "rinks": 8239,
      "rinking": 8240,
      "Ġorchest": 8241,
      "arrier": 8242,
      "experience": 8243,
      "Ġappreci": 8244,
      "ithering": 8245,
      "placeable": 8246,
      "Ġgeo": 8247,
      "rongs": 8248,
      "ometrically": 8249,
      "plexed": 8250,
      "plexing": 8251,
      "vantages": 8252,
      "avorable": 8253,
      "window": 8254,
      "Priv": 8255,
      "Prioriti": 8256,
      "ĠPriv": 8257,
      "ĠPrioriti": 8258,
      "irmation": 8259,
      "elligence": 8260,
      "illionaires": 8261,
      "illionaire": 8262,
      "Meta": 8263,
      "ĠMeta": 8264,
      "stantial": 8265,
      "uminous": 8266,
      "opoli": 8267,
      "uzzle": 8268,
      "Ġmedi": 8269,
      "cribed": 8270,
      "orchest": 8271,
      "ethered": 8272,
      "oscience": 8273,
      "rangement": 8274,
      "rangements": 8275,
      "ryption": 8276,
      "rypting": 8277,
      "throughs": 8278,
      "etchup": 8279,
      "couraging": 8280,
      "courages": 8281,
      "atisfying": 8282,
      "elievable": 8283,
      "Ġterror": 8284,
      "esterday": 8285,
      "Ġcheer": 8286,
      "ammable": 8287,
      "cription": 8288,
      "criptions": 8289,
      "cussion": 8290,
      "sourcing": 8291,
      "inctly": 8292,
      "amera": 8293,
      "rudent": 8294,
      "ouldn": 8295,
      "Occup": 8296,
      "cloped": 8297,
      "ybers": 8298,
      "ybrid": 8299,
      "checking": 8300,
      "tradict": 8301,
      "moothed": 8302,
      "lemen": 8303,
      "apeu": 8304,
      "izzy": 8305,
      "ysicists": 8306,
      "Hardware": 8307,
      "punctu": 8308,
      "Ġillust": 8309,
      "olitic": 8310,
      "rugged": 8311,
      "ĠHardware": 8312,
      "scription": 8313,
      "scriptions": 8314,
      "ibrary": 8315,
      "ĠOccup": 8316,
      "ampered": 8317,
      "iatric": 8318,
      "onesty": 8319,
      "established": 8320,
      "ĠEmploy": 8321,
      "calculated": 8322,
      "constitution": 8323,
      "responsive": 8324,
      "biotic": 8325,
      "Ġpunctu": 8326,
      "emporary": 8327,
      "opathy": 8328,
      "ustainable": 8329,
      "plicitly": 8330,
      "eddings": 8331,
      "iddleware": 8332,
      "ogenic": 8333,
      "vileged": 8334,
      "elicop": 8335,
      "ranquil": 8336,
      "ocalyp": 8337,
      "ivariate": 8338,
      "ocrats": 8339,
      "behavior": 8340,
      "elesc": 8341,
      "plantation": 8342,
      "spicuous": 8343,
      "eference": 8344,
      "emblance": 8345,
      "autiful": 8346,
      "ihil": 8347,
      "ERT": 8348,
      "junctive": 8349,
      "oprocess": 8350,
      "atisfaction": 8351,
      "inomial": 8352,
      "omebody": 8353,
      "iloby": 8354,
      "imodal": 8355,
      "Asc": 8356,
      "Ali": 8357,
      "After": 8358,
      "BA": 8359,
      "Bar": 8360,
      "Ble": 8361,
      "Bot": 8362,
      "Ball": 8363,
      "Batch": 8364,
      "Brew": 8365,
      "Bench": 8366,
      "Browser": 8367,
      "Cy": 8368,
      "Cos": 8369,
      "Card": 8370,
      "Call": 8371,
      "Cour": 8372,
      "Cart": 8373,
      "Clock": 8374,
      "Clear": 8375,
      "Centr": 8376,
      "Count": 8377,
      "CPU": 8378,
      "Closed": 8379,
      "Don": 8380,
      "Dam": 8381,
      "Dead": 8382,
      "Dict": 8383,
      "Divid": 8384,
      "Docker": 8385,
      "Ell": 8386,
      "Elev": 8387,
      "Fe": 8388,
      "Found": 8389,
      "Fract": 8390,
      "Gig": 8391,
      "Hz": 8392,
      "Hun": 8393,
      "Hop": 8394,
      "Home": 8395,
      "Hands": 8396,
      "Histor": 8397,
      "Heart": 8398,
      "Hypothes": 8399,
      "IM": 8400,
      "Jo": 8401,
      "Link": 8402,
      "MP": 8403,
      "MS": 8404,
      "Mat": 8405,
      "Mor": 8406,
      "Mut": 8407,
      "Mag": 8408,
      "Mass": 8409,
      "Must": 8410,
      "Mix": 8411,
      "Matching": 8412,
      "Motor": 8413,
      "Maj": 8414,
      "Method": 8415,
      "Not": 8416,
      "Native": 8417,
      "Negoti": 8418,
      "Necess": 8419,
      "Pet": 8420,
      "Pack": 8421,
      "Powered": 8422,
      "Ration": 8423,
      "Rout": 8424,
      "Roll": 8425,
      "Reli": 8426,
      "Sav": 8427,
      "Sized": 8428,
      "Scre": 8429,
      "Scor": 8430,
      "Some": 8431,
      "Sever": 8432,
      "Sense": 8433,
      "Schem": 8434,
      "Sleep": 8435,
      "Software": 8436,
      "Turn": 8437,
      "Tune": 8438,
      "Tensor": 8439,
      "Truth": 8440,
      "Ve": 8441,
      "Vac": 8442,
      "Vacc": 8443,
      "Video": 8444,
      "Wid": 8445,
      "Whe": 8446,
      "Wise": 8447,
      "Ware": 8448,
      "Week": 8449,
      "Words": 8450,
      "You": 8451,
      "ahead": 8452,
      "bies": 8453,
      "bill": 8454,
      "bars": 8455,
      "brew": 8456,
      "brief": 8457,
      "cam": 8458,
      "css": 8459,
      "cart": 8460,
      "cue": 8461,
      "cave": 8462,
      "casing": 8463,
      "cott": 8464,
      "cruc": 8465,
      "category": 8466,
      "din": 8467,
      "dating": 8468,
      "deter": 8469,
      "fed": 8470,
      "fing": 8471,
      "fold": 8472,
      "fract": 8473,
      "fasc": 8474,
      "fires": 8475,
      "familiar": 8476,
      "friends": 8477,
      "gb": 8478,
      "gust": 8479,
      "gage": 8480,
      "good": 8481,
      "gages": 8482,
      "has": 8483,
      "histor": 8484,
      "haping": 8485,
      "hospit": 8486,
      "hooks": 8487,
      "juring": 8488,
      "kless": 8489,
      "lands": 8490,
      "laugh": 8491,
      "laws": 8492,
      "my": 8493,
      "mock": 8494,
      "makers": 8495,
      "material": 8496,
      "ners": 8497,
      "nut": 8498,
      "nns": 8499,
      "pes": 8500,
      "pig": 8501,
      "pies": 8502,
      "pads": 8503,
      "packs": 8504,
      "penet": 8505,
      "packing": 8506,
      "paid": 8507,
      "paper": 8508,
      "powers": 8509,
      "pattern": 8510,
      "qt": 8511,
      "rising": 8512,
      "rillion": 8513,
      "sun": 8514,
      "sig": 8515,
      "sites": 8516,
      "sampled": 8517,
      "tf": 8518,
      "tag": 8519,
      "takes": 8520,
      "tune": 8521,
      "taken": 8522,
      "uis": 8523,
      "uably": 8524,
      "uency": 8525,
      "video": 8526,
      "ww": 8527,
      "wire": 8528,
      "wild": 8529,
      "wave": 8530,
      "walls": 8531,
      "yes": 8532,
      "Ġion": 8533,
      "Ġru": 8534,
      "Ġang": 8535,
      "Ġell": 8536,
      "Ġtit": 8537,
      "Ġrip": 8538,
      "Ġtimes": 8539,
      "Ġzero": 8540,
      "iners": 8541,
      "invalid": 8542,
      "independent": 8543,
      "inhab": 8544,
      "eric": 8545,
      "ertions": 8546,
      "erior": 8547,
      "erries": 8548,
      "edged": 8549,
      "onality": 8550,
      "tier": 8551,
      "enjoy": 8552,
      "environment": 8553,
      "alware": 8554,
      "allet": 8555,
      "rear": 8556,
      "reated": 8557,
      "repres": 8558,
      "rejo": 8559,
      "reaths": 8560,
      "anishing": 8561,
      "arr": 8562,
      "arrays": 8563,
      "isol": 8564,
      "isky": 8565,
      "lea": 8566,
      "leting": 8567,
      "leads": 8568,
      "leading": 8569,
      "league": 8570,
      "icer": 8571,
      "icating": 8572,
      "iche": 8573,
      "iches": 8574,
      "asym": 8575,
      "raves": 8576,
      "raged": 8577,
      "raved": 8578,
      "ste": 8579,
      "stating": 8580,
      "stairs": 8581,
      "styles": 8582,
      "entangle": 8583,
      "abstract": 8584,
      "Ġcut": 8585,
      "Ġcri": 8586,
      "Ġcens": 8587,
      "Ġcart": 8588,
      "Ġcruc": 8589,
      "Ġcivil": 8590,
      "Ġsun": 8591,
      "Ġsum": 8592,
      "Ġsav": 8593,
      "Ġsne": 8594,
      "Ġsome": 8595,
      "Ġsoft": 8596,
      "Ġsolic": 8597,
      "Ġseri": 8598,
      "Ġserver": 8599,
      "Ġscrew": 8600,
      "olts": 8601,
      "olver": 8602,
      "olutions": 8603,
      "olvable": 8604,
      "ĠScre": 8605,
      "ĠScor": 8606,
      "ĠSome": 8607,
      "ĠSever": 8608,
      "ĠSchem": 8609,
      "ĠSleep": 8610,
      "ĠSoftware": 8611,
      "ĠServer": 8612,
      "uters": 8613,
      "ĠCos": 8614,
      "ĠCall": 8615,
      "ĠCour": 8616,
      "ĠCart": 8617,
      "ĠClear": 8618,
      "ĠCentr": 8619,
      "ĠCount": 8620,
      "ĠCPU": 8621,
      "ĠClosed": 8622,
      "usual": 8623,
      "rives": 8624,
      "rips": 8625,
      "rived": 8626,
      "cha": 8627,
      "chips": 8628,
      "chrome": 8629,
      "chief": 8630,
      "Ġpin": 8631,
      "Ġpig": 8632,
      "Ġpack": 8633,
      "Ġpick": 8634,
      "Ġpars": 8635,
      "Ġpenet": 8636,
      "loys": 8637,
      "adop": 8638,
      "ampers": 8639,
      "amount": 8640,
      "eming": 8641,
      "emig": 8642,
      "emphas": 8643,
      "ĠPet": 8644,
      "ĠPack": 8645,
      "Install": 8646,
      "Information": 8647,
      "agents": 8648,
      "Ġdam": 8649,
      "Ġdens": 8650,
      "Ġdeter": 8651,
      "Ġdict": 8652,
      "Ġdivid": 8653,
      "Ġdocument": 8654,
      "ceiving": 8655,
      "imon": 8656,
      "imited": 8657,
      "imiting": 8658,
      "ĠAug": 8659,
      "ĠAsc": 8660,
      "ĠAfter": 8661,
      "ĠARM": 8662,
      "ĠRation": 8663,
      "ĠRay": 8664,
      "ĠRout": 8665,
      "ĠRele": 8666,
      "ĠRoll": 8667,
      "ĠReli": 8668,
      "ĠDon": 8669,
      "ĠDam": 8670,
      "ĠDay": 8671,
      "ĠDead": 8672,
      "ĠDict": 8673,
      "ĠDivid": 8674,
      "ĠDocker": 8675,
      "idden": 8676,
      "ideline": 8677,
      "Ġmen": 8678,
      "Ġmat": 8679,
      "Ġmother": 8680,
      "Ġmemory": 8681,
      "Ġmachine": 8682,
      "Ġmethod": 8683,
      "umor": 8684,
      "umination": 8685,
      "plugs": 8686,
      "plugged": 8687,
      "except": 8688,
      "exempl": 8689,
      "ĠMat": 8690,
      "ĠMor": 8691,
      "ĠMut": 8692,
      "ĠMag": 8693,
      "ĠMass": 8694,
      "ĠMust": 8695,
      "ĠMix": 8696,
      "ĠMotor": 8697,
      "ĠMatrix": 8698,
      "ĠMaj": 8699,
      "ĠMethod": 8700,
      "iral": 8701,
      "iruses": 8702,
      "Ġrele": 8703,
      "Ġrejo": 8704,
      "Ġfound": 8705,
      "Ġfract": 8706,
      "Ġfasc": 8707,
      "Ġfeature": 8708,
      "estyle": 8709,
      "ĠTech": 8710,
      "ĠTrust": 8711,
      "ĠTrain": 8712,
      "ĠTensor": 8713,
      "quoted": 8714,
      "quarter": 8715,
      "Ġble": 8716,
      "Ġbel": 8717,
      "Ġbrew": 8718,
      "Ġbuild": 8719,
      "Ġbrief": 8720,
      "Ġtor": 8721,
      "Ġturn": 8722,
      "Ġtrust": 8723,
      "Ġtrain": 8724,
      "Ġtough": 8725,
      "owls": 8726,
      "ĠEll": 8727,
      "ĠEduc": 8728,
      "ĠElev": 8729,
      "conn": 8730,
      "contri": 8731,
      "concaten": 8732,
      "congrat": 8733,
      "Ġinvalid": 8734,
      "ĠFe": 8735,
      "ĠFound": 8736,
      "ĠFix": 8737,
      "ĠFract": 8738,
      "ranged": 8739,
      "ranges": 8740,
      "ĠBar": 8741,
      "ĠBle": 8742,
      "ĠBeh": 8743,
      "ĠBrew": 8744,
      "ĠBuild": 8745,
      "ocusing": 8746,
      "ogy": 8747,
      "oggy": 8748,
      "endered": 8749,
      "Unw": 8750,
      "Uniform": 8751,
      "prosec": 8752,
      "Ġho": 8753,
      "Ġhun": 8754,
      "Ġhop": 8755,
      "Ġhistor": 8756,
      "Ġhospit": 8757,
      "eph": 8758,
      "Ġword": 8759,
      "Ġwatch": 8760,
      "Ġwild": 8761,
      "Ġweek": 8762,
      "Ġweight": 8763,
      "assigned": 8764,
      "ensible": 8765,
      "ipp": 8766,
      "ipment": 8767,
      "rugg": 8768,
      "resis": 8769,
      "ĠHome": 8770,
      "ĠHands": 8771,
      "ĠHistor": 8772,
      "ĠHeart": 8773,
      "ĠHypothes": 8774,
      "orses": 8775,
      "linging": 8776,
      "spent": 8777,
      "spons": 8778,
      "spark": 8779,
      "speak": 8780,
      "spelled": 8781,
      "spoken": 8782,
      "ĠLaw": 8783,
      "ĠLinear": 8784,
      "Ġgood": 8785,
      "phan": 8786,
      "phrases": 8787,
      "perv": 8788,
      "perform": 8789,
      "performs": 8790,
      "permission": 8791,
      "Ġunit": 8792,
      "Ġunivers": 8793,
      "coinc": 8794,
      "cooked": 8795,
      "Ġnight": 8796,
      "ĠWin": 8797,
      "ĠWid": 8798,
      "ĠWord": 8799,
      "ĠWide": 8800,
      "ĠWeigh": 8801,
      "ĠWeek": 8802,
      "tram": 8803,
      "scor": 8804,
      "ĠGig": 8805,
      "ĠGame": 8806,
      "Ġconn": 8807,
      "Ġcontri": 8808,
      "Ġconcaten": 8809,
      "Ġcongrat": 8810,
      "earer": 8811,
      "encoding": 8812,
      "udged": 8813,
      "udging": 8814,
      "udges": 8815,
      "ĠNot": 8816,
      "ĠNegoti": 8817,
      "ĠNecess": 8818,
      "ishy": 8819,
      "boun": 8820,
      "Consol": 8821,
      "Consum": 8822,
      "overflow": 8823,
      "Ġstate": 8824,
      "anges": 8825,
      "indly": 8826,
      "shirt": 8827,
      "ressor": 8828,
      "ressors": 8829,
      "output": 8830,
      "obsess": 8831,
      "Ġlaugh": 8832,
      "Ġliqu": 8833,
      "ĠConsol": 8834,
      "recru": 8835,
      "recruit": 8836,
      "recorded": 8837,
      "ources": 8838,
      "ĠUnw": 8839,
      "ĠUnivers": 8840,
      "Stage": 8841,
      "Structured": 8842,
      "illage": 8843,
      "select": 8844,
      "seek": 8845,
      "ĠStep": 8846,
      "ĠStandard": 8847,
      "Ġexpress": 8848,
      "Ġexempl": 8849,
      "paralle": 8850,
      "ĠVac": 8851,
      "ĠVacc": 8852,
      "heard": 8853,
      "Ġaug": 8854,
      "issile": 8855,
      "took": 8856,
      "tough": 8857,
      "ailor": 8858,
      "compos": 8859,
      "compens": 8860,
      "compose": 8861,
      "components": 8862,
      "Ġproject": 8863,
      "Ġprosec": 8864,
      "Ġprocrast": 8865,
      "peer": 8866,
      "peach": 8867,
      "diagn": 8868,
      "diplom": 8869,
      "Exam": 8870,
      "Prob": 8871,
      "Proof": 8872,
      "Prompt": 8873,
      "llm": 8874,
      "idea": 8875,
      "disp": 8876,
      "discover": 8877,
      "discontin": 8878,
      "deriv": 8879,
      "athy": 8880,
      "typing": 8881,
      "ĠExam": 8882,
      "vests": 8883,
      "Ġdisp": 8884,
      "Ġdiscontin": 8885,
      "viated": 8886,
      "viates": 8887,
      "blematic": 8888,
      "Ens": 8889,
      "Enabled": 8890,
      "ĠProb": 8891,
      "ĠProcess": 8892,
      "ĠProgress": 8893,
      "ĠPrompt": 8894,
      "Ġchem": 8895,
      "plet": 8896,
      "plets": 8897,
      "Chem": 8898,
      "relating": 8899,
      "airer": 8900,
      "ounts": 8901,
      "ounted": 8902,
      "ounting": 8903,
      "ounces": 8904,
      "ountains": 8905,
      "tainment": 8906,
      "Ġsharp": 8907,
      "forth": 8908,
      "ĠEns": 8909,
      "ĠEngine": 8910,
      "interested": 8911,
      "interrupted": 8912,
      "embles": 8913,
      "pora": 8914,
      "poration": 8915,
      "ĠChem": 8916,
      "ĠChild": 8917,
      "complicated": 8918,
      "Ġjo": 8919,
      "attack": 8920,
      "Show": 8921,
      "ducts": 8922,
      "Ġimage": 8923,
      "Ġimped": 8924,
      "Ġtheor": 8925,
      "motions": 8926,
      "motional": 8927,
      "ĠShow": 8928,
      "apply": 8929,
      "appears": 8930,
      "appeared": 8931,
      "official": 8932,
      "Anonym": 8933,
      "desp": 8934,
      "akeup": 8935,
      "Ġrespond": 8936,
      "ĠAnonym": 8937,
      "Ġadop": 8938,
      "Ġadvis": 8939,
      "mpeg": 8940,
      "modeled": 8941,
      "managing": 8942,
      "riting": 8943,
      "ritable": 8944,
      "Ġcompos": 8945,
      "Ġcompens": 8946,
      "Ġcoinc": 8947,
      "Adjust": 8948,
      "ĠAdjust": 8949,
      "Respond": 8950,
      "commerce": 8951,
      "decor": 8952,
      "decentr": 8953,
      "Ġinterpol": 8954,
      "Threaded": 8955,
      "ĠJo": 8956,
      "othing": 8957,
      "others": 8958,
      "grad": 8959,
      "grained": 8960,
      "grades": 8961,
      "gradient": 8962,
      "princ": 8963,
      "ĠRespond": 8964,
      "liers": 8965,
      "Ġlet": 8966,
      "Artic": 8967,
      "Arbit": 8968,
      "Access": 8969,
      "Ġdecor": 8970,
      "Ġdecentr": 8971,
      "structural": 8972,
      "consistent": 8973,
      "ĠAccess": 8974,
      "workers": 8975,
      "driving": 8976,
      "equiv": 8977,
      "processes": 8978,
      "who": 8979,
      "plot": 8980,
      "ĠArtic": 8981,
      "ĠArbit": 8982,
      "Parallel": 8983,
      "Ġperf": 8984,
      "tracks": 8985,
      "easts": 8986,
      "Ġappro": 8987,
      "sections": 8988,
      "Authentic": 8989,
      "prim": 8990,
      "Ġaction": 8991,
      "Ġobsess": 8992,
      "solic": 8993,
      "solid": 8994,
      "solved": 8995,
      "every": 8996,
      "ĠParallel": 8997,
      "urbing": 8998,
      "doing": 8999,
      "ĠAuthentic": 9000,
      "Ġplan": 9001,
      "Ġplain": 9002,
      "Ġplug": 9003,
      "ĠOverl": 9004,
      "meteor": 9005,
      "runks": 9006,
      "running": 9007,
      "losing": 9008,
      "ractor": 9009,
      "eeper": 9010,
      "Ġemig": 9011,
      "Ġemphas": 9012,
      "Perf": 9013,
      "Performing": 9014,
      "legal": 9015,
      "Plan": 9016,
      "filtering": 9017,
      "Ġreciproc": 9018,
      "urability": 9019,
      "alker": 9020,
      "orientation": 9021,
      "deduc": 9022,
      "charging": 9023,
      "ĠPerf": 9024,
      "capacity": 9025,
      "Modal": 9026,
      "Modality": 9027,
      "Ġwho": 9028,
      "transfer": 9029,
      "ĠPlan": 9030,
      "Ġfores": 9031,
      "Ġartic": 9032,
      "classify": 9033,
      "Deform": 9034,
      "finally": 9035,
      "porters": 9036,
      "Ġdesp": 9037,
      "supers": 9038,
      "stituting": 9039,
      "emplated": 9040,
      "emplating": 9041,
      "Ġcommon": 9042,
      "Ġcommand": 9043,
      "Ġlook": 9044,
      "infused": 9045,
      "color": 9046,
      "Ġrefresh": 9047,
      "topics": 9048,
      "Higher": 9049,
      "educing": 9050,
      "educated": 9051,
      "connecting": 9052,
      "connectivity": 9053,
      "Region": 9054,
      "vocabulary": 9055,
      "ĠHigher": 9056,
      "cerning": 9057,
      "oulder": 9058,
      "oulders": 9059,
      "preced": 9060,
      "unner": 9061,
      "ĠDefin": 9062,
      "ĠDeform": 9063,
      "balances": 9064,
      "balancing": 9065,
      "lightened": 9066,
      "ĠRegion": 9067,
      "queue": 9068,
      "Commerce": 9069,
      "handling": 9070,
      "trim": 9071,
      "Ġyear": 9072,
      "Drive": 9073,
      "What": 9074,
      "higher": 9075,
      "Ġcolor": 9076,
      "dependently": 9077,
      "ĠWhat": 9078,
      "criminals": 9079,
      "Diagn": 9080,
      "fessed": 9081,
      "allowed": 9082,
      "Correspond": 9083,
      "Ġdiagn": 9084,
      "Ġdiplom": 9085,
      "apture": 9086,
      "aptured": 9087,
      "Ġhigher": 9088,
      "markets": 9089,
      "marketing": 9090,
      "Revolution": 9091,
      "Ġcorrect": 9092,
      "ĠDiagn": 9093,
      "ĠYou": 9094,
      "bounded": 9095,
      "ĠPoint": 9096,
      "Ġunders": 9097,
      "arbled": 9098,
      "Ġsupers": 9099,
      "ĠReview": 9100,
      "ĠRevolution": 9101,
      "Grade": 9102,
      "casted": 9103,
      "sympt": 9104,
      "sympath": 9105,
      "Attention": 9106,
      "Mini": 9107,
      "closures": 9108,
      "detection": 9109,
      "usses": 9110,
      "ĠMini": 9111,
      "Ġgradu": 9112,
      "Design": 9113,
      "founding": 9114,
      "uzzing": 9115,
      "invited": 9116,
      "ĠCorrect": 9117,
      "ĠCorrespond": 9118,
      "racker": 9119,
      "rackers": 9120,
      "lossy": 9121,
      "rinkle": 9122,
      "rinkles": 9123,
      "ĠDesign": 9124,
      "ositional": 9125,
      "large": 9126,
      "activate": 9127,
      "ĠMany": 9128,
      "ordinate": 9129,
      "initialized": 9130,
      "rieving": 9131,
      "Generated": 9132,
      "deliber": 9133,
      "entices": 9134,
      "streaming": 9135,
      "Ġdeliber": 9136,
      "scribed": 9137,
      "Ġcontent": 9138,
      "arried": 9139,
      "urrent": 9140,
      "urrencies": 9141,
      "expert": 9142,
      "experts": 9143,
      "experienced": 9144,
      "ĠSuperv": 9145,
      "Geo": 9146,
      "Term": 9147,
      "notations": 9148,
      "ĠGeo": 9149,
      "Ġmeteor": 9150,
      "behaved": 9151,
      "float": 9152,
      "Theore": 9153,
      "linearly": 9154,
      "LLa": 9155,
      "Meteor": 9156,
      "Ġsympath": 9157,
      "ĠMeteor": 9158,
      "protected": 9159,
      "literate": 9160,
      "Services": 9161,
      "augmented": 9162,
      "migration": 9163,
      "migrants": 9164,
      "empty": 9165,
      "procrast": 9166,
      "Medi": 9167,
      "news": 9168,
      "turned": 9169,
      "parameterization": 9170,
      "Ġannot": 9171,
      "drawing": 9172,
      "feel": 9173,
      "technology": 9174,
      "arcraft": 9175,
      "propagated": 9176,
      "reciproc": 9177,
      "Efficient": 9178,
      "Squared": 9179,
      "ĠLLa": 9180,
      "Motiv": 9181,
      "ondering": 9182,
      "allocated": 9183,
      "allocating": 9184,
      "ĠMedi": 9185,
      "Architect": 9186,
      "Books": 9187,
      "Electric": 9188,
      "Precision": 9189,
      "Tuned": 9190,
      "cussed": 9191,
      "determined": 9192,
      "examined": 9193,
      "fields": 9194,
      "growth": 9195,
      "practice": 9196,
      "ĠMotiv": 9197,
      "Experiment": 9198,
      "corrected": 9199,
      "Deliber": 9200,
      "ĠDeliber": 9201,
      "Processor": 9202,
      "ARM": 9203,
      "Digiti": 9204,
      "Digital": 9205,
      "Security": 9206,
      "eeming": 9207,
      "Ġisol": 9208,
      "Ġelev": 9209,
      "Ġderiv": 9210,
      "ĠWorld": 9211,
      "cheduling": 9212,
      "studied": 9213,
      "olitical": 9214,
      "Individu": 9215,
      "ĠIndividu": 9216,
      "climate": 9217,
      "maintained": 9218,
      "painted": 9219,
      "implemented": 9220,
      "controllers": 9221,
      "Illust": 9222,
      "humid": 9223,
      "Ġescal": 9224,
      "inventing": 9225,
      "conductor": 9226,
      "ĠIllust": 9227,
      "Centric": 9228,
      "arrels": 9229,
      "Label": 9230,
      "quisite": 9231,
      "Ġhumid": 9232,
      "pheres": 9233,
      "recognized": 9234,
      "possessing": 9235,
      "categories": 9236,
      "ĠDigiti": 9237,
      "explained": 9238,
      "particle": 9239,
      "ĠExperiment": 9240,
      "employed": 9241,
      "Functional": 9242,
      "funding": 9243,
      "hunting": 9244,
      "menu": 9245,
      "ĠError": 9246,
      "divided": 9247,
      "mistak": 9248,
      "routine": 9249,
      "routines": 9250,
      "formatted": 9251,
      "conscious": 9252,
      "consciously": 9253,
      "compatible": 9254,
      "pleasant": 9255,
      "statement": 9256,
      "ĠService": 9257,
      "neighbor": 9258,
      "appearance": 9259,
      "architecture": 9260,
      "expensively": 9261,
      "Propagation": 9262,
      "authors": 9263,
      "LED": 9264,
      "competitive": 9265,
      "ĠEncoder": 9266,
      "important": 9267,
      "Ġllm": 9268,
      "prepared": 9269,
      "meetup": 9270,
      "touched": 9271,
      "method": 9272,
      "idirectional": 9273,
      "trophy": 9274,
      "11": 9275,
      "19": 9276,
      "98": 9277,
      "AQ": 9278,
      "AZ": 9279,
      "Actu": 9280,
      "Avoid": 9281,
      "Buff": 9282,
      "Burn": 9283,
      "Business": 9284,
      "BERT": 9285,
      "Cut": 9286,
      "Cri": 9287,
      "Cover": 9288,
      "Cell": 9289,
      "Cold": 9290,
      "Case": 9291,
      "Crowd": 9292,
      "Dens": 9293,
      "Dish": 9294,
      "Dele": 9295,
      "Dream": 9296,
      "Drag": 9297,
      "Deal": 9298,
      "Document": 9299,
      "Degra": 9300,
      "EE": 9301,
      "Ec": 9302,
      "Ear": 9303,
      "Ele": 9304,
      "Even": 9305,
      "Eval": 9306,
      "Eras": 9307,
      "Escal": 9308,
      "Eigen": 9309,
      "Establ": 9310,
      "Fo": 9311,
      "Fu": 9312,
      "Fig": 9313,
      "Feat": 9314,
      "Faith": 9315,
      "Future": 9316,
      "Frequency": 9317,
      "Facilit": 9318,
      "GL": 9319,
      "Gre": 9320,
      "Git": 9321,
      "Gent": 9322,
      "Gram": 9323,
      "Ghost": 9324,
      "Glob": 9325,
      "Hol": 9326,
      "Hear": 9327,
      "Hair": 9328,
      "Harmon": 9329,
      "Halluc": 9330,
      "It": 9331,
      "Iss": 9332,
      "Isol": 9333,
      "Know": 9334,
      "Let": 9335,
      "Lem": 9336,
      "Laugh": 9337,
      "Lik": 9338,
      "Liqu": 9339,
      "Lingual": 9340,
      "Men": 9341,
      "Mess": 9342,
      "Mock": 9343,
      "Made": 9344,
      "Mitig": 9345,
      "Mathematic": 9346,
      "Night": 9347,
      "Next": 9348,
      "OP": 9349,
      "Oscill": 9350,
      "PC": 9351,
      "Pin": 9352,
      "Pig": 9353,
      "Pain": 9354,
      "Press": 9355,
      "Port": 9356,
      "Perv": 9357,
      "Pars": 9358,
      "Pict": 9359,
      "Penet": 9360,
      "Popular": 9361,
      "Present": 9362,
      "Player": 9363,
      "Pleas": 9364,
      "RA": 9365,
      "Rap": 9366,
      "Rear": 9367,
      "Radic": 9368,
      "SA": 9369,
      "SO": 9370,
      "SV": 9371,
      "Sed": 9372,
      "Sen": 9373,
      "Sent": 9374,
      "Sum": 9375,
      "Sco": 9376,
      "Slow": 9377,
      "Site": 9378,
      "Select": 9379,
      "Soft": 9380,
      "School": 9381,
      "Tit": 9382,
      "Tac": 9383,
      "Tex": 9384,
      "Tru": 9385,
      "Tick": 9386,
      "Typ": 9387,
      "Types": 9388,
      "Warm": 9389,
      "Wire": 9390,
      "Wood": 9391,
      "Where": 9392,
      "aq": 9393,
      "aits": 9394,
      "avery": 9395,
      "bad": 9396,
      "bag": 9397,
      "bard": 9398,
      "bug": 9399,
      "brows": 9400,
      "cc": 9401,
      "cr": 9402,
      "cel": 9403,
      "cence": 9404,
      "cold": 9405,
      "cult": 9406,
      "caster": 9407,
      "cues": 9408,
      "cili": 9409,
      "crum": 9410,
      "caus": 9411,
      "crumb": 9412,
      "ciliation": 9413,
      "dr": 9414,
      "dra": 9415,
      "damp": 9416,
      "draft": 9417,
      "domestic": 9418,
      "django": 9419,
      "eased": 9420,
      "eks": 9421,
      "eans": 9422,
      "etically": 9423,
      "ease": 9424,
      "eigen": 9425,
      "fu": 9426,
      "fine": 9427,
      "furn": 9428,
      "flex": 9429,
      "false": 9430,
      "fabric": 9431,
      "glo": 9432,
      "gency": 9433,
      "gather": 9434,
      "gested": 9435,
      "hat": 9436,
      "hub": 9437,
      "harm": 9438,
      "hots": 9439,
      "halluc": 9440,
      "hicle": 9441,
      "ii": 9442,
      "iac": 9443,
      "iety": 9444,
      "iracy": 9445,
      "jquery": 9446,
      "junct": 9447,
      "javascript": 9448,
      "kl": 9449,
      "kernel": 9450,
      "las": 9451,
      "lies": 9452,
      "lang": 9453,
      "lust": 9454,
      "larg": 9455,
      "lasses": 9456,
      "luded": 9457,
      "mi": 9458,
      "mun": 9459,
      "match": 9460,
      "mix": 9461,
      "mier": 9462,
      "muted": 9463,
      "mobile": 9464,
      "mitig": 9465,
      "mathematic": 9466,
      "materi": 9467,
      "moment": 9468,
      "nals": 9469,
      "national": 9470,
      "narrow": 9471,
      "nearest": 9472,
      "oa": 9473,
      "oen": 9474,
      "otically": 9475,
      "oises": 9476,
      "oving": 9477,
      "pil": 9478,
      "pod": 9479,
      "pion": 9480,
      "piti": 9481,
      "purs": 9482,
      "pronoun": 9483,
      "powering": 9484,
      "rence": 9485,
      "raster": 9486,
      "ses": 9487,
      "sle": 9488,
      "sent": 9489,
      "slow": 9490,
      "sof": 9491,
      "sound": 9492,
      "sizing": 9493,
      "suit": 9494,
      "smooth": 9495,
      "social": 9496,
      "tom": 9497,
      "town": 9498,
      "tons": 9499,
      "telling": 9500,
      "uid": 9501,
      "uard": 9502,
      "uited": 9503,
      "uade": 9504,
      "ulet": 9505,
      "uples": 9506,
      "uores": 9507,
      "vest": 9508,
      "vability": 9509,
      "vitation": 9510,
      "vouch": 9511,
      "vailing": 9512,
      "wart": 9513,
      "warm": 9514,
      "wired": 9515,
      "worship": 9516,
      "xim": 9517,
      "yal": 9518,
      "yter": 9519,
      "yped": 9520,
      "you": 9521,
      "yrup": 9522,
      "yware": 9523,
      "ydro": 9524,
      "ycling": 9525,
      "zy": 9526,
      "zz": 9527,
      "Ġic": 9528,
      "Ġet": 9529,
      "Ġiss": 9530,
      "Ġrans": 9531,
      "Ġold": 9532,
      "Ġlect": 9533,
      "Ġorg": 9534,
      "Ġrust": 9535,
      "Ġrain": 9536,
      "Ġright": 9537,
      "Ġov": 9538,
      "inar": 9539,
      "inic": 9540,
      "inqu": 9541,
      "inematic": 9542,
      "indemn": 9543,
      "erup": 9544,
      "erals": 9545,
      "edy": 9546,
      "edies": 9547,
      "edded": 9548,
      "estive": 9549,
      "esign": 9550,
      "esome": 9551,
      "onight": 9552,
      "onically": 9553,
      "tib": 9554,
      "tiest": 9555,
      "titions": 9556,
      "tity": 9557,
      "tizes": 9558,
      "inge": 9559,
      "ingen": 9560,
      "ingling": 9561,
      "enes": 9562,
      "entive": 9563,
      "enge": 9564,
      "enue": 9565,
      "enched": 9566,
      "enues": 9567,
      "alcon": 9568,
      "alone": 9569,
      "alued": 9570,
      "orly": 9571,
      "orers": 9572,
      "oried": 9573,
      "orously": 9574,
      "orough": 9575,
      "repro": 9576,
      "remo": 9577,
      "reaching": 9578,
      "reported": 9579,
      "repreh": 9580,
      "reverber": 9581,
      "repreneur": 9582,
      "anf": 9583,
      "anagement": 9584,
      "anitary": 9585,
      "arling": 9586,
      "isors": 9587,
      "isory": 9588,
      "istering": 9589,
      "isoned": 9590,
      "leged": 9591,
      "itals": 9592,
      "ithe": 9593,
      "itatively": 9594,
      "itected": 9595,
      "ittered": 9596,
      "ittering": 9597,
      "ictions": 9598,
      "icacy": 9599,
[...]
