{
  "version": "1.0",
  "truncation": null,
  "padding": null,
  "added_tokens": [
    {
      "id": 0,
      "content": "[PAD]",
      "single_word": false,
      "lstrip": false,
      "rstrip": false,
      "normalized": false,
      "special": true
    },
    {
      "id": 1,
      "content": "[UNK]",
      "single_word": false,
      "lstrip": false,
      "rstrip": false,
      "normalized": false,
      "special": true
    },
    {
      "id": 2,
      "content": "[CLS]",
      "single_word": false,
      "lstrip": false,
      "rstrip": false,
      "normalized": false,
      "special": true
    },
    {
      "id": 3,
      "content": "[SEP]",
      "single_word": false,
      "lstrip": false,
      "rstrip": false,
      "normalized": false,
      "special": true
    }
  ],
  "normalizer": {
    "type": "NFKC"
  },
  "pre_tokenizer": {
    "type": "Whitespace"
  },
  "post_processor": null,
  "decoder": null,
  "model": {
    "type": "WordPiece",
    "unk_token": "[UNK]",
    "continuing_subword_prefix": "##",
    "max_input_chars_per_word": 100,
    "vocab": {
      "[PAD]": 0,
      "[UNK]": 1,
      "[CLS]": 2,
      "[SEP]": 3,
      "a": 4,
      "b": 5,
      "c": 6,
      "d": 7,
      "e": 8,
      "f": 9,
      "g": 10,
      "h": 11,
      "i": 12,
      "j": 13,
      "k": 14,
      "l": 15,
      "m": 16,
      "n": 17,
      "o": 18,
      "p": 19,
      "q": 20,
      "r": 21,
      "s": 22,
      "t": 23,
      "u": 24,
      "v": 25,
      "w": 26,
      "x": 27,
      "y": 28,
      "z": 29,
      "A": 30,
      "B": 31,
      "C": 32,
      "D": 33,
      "E": 34,
      "F": 35,
      "G": 36,
      "H": 37,
      "I": 38,
      "J": 39,
      "K": 40,
      "L": 41,
      "M": 42,
      "N": 43,
      "O": 44,
      "P": 45,
      "Q": 46,
      "R": 47,
      "S": 48,
      "T": 49,
      "U": 50,
      "V": 51,
      "W": 52,
      "X": 53,
      "Y": 54,
      "Z": 55,
      "##a": 56,
      "##b": 57,
      "##c": 58,
      "##d": 59,
      "##e": 60,
      "##f": 61,
      "##g": 62,
      "##h": 63,
      "##i": 64,
      "##j": 65,
      "##k": 66,
      "##l": 67,
      "##m": 68,
      "##n": 69,
      "##o": 70,
      "##p": 71,
      "##q": 72,
      "##r": 73,
      "##s": 74,
      "##t": 75,
      "##u": 76,
      "##v": 77,
      "##w": 78,
      "##x": 79,
      "##y": 80,
      "##z": 81,
      "##A": 82,
      "##B": 83,
      "##C": 84,
      "##D": 85,
      "##E": 86,
      "##F": 87,
      "##G": 88,
      "##H": 89,
      "##I": 90,
      "##J": 91,
      "##K": 92,
      "##L": 93,
      "##M": 94,
      "##N": 95,
      "##O": 96,
      "##P": 97,
      "##Q": 98,
      "##R": 99,
      "##S": 100,
      "##T": 101,
      "##U": 102,
      "##V": 103,
      "##W": 104,
      "##X": 105,
      "##Y": 106,
      "##Z": 107,
      "0": 108,
      "1": 109,
      "2": 110,
      "3": 111,
      "4": 112,
      "5": 113,
      "6": 114,
      "7": 115,
      "8": 116,
      "9": 117,
      "##0": 118,
      "##1": 119,
      "##2": 120,
      "##3": 121,
      "##4": 122,
      "##5": 123,
      "##6": 124,
      "##7": 125,
      "##8": 126,
      "##9": 127,
      "-": 128,
      ".": 129,
      ":": 130,
      ",": 131,
      "!": 132,
      "?": 133,
      "*": 134,
      "+": 135,
      "/": 136,
      "&": 137,
      "(": 138,
      ")": 139,
      "[": 140,
      "]": 141,
      "{": 142,
      "}": 143,
      "^": 144,
      "#": 145,
      "@": 146,
      "~": 147,
      "%": 148,
      "_": 149,
      "\"": 150,
      "<": 151,
      ">": 152,
      "=": 153,
      "'": 154,
      "any": 155,
      "some": 156,
      "few": 157,
      "affect": 158,
      "ran": 159,
      "run": 160,
      "play": 161,
      "lay": 162,
      "out": 163,
      "##out": 164,
      "then": 165,
      "that": 166,
      "than": 167,
      "there": 168,
      "too": 169,
      "advis": 170,
      "end": 171,
      "look": 172,
      "now": 173,
      "after": 174,
      "before": 175,
      "am": 176,
      "up": 177,
      "down": 178,
      "yes": 179,
      "us": 180,
      "this": 181,
      "use": 182,
      "usual": 183,
      "##ly": 184,
      "to": 185,
      "in": 186,
      "into": 187,
      "on": 188,
      "off": 189,
      "is": 190,
      "do": 191,
      "are": 192,
      "you": 193,
      "we": 194,
      "the": 195,
      "for": 196,
      "from": 197,
      "be": 198,
      "me": 199,
      "he": 200,
      "have": 201,
      "has": 202,
      "will": 203,
      "shall": 204,
      "go": 205,
      "all": 206,
      "also": 207,
      "and": 208,
      "but": 209,
      "did": 210,
      "##rd": 211,
      "##gb": 212,
      "1d": 213,
      "2d": 214,
      "3d": 215,
      "1D": 216,
      "2D": 217,
      "3D": 218,
      "##fps": 219,
      "##bit": 220,
      "an": 221,
      "as": 222,
      "no": 223,
      "not": 224,
      "nope": 225,
      "his": 226,
      "it": 227,
      "its": 228,
      "can": 229,
      "come": 230,
      "could": 231,
      "may": 232,
      "might": 233,
      "should": 234,
      "him": 235,
      "so": 236,
      "because": 237,
      "went": 238,
      "##ed": 239,
      "##es": 240,
      "##ing": 241,
      "ll": 242,
      "ever": 243,
      "never": 244,
      "each": 245,
      "above": 246,
      "about": 247,
      "abandon": 248,
      "abbreviat": 249,
      "aberrant": 250,
      "abhor": 251,
      "abilit": 252,
      "ablat": 253,
      "aboard": 254,
      "abound": 255,
      "abscond": 256,
      "absen": 257,
      "absolut": 258,
      "absorb": 259,
      "abstract": 260,
      "abundan": 261,
      "abus": 262,
      "academ": 263,
      "acced": 264,
      "accelerat": 265,
      "accent": 266,
      "abort": 267,
      "aboli": 268,
      "abomina": 269,
      "mention": 270,
      "accept": 271,
      "##ion": 272,
      "##or": 273,
      "##ive": 274,
      "##ate": 275,
      "##ated": 276,
      "##ates": 277,
      "##ation": 278,
      "##able": 279,
      "##ably": 280,
      "##ance": 281,
      "##less": 282,
      "##ness": 283,
      "allocat": 284,
      "allie": 285,
      "alliance": 286,
      "allow": 287,
      "alot": 288,
      "alleviat": 289,
      "appeal": 290,
      "appear": 291,
      "append": 292,
      "applaud": 293,
      "apple": 294,
      "applet": 295,
      "app": 296,
      "component": 297,
      "only": 298,
      "appliance": 299,
      "appl": 300,
      "applic": 301,
      "apprecia": 302,
      "apprehen": 303,
      "approach": 304,
      "appropriat": 305,
      "approb": 306,
      "approv": 307,
      "approximat": 308,
      "again": 309,
      "against": 310,
      "agglomerat": 311,
      "aggravat": 312,
      "aggregat": 313,
      "aggress": 314,
      "ago": 315,
      "agree": 316,
      "agitat": 317,
      "ahead": 318,
      "head": 319,
      "adapt": 320,
      "acute": 321,
      "actuat": 322,
      "addict": 323,
      "address": 324,
      "adher": 325,
      "adjust": 326,
      "adjoin": 327,
      "##ment": 328,
      "##ally": 329,
      "argu": 330,
      "argument": 331,
      "arithmet": 332,
      "architect": 333,
      "archiv": 334,
      "around": 335,
      "arrange": 336,
      "array": 337,
      "arriv": 338,
      "articl": 339,
      "articulat": 340,
      "arrogan": 341,
      "augment": 342,
      "authent": 343,
      "author": 344,
      "audit": 345,
      "audio": 346,
      "##icity": 347,
      "##ativ": 348,
      "##ator": 349,
      "##ating": 350,
      "##ities": 351,
      "##ely": 352,
      "auth": 353,
      "##ity": 354,
      "afford": 355,
      "affiliat": 356,
      "affirm": 357,
      "afraid": 358,
      "afflict": 359,
      "affix": 360,
      "agent": 361,
      "adjacen": 362,
      "addit": 363,
      "addon": 364,
      "adequat": 365,
      "adept": 366,
      "adjective": 367,
      "achiev": 368,
      "acquaint": 369,
      "accus": 370,
      "acoust": 371,
      "accumulat": 372,
      "account": 373,
      "accord": 374,
      "accur": 375,
      "accomplish": 376,
      "accommodat": 377,
      "acclaim": 378,
      "access": 379,
      "accident": 380,
      "acquir": 381,
      "acquit": 382,
      "acronym": 383,
      "activat": 384,
      "action": 385,
      "acquisition": 386,
      "##ible": 387,
      "asm": 388,
      "##asm": 389,
      "__": 390,
      "alarm": 391,
      "alert": 392,
      "align": 393,
      "allegor": 394,
      "algorithm": 395,
      "algebra": 396,
      "alphabet": 397,
      "already": 398,
      "yet": 399,
      "baffl": 400,
      "balanc": 401,
      "banish": 402,
      "basic": 403,
      "basis": 404,
      "batch": 405,
      "batter": 406,
      "battle": 407,
      "bayes": 408,
      "beaut": 409,
      "became": 410,
      "allud": 411,
      "becom": 412,
      "##ence": 413,
      "began": 414,
      "begin": 415,
      "begun": 416,
      "behav": 417,
      "behavio": 418,
      "##ency": 419,
      "behind": 420,
      "belief": 421,
      "believ": 422,
      "belong": 423,
      "bench": 424,
      "beneath": 425,
      "benefic": 426,
      "benefit": 427,
      "bereav": 428,
      "bereft": 429,
      "beside": 430,
      "bestow": 431,
      "betray": 432,
      "between": 433,
      "beyond": 434,
      "binanc": 435,
      "bisect": 436,
      "black": 437,
      "blank": 438,
      "bleak": 439,
      "blend": 440,
      "bless": 441,
      "blind": 442,
      "blink": 443,
      "block": 444,
      "bloom": 445,
      "blossom": 446,
      "blund": 447,
      "blunt": 448,
      "board": 449,
      "boast": 450,
      "bonus": 451,
      "boost": 452,
      "border": 453,
      "borrow": 454,
      "bother": 455,
      "bottle": 456,
      "bottom": 457,
      "bought": 458,
      "bounc": 459,
      "bound": 460,
      "brack": 461,
      "brain": 462,
      "branch": 463,
      "brand": 464,
      "brave": 465,
      "breach": 466,
      "break": 467,
      "breath": 468,
      "brevity": 469,
      "bridg": 470,
      "brief": 471,
      "bright": 472,
      "bring": 473,
      "brisk": 474,
      "broach": 475,
      "broad": 476,
      "broke": 477,
      "brother": 478,
      "brought": 479,
      "brows": 480,
      "brush": 481,
      "bucket": 482,
      "budget": 483,
      "bunch": 484,
      "bundl": 485,
      "burst": 486,
      "business": 487,
      "button": 488,
      "cable": 489,
      "calcul": 490,
      "calendar": 491,
      "calibrat": 492,
      "camera": 493,
      "campaign": 494,
      "campus": 495,
      "cancel": 496,
      "candid": 497,
      "candidat": 498,
      "canonical": 499,
      "canvas": 500,
      "capab": 501,
      "capacit": 502,
      "capital": 503,
      "capsul": 504,
      "captcha": 505,
      "caption": 506,
      "captivat": 507,
      "captur": 508,
      "cardinal": 509,
      "cascad": 510,
      "catal": 511,
      "catalog": 512,
      "catapult": 513,
      "catch": 514,
      "categor": 515,
      "cater": 516,
      "caught": 517,
      "cautio": 518,
      "celebrat": 519,
      "center": 520,
      "centr": 521,
      "ceremon": 522,
      "certain": 523,
      "certif": 524,
      "chain": 525,
      "chair": 526,
      "challeng": 527,
      "champ": 528,
      "chanc": 529,
      "chang": 530,
      "channel": 531,
      "chapt": 532,
      "character": 533,
      "charg": 534,
      "charit": 535,
      "charm": 536,
      "chart": 537,
      "cheap": 538,
      "cheat": 539,
      "check": 540,
      "cheer": 541,
      "chief": 542,
      "child": 543,
      "choic": 544,
      "choos": 545,
      "chose": 546,
      "chrom": 547,
      "chronologic": 548,
      "chunk": 549,
      "churn": 550,
      "cipher": 551,
      "circl": 552,
      "circuit": 553,
      "circular": 554,
      "circulat": 555,
      "circum": 556,
      "cisco": 557,
      "citation": 558,
      "civil": 559,
      "claim": 560,
      "clamp": 561,
      "clarif": 562,
      "clarity": 563,
      "clash": 564,
      "class": 565,
      "classif": 566,
      "clause": 567,
      "clean": 568,
      "clear": 569,
      "clever": 570,
      "click": 571,
      "client": 572,
      "climb": 573,
      "cling": 574,
      "clobber": 575,
      "clock": 576,
      "closur": 577,
      "cloth": 578,
      "cloud": 579,
      "cluster": 580,
      "clutter": 581,
      "coach": 582,
      "coaxial": 583,
      "cobol": 584,
      "cocoa": 585,
      "codif": 586,
      "coefficient": 587,
      "coffee": 588,
      "cofound": 589,
      "cognit": 590,
      "coheren": 591,
      "cohesi": 592,
      "coincid": 593,
      "colab": 594,
      "collaborat": 595,
      "collaps": 596,
      "collat": 597,
      "colleague": 598,
      "collect": 599,
      "college": 600,
      "collid": 601,
      "collinear": 602,
      "collis": 603,
      "colloqui": 604,
      "collud": 605,
      "collung": 606,
      "colon": 607,
      "color": 608,
      "colour": 609,
      "column": 610,
      "combat": 611,
      "combin": 612,
      "comfort": 613,
      "comfy": 614,
      "coming": 615,
      "comma": 616,
      "command": 617,
      "commenc": 618,
      "commend": 619,
      "comment": 620,
      "commerc": 621,
      "commiserat": 622,
      "commiss": 623,
      "commit": 624,
      "commod": 625,
      "common": 626,
      "commun": 627,
      "communic": 628,
      "commut": 629,
      "compact": 630,
      "compan": 631,
      "compar": 632,
      "compass": 633,
      "compat": 634,
      "compel": 635,
      "compensat": 636,
      "compet": 637,
      "competen": 638,
      "compil": 639,
      "complacen": 640,
      "complai": 641,
      "complement": 642,
      "complet": 643,
      "complex": 644,
      "compli": 645,
      "complian": 646,
      "complicat": 647,
      "compliment": 648,
      "comply": 649,
      "anchor": 650,
      "compos": 651,
      "compound": 652,
      "comprehen": 653,
      "compres": 654,
      "compris": 655,
      "compromis": 656,
      "compuls": 657,
      "comput": 658,
      "computer": 659,
      "concatenat": 660,
      "concav": 661,
      "conceal": 662,
      "conced": 663,
      "conceit": 664,
      "conceiv": 665,
      "concentrat": 666,
      "concept": 667,
      "concern": 668,
      "concert": 669,
      "concess": 670,
      "conciliat": 671,
      "concis": 672,
      "conclud": 673,
      "conclusi": 674,
      "concord": 675,
      "concret": 676,
      "concurr": 677,
      "condemn": 678,
      "condens": 679,
      "condit": 680,
      "condolenc": 681,
      "conduc": 682,
      "conduct": 683,
      "confer": 684,
      "conferenc": 685,
      "confes": 686,
      "confid": 687,
      "config": 688,
      "confin": 689,
      "confirm": 690,
      "conflat": 691,
      "conflict": 692,
      "confluen": 693,
      "conform": 694,
      "confound": 695,
      "confront": 696,
      "confus": 697,
      "congest": 698,
      "congrat": 699,
      "congratulat": 700,
      "congregat": 701,
      "congress": 702,
      "congru": 703,
      "congruent": 704,
      "conjectur": 705,
      "conjuga": 706,
      "conjunct": 707,
      "connect": 708,
      "conniv": 709,
      "conquer": 710,
      "conscious": 711,
      "consecutiv": 712,
      "consent": 713,
      "conserv": 714,
      "consider": 715,
      "consist": 716,
      "consol": 717,
      "consonan": 718,
      "conspic": 719,
      "conspir": 720,
      "const": 721,
      "constit": 722,
      "constrain": 723,
      "construct": 724,
      "consult": 725,
      "consum": 726,
      "contact": 727,
      "contain": 728,
      "contemp": 729,
      "contemplat": 730,
      "contempt": 731,
      "contend": 732,
      "content": 733,
      "contest": 734,
      "context": 735,
      "contigu": 736,
      "contingen": 737,
      "continu": 738,
      "contour": 739,
      "contr": 740,
      "contract": 741,
      "contradict": 742,
      "contrast": 743,
      "contribut": 744,
      "contrit": 745,
      "contriv": 746,
      "control": 747,
      "controver": 748,
      "conundrum": 749,
      "conven": 750,
      "convenien": 751,
      "convent": 752,
      "converg": 753,
      "convers": 754,
      "convert": 755,
      "convex": 756,
      "convey": 757,
      "convict": 758,
      "convinc": 759,
      "conviv": 760,
      "convol": 761,
      "cooperat": 762,
      "coordinat": 763,
      "corner": 764,
      "corollar": 765,
      "coroutin": 766,
      "corpora": 767,
      "corpus": 768,
      "correct": 769,
      "correlat": 770,
      "correspond": 771,
      "corroborat": 772,
      "corrupt": 773,
      "cosin": 774,
      "couch": 775,
      "analyz": 776,
      "counsel": 777,
      "count": 778,
      "coupl": 779,
      "courag": 780,
      "cours": 781,
      "court": 782,
      "couth": 783,
      "covenant": 784,
      "cover": 785,
      "covet": 786,
      "crack": 787,
      "craft": 788,
      "cramp": 789,
      "crank": 790,
      "crash": 791,
      "crawl": 792,
      "creat": 793,
      "creden": 794,
      "credib": 795,
      "credit": 796,
      "criteri": 797,
      "critic": 798,
      "critique": 799,
      "croach": 800,
      "cross": 801,
      "crowd": 802,
      "crucial": 803,
      "crude": 804,
      "crumbl": 805,
      "crunch": 806,
      "crush": 807,
      "crypt": 808,
      "crypto": 809,
      "crystal": 810,
      "culminat": 811,
      "cultivat": 812,
      "cultur": 813,
      "cumulat": 814,
      "curat": 815,
      "curio": 816,
      "currenc": 817,
      "current": 818,
      "cursor": 819,
      "curtail": 820,
      "custom": 821,
      "cyber": 822,
      "dabbl": 823,
      "daemon": 824,
      "damag": 825,
      "danger": 826,
      "dangl": 827,
      "daughter": 828,
      "daunt": 829,
      "dawdl": 830,
      "debat": 831,
      "debian": 832,
      "debug": 833,
      "debut": 834,
      "decad": 835,
      "decay": 836,
      "deceit": 837,
      "deceiv": 838,
      "decelerat": 839,
      "december": 840,
      "decen": 841,
      "decentraliz": 842,
      "decept": 843,
      "decid": 844,
      "decimal": 845,
      "decisi": 846,
      "declar": 847,
      "declin": 848,
      "decorat": 849,
      "decreas": 850,
      "decrement": 851,
      "dedicat": 852,
      "deduc": 853,
      "default": 854,
      "defeat": 855,
      "defect": 856,
      "defenc": 857,
      "defend": 858,
      "defens": 859,
      "defer": 860,
      "defic": 861,
      "defin": 862,
      "definit": 863,
      "deflat": 864,
      "deflect": 865,
      "deform": 866,
      "defus": 867,
      "degrad": 868,
      "degree": 869,
      "deject": 870,
      "delay": 871,
      "delegat": 872,
      "delet": 873,
      "deliberat": 874,
      "delic": 875,
      "delid": 876,
      "delight": 877,
      "deliver": 878,
      "delphi": 879,
      "delta": 880,
      "delusion": 881,
      "demand": 882,
      "demodulat": 883,
      "demolish": 884,
      "demonstra": 885,
      "demot": 886,
      "demur": 887,
      "densif": 888,
      "depart": 889,
      "department": 890,
      "depend": 891,
      "depict": 892,
      "deplet": 893,
      "deplor": 894,
      "deploy": 895,
      "deposit": 896,
      "depot": 897,
      "deprecat": 898,
      "depreciat": 899,
      "depreciate": 900,
      "depress": 901,
      "depriv": 902,
      "depth": 903,
      "deput": 904,
      "deque": 905,
      "deriv": 906,
      "descen": 907,
      "descri": 908,
      "describ": 909,
      "descript": 910,
      "desert": 911,
      "deserv": 912,
      "design": 913,
      "desir": 914,
      "despair": 915,
      "despatch": 916,
      "desperat": 917,
      "despis": 918,
      "despit": 919,
      "destin": 920,
      "destroy": 921,
      "destruct": 922,
      "desultor": 923,
      "detach": 924,
      "detail": 925,
      "detain": 926,
      "detect": 927,
      "determin": 928,
      "detract": 929,
      "devalu": 930,
      "devastat": 931,
      "develop": 932,
      "deviat": 933,
      "devic": 934,
      "devis": 935,
      "devoid": 936,
      "devolv": 937,
      "devot": 938,
      "dexter": 939,
      "diagnos": 940,
      "dialect": 941,
      "dialog": 942,
      "dictat": 943,
      "differ": 944,
      "differentia": 945,
      "difficult": 946,
      "diffiden": 947,
      "diffus": 948,
      "digit": 949,
      "dignit": 950,
      "dilat": 951,
      "diligen": 952,
      "dilut": 953,
      "dimens": 954,
      "diminish": 955,
      "dinner": 956,
      "direct": 957,
      "disabl": 958,
      "disappoint": 959,
      "discard": 960,
      "discern": 961,
      "disciplin": 962,
      "discord": 963,
      "discount": 964,
      "discourag": 965,
      "discover": 966,
      "discreet": 967,
      "discrep": 968,
      "discret": 969,
      "discriminant": 970,
      "discriminat": 971,
      "discuss": 972,
      "disdain": 973,
      "disgrac": 974,
      "disguis": 975,
      "disgust": 976,
      "disjoin": 977,
      "dismiss": 978,
      "dispens": 979,
      "dispers": 980,
      "display": 981,
      "dispos": 982,
      "disput": 983,
      "disrupt": 984,
      "dissent": 985,
      "dissipat": 986,
      "dissonan": 987,
      "dissuad": 988,
      "distan": 989,
      "distill": 990,
      "distinct": 991,
      "distinguish": 992,
      "distort": 993,
      "distract": 994,
      "distress": 995,
      "distribut": 996,
      "district": 997,
      "distro": 998,
      "disturb": 999,
      "diverg": 1000,
      "divers": 1001,
      "diversif": 1002,
      "divert": 1003,
      "divid": 1004,
      "divis": 1005,
      "django": 1006,
      "docker": 1007,
      "doctrin": 1008,
      "document": 1009,
      "doing": 1010,
      "domain": 1011,
      "domestic": 1012,
      "dominan": 1013,
      "dominat": 1014,
      "donat": 1015,
      "doubl": 1016,
      "doubt": 1017,
      "draft": 1018,
      "drain": 1019,
      "drama": 1020,
      "drank": 1021,
      "drastic": 1022,
      "dread": 1023,
      "dream": 1024,
      "dress": 1025,
      "drill": 1026,
      "drink": 1027,
      "drown": 1028,
      "drunk": 1029,
      "drupal": 1030,
      "dulat": 1031,
      "durab": 1032,
      "duration": 1033,
      "during": 1034,
      "dwindl": 1035,
      "dynam": 1036,
      "eager": 1037,
      "earth": 1038,
      "ebriet": 1039,
      "eclips": 1040,
      "ecolog": 1041,
      "econom": 1042,
      "educat": 1043,
      "effect": 1044,
      "effic": 1045,
      "efficien": 1046,
      "effort": 1047,
      "eigen": 1048,
      "eight": 1049,
      "either": 1050,
      "eject": 1051,
      "elaborat": 1052,
      "elaps": 1053,
      "elastic": 1054,
      "elect": 1055,
      "electr": 1056,
      "electrif": 1057,
      "electron": 1058,
      "elegan": 1059,
      "element": 1060,
      "elevat": 1061,
      "eleven": 1062,
      "elicit": 1063,
      "eligib": 1064,
      "eliminat": 1065,
      "ellip": 1066,
      "elongat": 1067,
      "elucidat": 1068,
      "elusiv": 1069,
      "embark": 1070,
      "embarrass": 1071,
      "embed": 1072,
      "embellish": 1073,
      "ember": 1074,
      "emblem": 1075,
      "embod": 1076,
      "embrac": 1077,
      "embrocat": 1078,
      "emerg": 1079,
      "eminen": 1080,
      "emiss": 1081,
      "emotion": 1082,
      "emphas": 1083,
      "emphat": 1084,
      "empir": 1085,
      "employ": 1086,
      "emulat": 1087,
      "enabl": 1088,
      "encapsulat": 1089,
      "enchant": 1090,
      "encumb": 1091,
      "endeav": 1092,
      "endors": 1093,
      "endur": 1094,
      "energ": 1095,
      "enforc": 1096,
      "engag": 1097,
      "engine": 1098,
      "engross": 1099,
      "enhanc": 1100,
      "enjoy": 1101,
      "enlarg": 1102,
      "enough": 1103,
      "enquir": 1104,
      "enroll": 1105,
      "ensembl": 1106,
      "ensur": 1107,
      "entail": 1108,
      "entangl": 1109,
      "enter": 1110,
      "enterpris": 1111,
      "entertain": 1112,
      "enthusiast": 1113,
      "entic": 1114,
      "entire": 1115,
      "entit": 1116,
      "entitl": 1117,
      "entrain": 1118,
      "entrance": 1119,
      "entrant": 1120,
      "entrap": 1121,
      "entre": 1122,
      "entreat": 1123,
      "entrench": 1124,
      "entrop": 1125,
      "entropic": 1126,
      "entrust": 1127,
      "enumer": 1128,
      "envelop": 1129,
      "environ": 1130,
      "envision": 1131,
      "epilog": 1132,
      "episod": 1133,
      "epoch": 1134,
      "equal": 1135,
      "equaliz": 1136,
      "equat": 1137,
      "equip": 1138,
      "equit": 1139,
      "eradicate": 1140,
      "ergonom": 1141,
      "erior": 1142,
      "erlang": 1143,
      "errand": 1144,
      "errant": 1145,
      "erroneous": 1146,
      "error": 1147,
      "escalat": 1148,
      "escap": 1149,
      "escort": 1150,
      "especial": 1151,
      "essen": 1152,
      "essential": 1153,
      "establish": 1154,
      "estate": 1155,
      "esteem": 1156,
      "estima": 1157,
      "etern": 1158,
      "ether": 1159,
      "euclid": 1160,
      "euler": 1161,
      "evaluat": 1162,
      "evaporat": 1163,
      "evening": 1164,
      "event": 1165,
      "every": 1166,
      "evict": 1167,
      "eviden": 1168,
      "evolut": 1169,
      "evolv": 1170,
      "exact": 1171,
      "exaggerat": 1172,
      "examin": 1173,
      "exampl": 1174,
      "exceed": 1175,
      "excel": 1176,
      "except": 1177,
      "excess": 1178,
      "excit": 1179,
      "exclud": 1180,
      "exclus": 1181,
      "exclusiv": 1182,
      "excus": 1183,
      "execut": 1184,
      "exempl": 1185,
      "exempt": 1186,
      "exercis": 1187,
      "exert": 1188,
      "exhaust": 1189,
      "exhibit": 1190,
      "exigen": 1191,
      "exist": 1192,
      "expand": 1193,
      "expans": 1194,
      "expect": 1195,
      "expedien": 1196,
      "expedit": 1197,
      "expedite": 1198,
      "expend": 1199,
      "expens": 1200,
      "experien": 1201,
      "experiment": 1202,
      "expert": 1203,
      "expir": 1204,
      "explain": 1205,
      "explanat": 1206,
      "explic": 1207,
      "explod": 1208,
      "exploit": 1209,
      "explor": 1210,
      "explos": 1211,
      "exponent": 1212,
      "export": 1213,
      "expos": 1214,
      "expound": 1215,
      "express": 1216,
      "exten": 1217,
      "extenuat": 1218,
      "exterior": 1219,
      "extern": 1220,
      "extinguish": 1221,
      "extra": 1222,
      "extract": 1223,
      "extrapolat": 1224,
      "extravagan": 1225,
      "extrem": 1226,
      "extricat": 1227,
      "extrinsic": 1228,
      "exult": 1229,
      "fabric": 1230,
      "fabul": 1231,
      "facilit": 1232,
      "factor": 1233,
      "faint": 1234,
      "faith": 1235,
      "false": 1236,
      "famil": 1237,
      "familiar": 1238,
      "famous": 1239,
      "fantas": 1240,
      "farth": 1241,
      "fascinat": 1242,
      "fashion": 1243,
      "fasten": 1244,
      "fastidious": 1245,
      "fatal": 1246,
      "father": 1247,
      "fatig": 1248,
      "fault": 1249,
      "feasib": 1250,
      "featur": 1251,
      "february": 1252,
      "federal": 1253,
      "federat": 1254,
      "feebl": 1255,
      "feign": 1256,
      "felic": 1257,
      "fellow": 1258,
      "female": 1259,
      "femin": 1260,
      "festiv": 1261,
      "fetch": 1262,
      "ficat": 1263,
      "ficial": 1264,
      "fickl": 1265,
      "fidel": 1266,
      "fidget": 1267,
      "field": 1268,
      "fight": 1269,
      "figur": 1270,
      "final": 1271,
      "financ": 1272,
      "finger": 1273,
      "finish": 1274,
      "finit": 1275,
      "first": 1276,
      "fixat": 1277,
      "flare": 1278,
      "flash": 1279,
      "flask": 1280,
      "flavo": 1281,
      "flect": 1282,
      "fleet": 1283,
      "flick": 1284,
      "flight": 1285,
      "fling": 1286,
      "flirt": 1287,
      "float": 1288,
      "flock": 1289,
      "flood": 1290,
      "floor": 1291,
      "flopp": 1292,
      "flourish": 1293,
      "fluctuat": 1294,
      "fluen": 1295,
      "fluff": 1296,
      "flung": 1297,
      "flurr": 1298,
      "flush": 1299,
      "flutter": 1300,
      "focal": 1301,
      "focus": 1302,
      "follow": 1303,
      "foray": 1304,
      "forbid": 1305,
      "forebod": 1306,
      "forecast": 1307,
      "foreign": 1308,
      "foresee": 1309,
      "forest": 1310,
      "foretell": 1311,
      "forever": 1312,
      "forfeit": 1313,
      "forgav": 1314,
      "forge": 1315,
      "forget": 1316,
      "forgiv": 1317,
      "forgo": 1318,
      "forgot": 1319,
      "formaliz": 1320,
      "format": 1321,
      "formul": 1322,
      "formulat": 1323,
      "forswear": 1324,
      "forth": 1325,
      "fortif": 1326,
      "fortran": 1327,
      "fortun": 1328,
      "forum": 1329,
      "forward": 1330,
      "fought": 1331,
      "found": 1332,
      "fract": 1333,
      "fraction": 1334,
      "fragil": 1335,
      "fragment": 1336,
      "fragran": 1337,
      "framework": 1338,
      "franca": 1339,
      "frantic": 1340,
      "fraud": 1341,
      "freez": 1342,
      "frequen": 1343,
      "fresh": 1344,
      "friend": 1345,
      "fright": 1346,
      "front": 1347,
      "frugal": 1348,
      "fruit": 1349,
      "frustrat": 1350,
      "frustum": 1351,
      "fulfil": 1352,
      "fumbl": 1353,
      "fundament": 1354,
      "funder": 1355,
      "fungib": 1356,
      "funnel": 1357,
      "furbish": 1358,
      "furcat": 1359,
      "further": 1360,
      "futur": 1361,
      "gadget": 1362,
      "gallant": 1363,
      "galler": 1364,
      "gambl": 1365,
      "gamif": 1366,
      "garbag": 1367,
      "garment": 1368,
      "gather": 1369,
      "gauss": 1370,
      "gemini": 1371,
      "gener": 1372,
      "general": 1373,
      "generat": 1374,
      "generic": 1375,
      "genet": 1376,
      "gentl": 1377,
      "genuin": 1378,
      "gestur": 1379,
      "gether": 1380,
      "ghost": 1381,
      "giant": 1382,
      "gigant": 1383,
      "glanc": 1384,
      "glass": 1385,
      "glean": 1386,
      "glimps": 1387,
      "glitch": 1388,
      "gloom": 1389,
      "gloss": 1390,
      "glyph": 1391,
      "gnome": 1392,
      "going": 1393,
      "gonal": 1394,
      "googl": 1395,
      "gorgeous": 1396,
      "govern": 1397,
      "grace": 1398,
      "gracious": 1399,
      "gradat": 1400,
      "gradient": 1401,
      "gradl": 1402,
      "gradual": 1403,
      "graduat": 1404,
      "gramm": 1405,
      "grand": 1406,
      "grant": 1407,
      "granular": 1408,
      "graph": 1409,
      "graphic": 1410,
      "grappl": 1411,
      "grasp": 1412,
      "grate": 1413,
      "gratif": 1414,
      "gravit": 1415,
      "great": 1416,
      "greed": 1417,
      "greet": 1418,
      "griev": 1419,
      "grind": 1420,
      "groom": 1421,
      "groov": 1422,
      "gross": 1423,
      "ground": 1424,
      "group": 1425,
      "grudg": 1426,
      "gruel": 1427,
      "grunt": 1428,
      "guarante": 1429,
      "guard": 1430,
      "guess": 1431,
      "guest": 1432,
      "guilt": 1433,
      "habit": 1434,
      "hackathon": 1435,
      "hadoop": 1436,
      "hamper": 1437,
      "handl": 1438,
      "happen": 1439,
      "harmon": 1440,
      "harness": 1441,
      "harsh": 1442,
      "haskell": 1443,
      "hassl": 1444,
      "haunt": 1445,
      "hazard": 1446,
      "health": 1447,
      "heart": 1448,
      "heather": 1449,
      "heaven": 1450,
      "hedron": 1451,
      "height": 1452,
      "hello": 1453,
      "hence": 1454,
      "hereby": 1455,
      "hesitat": 1456,
      "heter": 1457,
      "heuristic": 1458,
      "hiber": 1459,
      "hierarch": 1460,
      "hijack": 1461,
      "hinder": 1462,
      "hindranc": 1463,
      "histor": 1464,
      "hither": 1465,
      "holistic": 1466,
      "homogen": 1467,
      "honest": 1468,
      "honour": 1469,
      "horizon": 1470,
      "horribl": 1471,
      "horror": 1472,
      "hospit": 1473,
      "house": 1474,
      "hover": 1475,
      "human": 1476,
      "humbl": 1477,
      "humour": 1478,
      "hundred": 1479,
      "husband": 1480,
      "hybrid": 1481,
      "hyper": 1482,
      "hypoth": 1483,
      "icity": 1484,
      "ideal": 1485,
      "ident": 1486,
      "identif": 1487,
      "idiom": 1488,
      "ified": 1489,
      "ignit": 1490,
      "ignor": 1491,
      "illuminat": 1492,
      "illus": 1493,
      "illustrat": 1494,
      "imagin": 1495,
      "imbue": 1496,
      "imburs": 1497,
      "imitat": 1498,
      "immediat": 1499,
      "immens": 1500,
      "immers": 1501,
      "imminent": 1502,
      "immut": 1503,
      "impact": 1504,
      "impair": 1505,
      "impart": 1506,
      "imped": 1507,
      "impel": 1508,
      "impend": 1509,
      "imperat": 1510,
      "imperativ": 1511,
      "impersonat": 1512,
      "impertinen": 1513,
      "impet": 1514,
      "implant": 1515,
      "implement": 1516,
      "implicat": 1517,
      "implicit": 1518,
      "import": 1519,
      "impos": 1520,
      "impossibl": 1521,
      "impress": 1522,
      "improv": 1523,
      "impuden": 1524,
      "impuls": 1525,
      "impur": 1526,
      "imput": 1527,
      "inaugurat": 1528,
      "incent": 1529,
      "incept": 1530,
      "incident": 1531,
      "incit": 1532,
      "inclin": 1533,
      "includ": 1534,
      "inclus": 1535,
      "incognito": 1536,
      "increas": 1537,
      "incredibl": 1538,
      "increment": 1539,
      "incubat": 1540,
      "incur": 1541,
      "indebt": 1542,
      "indeed": 1543,
      "indelibl": 1544,
      "indent": 1545,
      "index": 1546,
      "indic": 1547,
      "indicat": 1548,
      "indign": 1549,
      "individual": 1550,
      "indolen": 1551,
      "induc": 1552,
      "induct": 1553,
      "indulg": 1554,
      "industr": 1555,
      "inert": 1556,
      "infect": 1557,
      "infer": 1558,
      "inflat": 1559,
      "inflect": 1560,
      "inflict": 1561,
      "inforc": 1562,
      "inform": 1563,
      "infra": 1564,
      "infring": 1565,
      "infus": 1566,
      "ingen": 1567,
      "ingest": 1568,
      "ingrain": 1569,
      "ingrat": 1570,
      "ingress": 1571,
      "inherent": 1572,
      "inherit": 1573,
      "inhibit": 1574,
      "inimitab": 1575,
      "initiat": 1576,
      "inject": 1577,
      "injur": 1578,
      "inlin": 1579,
      "innate": 1580,
      "inner": 1581,
      "innocent": 1582,
      "innovat": 1583,
      "input": 1584,
      "inquir": 1585,
      "insan": 1586,
      "insert": 1587,
      "insid": 1588,
      "insight": 1589,
      "insinuat": 1590,
      "insist": 1591,
      "insolen": 1592,
      "inspect": 1593,
      "inspir": 1594,
      "instabil": 1595,
      "install": 1596,
      "instanc": 1597,
      "instant": 1598,
      "instat": 1599,
      "instead": 1600,
      "instigat": 1601,
      "instinct": 1602,
      "institut": 1603,
      "instruct": 1604,
      "instrument": 1605,
      "insuff": 1606,
      "insult": 1607,
      "insur": 1608,
      "integ": 1609,
      "integr": 1610,
      "intel": 1611,
      "intellect": 1612,
      "intelli": 1613,
      "inten": 1614,
      "intend": 1615,
      "intens": 1616,
      "intent": 1617,
      "inter": 1618,
      "interact": 1619,
      "intercept": 1620,
      "interest": 1621,
      "interfac": 1622,
      "interfer": 1623,
      "intermiss": 1624,
      "intern": 1625,
      "internet": 1626,
      "interpolat": 1627,
      "interpret": 1628,
      "interrupt": 1629,
      "interval": 1630,
      "interven": 1631,
      "intim": 1632,
      "intra": 1633,
      "intract": 1634,
      "intric": 1635,
      "intrigu": 1636,
      "intrinsic": 1637,
      "intro": 1638,
      "introduc": 1639,
      "intrusiv": 1640,
      "intuit": 1641,
      "invad": 1642,
      "invent": 1643,
      "invers": 1644,
      "invert": 1645,
      "invest": 1646,
      "investigat": 1647,
      "invigorat": 1648,
      "invit": 1649,
      "invocat": 1650,
      "invok": 1651,
      "involv": 1652,
      "irrit": 1653,
      "ising": 1654,
      "isolat": 1655,
      "istic": 1656,
      "itera": 1657,
      "iterat": 1658,
      "ities": 1659,
      "ivity": 1660,
      "izing": 1661,
      "january": 1662,
      "jasmin": 1663,
      "jealous": 1664,
      "jenkins": 1665,
      "jinja": 1666,
      "jitter": 1667,
      "joomla": 1668,
      "journ": 1669,
      "journal": 1670,
      "jscript": 1671,
      "judic": 1672,
      "juggl": 1673,
      "junct": 1674,
      "junior": 1675,
      "jupyter": 1676,
      "justic": 1677,
      "justif": 1678,
      "juven": 1679,
      "kaggle": 1680,
      "kanban": 1681,
      "keras": 1682,
      "kernel": 1683,
      "knack": 1684,
      "knock": 1685,
      "knowledg": 1686,
      "kotlin": 1687,
      "kubernet": 1688,
      "label": 1689,
      "laborator": 1690,
      "lagrang": 1691,
      "lambd": 1692,
      "languag": 1693,
      "laravel": 1694,
      "large": 1695,
      "latch": 1696,
      "laten": 1697,
      "lateral": 1698,
      "latin": 1699,
      "latitud": 1700,
      "latter": 1701,
      "laugh": 1702,
      "launch": 1703,
      "lavish": 1704,
      "layer": 1705,
      "layout": 1706,
      "learn": 1707,
      "legac": 1708,
      "legal": 1709,
      "legend": 1710,
      "legib": 1711,
      "legitim": 1712,
      "lemma": 1713,
      "length": 1714,
      "lesson": 1715,
      "letter": 1716,
      "level": 1717,
      "leverag": 1718,
      "leverat": 1719,
      "lexic": 1720,
      "liberal": 1721,
      "libert": 1722,
      "licens": 1723,
      "licentious": 1724,
      "lidar": 1725,
      "light": 1726,
      "limit": 1727,
      "lingu": 1728,
      "linguist": 1729,
      "linux": 1730,
      "liquidat": 1731,
      "listen": 1732,
      "liter": 1733,
      "litera": 1734,
      "littl": 1735,
      "llama": 1736,
      "local": 1737,
      "locat": 1738,
      "logarithm": 1739,
      "logic": 1740,
      "logistic": 1741,
      "logit": 1742,
      "lonel": 1743,
      "loose": 1744,
      "loyal": 1745,
      "lucen": 1746,
      "lumin": 1747,
      "luxur": 1748,
      "machin": 1749,
      "macro": 1750,
      "magic": 1751,
      "magnet": 1752,
      "magnif": 1753,
      "magnitud": 1754,
      "mainfram": 1755,
      "maintain": 1756,
      "mainten": 1757,
      "majest": 1758,
      "major": 1759,
      "malic": 1760,
      "manag": 1761,
      "mandat": 1762,
      "maneuver": 1763,
      "manifest": 1764,
      "manipul": 1765,
      "manual": 1766,
      "manufactur": 1767,
      "march": 1768,
      "margin": 1769,
      "marginal": 1770,
      "market": 1771,
      "marriag": 1772,
      "marshall": 1773,
      "master": 1774,
      "match": 1775,
      "material": 1776,
      "matric": 1777,
      "matrimon": 1778,
      "matrix": 1779,
      "matter": 1780,
      "matur": 1781,
      "maxim": 1782,
      "measur": 1783,
      "mechan": 1784,
      "mechanic": 1785,
      "meddl": 1786,
      "media": 1787,
      "medic": 1788,
      "meditat": 1789,
      "melanchol": 1790,
      "melod": 1791,
      "member": 1792,
      "memor": 1793,
      "amend": 1794,
      "mentor": 1795,
      "mercant": 1796,
      "merchan": 1797,
      "merit": 1798,
      "messag": 1799,
      "metal": 1800,
      "metaphor": 1801,
      "meter": 1802,
      "method": 1803,
      "micro": 1804,
      "middl": 1805,
      "angular": 1806,
      "migrat": 1807,
      "milli": 1808,
      "million": 1809,
      "mimic": 1810,
      "miniatur": 1811,
      "minif": 1812,
      "minim": 1813,
      "minor": 1814,
      "minus": 1815,
      "minute": 1816,
      "mirror": 1817,
      "mirth": 1818,
      "miscellaneous": 1819,
      "miser": 1820,
      "mission": 1821,
      "mistak": 1822,
      "mitigat": 1823,
      "mixture": 1824,
      "mobil": 1825,
      "modal": 1826,
      "model": 1827,
      "modem": 1828,
      "moderat": 1829,
      "modern": 1830,
      "modest": 1831,
      "modif": 1832,
      "modul": 1833,
      "moment": 1834,
      "money": 1835,
      "mongo": 1836,
      "monitor": 1837,
      "monolith": 1838,
      "monoton": 1839,
      "month": 1840,
      "moral": 1841,
      "morning": 1842,
      "morph": 1843,
      "morrow": 1844,
      "mortif": 1845,
      "mother": 1846,
      "motion": 1847,
      "motiv": 1848,
      "motivat": 1849,
      "motor": 1850,
      "mount": 1851,
      "mountain": 1852,
      "mouse": 1853,
      "mozil": 1854,
      "multi": 1855,
      "multipl": 1856,
      "multiplatform": 1857,
      "multiplay": 1858,
      "multiple": 1859,
      "multiplex": 1860,
      "murmur": 1861,
      "music": 1862,
      "mutab": 1863,
      "mutat": 1864,
      "mutex": 1865,
      "mutter": 1866,
      "mutual": 1867,
      "myster": 1868,
      "mystif": 1869,
      "naive": 1870,
      "nance": 1871,
      "narrat": 1872,
      "narrow": 1873,
      "nation": 1874,
      "nativ": 1875,
      "natur": 1876,
      "necess": 1877,
      "negat": 1878,
      "negativ": 1879,
      "neglect": 1880,
      "neglig": 1881,
      "negotiat": 1882,
      "neighbo": 1883,
      "neither": 1884,
      "network": 1885,
      "neutral": 1886,
      "amplif": 1887,
      "night": 1888,
      "nominal": 1889,
      "nominat": 1890,
      "noname": 1891,
      "nonsens": 1892,
      "noone": 1893,
      "normaliz": 1894,
      "north": 1895,
      "notat": 1896,
      "notic": 1897,
      "notif": 1898,
      "notorious": 1899,
      "nought": 1900,
      "nourish": 1901,
      "novel": 1902,
      "november": 1903,
      "novic": 1904,
      "numer": 1905,
      "obedien": 1906,
      "obfuscat": 1907,
      "object": 1908,
      "oblig": 1909,
      "obliquity": 1910,
      "obliterat": 1911,
      "obscur": 1912,
      "observ": 1913,
      "obsess": 1914,
      "obsolet": 1915,
      "obstacl": 1916,
      "obstinate": 1917,
      "obstruct": 1918,
      "obtain": 1919,
      "obtrud": 1920,
      "obviat": 1921,
      "obvious": 1922,
      "occasion": 1923,
      "occlud": 1924,
      "occup": 1925,
      "occur": 1926,
      "october": 1927,
      "odious": 1928,
      "offenc": 1929,
      "offend": 1930,
      "offens": 1931,
      "offer": 1932,
      "offic": 1933,
      "offset": 1934,
      "often": 1935,
      "onerous": 1936,
      "opaci": 1937,
      "opaque": 1938,
      "operat": 1939,
      "opinion": 1940,
      "opponent": 1941,
      "opportun": 1942,
      "oppos": 1943,
      "opposs": 1944,
      "oppress": 1945,
      "optic": 1946,
      "optim": 1947,
      "optimal": 1948,
      "optimis": 1949,
      "optimiz": 1950,
      "option": 1951,
      "oracle": 1952,
      "order": 1953,
      "ordinar": 1954,
      "ordinat": 1955,
      "organic": 1956,
      "organiz": 1957,
      "orient": 1958,
      "origin": 1959,
      "original": 1960,
      "originat": 1961,
      "ornament": 1962,
      "ortho": 1963,
      "oscill": 1964,
      "oscillat": 1965,
      "osten": 1966,
      "other": 1967,
      "ought": 1968,
      "outage": 1969,
      "outer": 1970,
      "outlast": 1971,
      "outrage": 1972,
      "overlap": 1973,
      "overrid": 1974,
      "packag": 1975,
      "paint": 1976,
      "palette": 1977,
      "panel": 1978,
      "paper": 1979,
      "parabol": 1980,
      "parad": 1981,
      "paradigm": 1982,
      "paradox": 1983,
      "paragraph": 1984,
      "parallax": 1985,
      "parallel": 1986,
      "param": 1987,
      "paramet": 1988,
      "pardon": 1989,
      "parent": 1990,
      "particip": 1991,
      "particl": 1992,
      "particul": 1993,
      "passag": 1994,
      "passiv": 1995,
      "patch": 1996,
      "patent": 1997,
      "patien": 1998,
      "patron": 1999,
      "patronag": 2000,
      "pattern": 2001,
      "peculiar": 2002,
      "pedia": 2003,
      "penal": 2004,
      "pencil": 2005,
      "penetrat": 2006,
      "penur": 2007,
      "peopl": 2008,
      "perceiv": 2009,
      "percent": 2010,
      "percept": 2011,
      "perempt": 2012,
      "perennial": 2013,
      "perfect": 2014,
      "perform": 2015,
      "period": 2016,
      "peripher": 2017,
      "permanent": 2018,
      "permeat": 2019,
      "permiss": 2020,
      "permit": 2021,
      "permut": 2022,
      "perpendicular": 2023,
      "perpetual": 2024,
      "perplex": 2025,
      "persever": 2026,
      "persist": 2027,
      "person": 2028,
      "perspectiv": 2029,
      "persuad": 2030,
      "persuas": 2031,
      "pertain": 2032,
      "pertin": 2033,
      "perturb": 2034,
      "perus": 2035,
      "pervad": 2036,
      "pessimi": 2037,
      "phase": 2038,
      "phenomen": 2039,
      "philosoph": 2040,
      "phish": 2041,
      "phone": 2042,
      "phonet": 2043,
      "photo": 2044,
      "phras": 2045,
      "physic": 2046,
      "pictur": 2047,
      "piece": 2048,
      "pilot": 2049,
      "pioneer": 2050,
      "pipeline": 2051,
      "pitch": 2052,
      "pivot": 2053,
      "pixel": 2054,
      "plagued": 2055,
      "plain": 2056,
      "planar": 2057,
      "plane": 2058,
      "planet": 2059,
      "plast": 2060,
      "platform": 2061,
      "plausib": 2062,
      "plead": 2063,
      "pleas": 2064,
      "pledg": 2065,
      "plent": 2066,
      "plung": 2067,
      "plural": 2068,
      "poach": 2069,
      "pocket": 2070,
      "podcast": 2071,
      "point": 2072,
      "polar": 2073,
      "polic": 2074,
      "polish": 2075,
      "polit": 2076,
      "ponder": 2077,
      "popular": 2078,
      "populat": 2079,
      "portal": 2080,
      "portion": 2081,
      "posit": 2082,
      "positiv": 2083,
      "possess": 2084,
      "possib": 2085,
      "postgres": 2086,
      "postpon": 2087,
      "potent": 2088,
      "power": 2089,
      "pract": 2090,
      "pragm": 2091,
      "prais": 2092,
      "preach": 2093,
      "preambl": 2094,
      "preced": 2095,
      "precedent": 2096,
      "preci": 2097,
      "precipic": 2098,
      "precipit": 2099,
      "precipitat": 2100,
      "precis": 2101,
      "preclud": 2102,
      "predecess": 2103,
      "predica": 2104,
      "predict": 2105,
      "prefer": 2106,
      "prejudic": 2107,
      "preliminar": 2108,
      "premier": 2109,
      "premis": 2110,
      "preneur": 2111,
      "prepar": 2112,
      "prepend": 2113,
      "present": 2114,
      "preserv": 2115,
      "press": 2116,
      "pressur": 2117,
      "presum": 2118,
      "pretenc": 2119,
      "pretend": 2120,
      "pretens": 2121,
      "prett": 2122,
      "prevail": 2123,
      "prevent": 2124,
      "previous": 2125,
      "pride": 2126,
      "primar": 2127,
      "primitiv": 2128,
      "princip": 2129,
      "print": 2130,
      "prior": 2131,
      "privat": 2132,
      "privileg": 2133,
      "probab": 2134,
      "problem": 2135,
      "procedur": 2136,
      "proceed": 2137,
      "process": 2138,
      "processor": 2139,
      "procrastinat": 2140,
      "procur": 2141,
      "produc": 2142,
      "profess": 2143,
      "profession": 2144,
      "profic": 2145,
      "profil": 2146,
      "profit": 2147,
      "program": 2148,
      "progress": 2149,
      "prohibit": 2150,
      "project": 2151,
      "prolog": 2152,
      "prolong": 2153,
      "prominen": 2154,
      "promis": 2155,
      "promot": 2156,
      "prompt": 2157,
      "pronoun": 2158,
      "pronunc": 2159,
      "proof": 2160,
      "propagat": 2161,
      "proper": 2162,
      "propos": 2163,
      "propriet": 2164,
      "prospect": 2165,
      "prosper": 2166,
      "protect": 2167,
      "protest": 2168,
      "proto": 2169,
      "protocol": 2170,
      "prototyp": 2171,
      "protrud": 2172,
      "proud": 2173,
      "provid": 2174,
      "provis": 2175,
      "provocation": 2176,
      "provok": 2177,
      "proxim": 2178,
      "pruden": 2179,
      "pseudo": 2180,
      "public": 2181,
      "publish": 2182,
      "punct": 2183,
      "punish": 2184,
      "pupil": 2185,
      "purchas": 2186,
      "purpos": 2187,
      "pursu": 2188,
      "puzzl": 2189,
      "python": 2190,
      "quali": 2191,
      "quant": 2192,
      "quantif": 2193,
      "quarrel": 2194,
      "quarter": 2195,
      "quaternion": 2196,
      "queen": 2197,
      "queer": 2198,
      "quest": 2199,
      "question": 2200,
      "quick": 2201,
      "quiet": 2202,
      "quint": 2203,
      "radiat": 2204,
      "radic": 2205,
      "radio": 2206,
      "radius": 2207,
      "rambl": 2208,
      "random": 2209,
      "ransom": 2210,
      "rapid": 2211,
      "raptur": 2212,
      "raspberry": 2213,
      "raster": 2214,
      "rather": 2215,
      "ratio": 2216,
      "rational": 2217,
      "ravel": 2218,
      "reach": 2219,
      "react": 2220,
      "ready": 2221,
      "realiz": 2222,
      "realm": 2223,
      "reanimat": 2224,
      "rearrang": 2225,
      "reason": 2226,
      "rebut": 2227,
      "recap": 2228,
      "recaptur": 2229,
      "receipt": 2230,
      "receiv": 2231,
      "recent": 2232,
      "recept": 2233,
      "recipe": 2234,
      "recipient": 2235,
      "reciproc": 2236,
      "reckon": 2237,
      "recogni": 2238,
      "recommend": 2239,
      "reconcil": 2240,
      "record": 2241,
      "recover": 2242,
      "recruit": 2243,
      "rectang": 2244,
      "rectif": 2245,
      "recur": 2246,
      "recurren": 2247,
      "recurs": 2248,
      "redact": 2249,
      "reduc": 2250,
      "redundan": 2251,
      "redux": 2252,
      "refactor": 2253,
      "refer": 2254,
      "refetch": 2255,
      "refil": 2256,
      "refill": 2257,
      "refin": 2258,
      "refit": 2259,
      "reflect": 2260,
      "reflex": 2261,
      "refocus": 2262,
      "reform": 2263,
      "reformat": 2264,
      "reformulat": 2265,
      "refract": 2266,
      "refrain": 2267,
      "refresh": 2268,
      "refund": 2269,
      "refurbish": 2270,
      "refus": 2271,
      "refut": 2272,
      "regain": 2273,
      "regard": 2274,
      "region": 2275,
      "regist": 2276,
      "regress": 2277,
      "regret": 2278,
      "regular": 2279,
      "regulat": 2280,
      "reject": 2281,
      "relat": 2282,
      "relax": 2283,
      "releas": 2284,
      "relegat": 2285,
      "relent": 2286,
      "relevan": 2287,
      "reliab": 2288,
      "relian": 2289,
      "reliev": 2290,
      "relinquish": 2291,
      "relish": 2292,
      "reluctan": 2293,
      "remain": 2294,
      "remed": 2295,
      "rememb": 2296,
      "remembr": 2297,
      "remind": 2298,
      "remiss": 2299,
      "remonstra": 2300,
      "remot": 2301,
      "remov": 2302,
      "render": 2303,
      "renovat": 2304,
      "repair": 2305,
      "repeat": 2306,
      "repetit": 2307,
      "repla": 2308,
      "replac": 2309,
      "replay": 2310,
      "replenish": 2311,
      "replet": 2312,
      "replic": 2313,
      "report": 2314,
      "repositor": 2315,
      "reprehen": 2316,
      "represent": 2317,
      "reproach": 2318,
      "reput": 2319,
      "reputa": 2320,
      "reque": 2321,
      "request": 2322,
      "requi": 2323,
      "requir": 2324,
      "requisit": 2325,
      "rescind": 2326,
      "rescu": 2327,
      "reserv": 2328,
      "reset": 2329,
      "resid": 2330,
      "resident": 2331,
      "resilien": 2332,
      "resist": 2333,
      "resolut": 2334,
      "resolv": 2335,
      "resonat": 2336,
      "respect": 2337,
      "respon": 2338,
      "restart": 2339,
      "restat": 2340,
      "restaurant": 2341,
      "restor": 2342,
      "restrain": 2343,
      "restrict": 2344,
      "restruct": 2345,
      "result": 2346,
      "resum": 2347,
      "resurrect": 2348,
      "retail": 2349,
      "retain": 2350,
      "retent": 2351,
      "retir": 2352,
      "retriev": 2353,
      "retro": 2354,
      "return": 2355,
      "revamp": 2356,
      "reveal": 2357,
      "revel": 2358,
      "revenue": 2359,
      "revers": 2360,
      "revert": 2361,
      "revis": 2362,
      "revisit": 2363,
      "reviv": 2364,
      "revok": 2365,
      "revolt": 2366,
      "revolut": 2367,
      "revolv": 2368,
      "reward": 2369,
      "ridicul": 2370,
      "right": 2371,
      "rigid": 2372,
      "rigorous": 2373,
      "rival": 2374,
      "river": 2375,
      "roast": 2376,
      "robust": 2377,
      "roman": 2378,
      "rotat": 2379,
      "rough": 2380,
      "round": 2381,
      "routine": 2382,
      "rubber": 2383,
      "rubric": 2384,
      "rudimen": 2385,
      "rugged": 2386,
      "rumor": 2387,
      "rumour": 2388,
      "safar": 2389,
      "salar": 2390,
      "sampl": 2391,
      "samsung": 2392,
      "sanit": 2393,
      "satellit": 2394,
      "satisf": 2395,
      "satur": 2396,
      "saturat": 2397,
      "saunter": 2398,
      "sawed": 2399,
      "scalar": 2400,
      "scatter": 2401,
      "scenar": 2402,
      "scept": 2403,
      "schedul": 2404,
      "schem": 2405,
      "scholar": 2406,
      "school": 2407,
      "scien": 2408,
      "scold": 2409,
      "scout": 2410,
      "scrab": 2411,
      "scrambl": 2412,
      "scrap": 2413,
      "scratch": 2414,
      "scream": 2415,
      "screen": 2416,
      "screw": 2417,
      "scrib": 2418,
      "script": 2419,
      "scroll": 2420,
      "scrum": 2421,
      "scrup": 2422,
      "scrut": 2423,
      "scrutiniz": 2424,
      "search": 2425,
      "season": 2426,
      "second": 2427,
      "secret": 2428,
      "secur": 2429,
      "seduc": 2430,
      "segment": 2431,
      "segregat": 2432,
      "segue": 2433,
      "seldom": 2434,
      "select": 2435,
      "semantic": 2436,
      "semaphor": 2437,
      "sembl": 2438,
      "seminar": 2439,
      "seminat": 2440,
      "senior": 2441,
      "sensation": 2442,
      "sensitiv": 2443,
      "sensor": 2444,
      "sentenc": 2445,
      "sentiment": 2446,
      "separ": 2447,
      "september": 2448,
      "seque": 2449,
      "serial": 2450,
      "series": 2451,
      "serious": 2452,
      "server": 2453,
      "servic": 2454,
      "session": 2455,
      "settl": 2456,
      "setup": 2457,
      "seven": 2458,
      "sever": 2459,
      "several": 2460,
      "shadow": 2461,
      "ambigu": 2462,
      "shallow": 2463,
      "shard": 2464,
      "sharp": 2465,
      "sheet": 2466,
      "shell": 2467,
      "shelter": 2468,
      "shift": 2469,
      "shock": 2470,
      "shook": 2471,
      "shoot": 2472,
      "short": 2473,
      "amass": 2474,
      "shout": 2475,
      "shrank": 2476,
      "shrink": 2477,
      "shrunk": 2478,
      "shuffl": 2479,
      "sight": 2480,
      "signal": 2481,
      "signatur": 2482,
      "signif": 2483,
      "silen": 2484,
      "silhouett": 2485,
      "silicon": 2486,
      "silver": 2487,
      "similar": 2488,
      "simpl": 2489,
      "simplic": 2490,
      "simplif": 2491,
      "simulat": 2492,
      "simultaneous": 2493,
      "since": 2494,
      "sincere": 2495,
      "singl": 2496,
      "singular": 2497,
      "sinus": 2498,
      "sister": 2499,
      "situat": 2500,
      "skeleton": 2501,
      "skept": 2502,
      "sketch": 2503,
      "skill": 2504,
      "skype": 2505,
      "slack": 2506,
      "slang": 2507,
      "slash": 2508,
      "sleek": 2509,
      "sleep": 2510,
      "sleet": 2511,
      "slept": 2512,
      "slight": 2513,
      "sling": 2514,
      "slugg": 2515,
      "slumber": 2516,
      "slung": 2517,
      "smack": 2518,
      "small": 2519,
      "smart": 2520,
      "smash": 2521,
      "smell": 2522,
      "smooth": 2523,
      "sneak": 2524,
      "sneer": 2525,
      "sniff": 2526,
      "sober": 2527,
      "social": 2528,
      "sociat": 2529,
      "societ": 2530,
      "socket": 2531,
      "software": 2532,
      "solace": 2533,
      "solely": 2534,
      "solemn": 2535,
      "solicit": 2536,
      "solid": 2537,
      "solitar": 2538,
      "solution": 2539,
      "sooth": 2540,
      "sophisticat": 2541,
      "sorrow": 2542,
      "sorry": 2543,
      "sound": 2544,
      "sourc": 2545,
      "south": 2546,
      "space": 2547,
      "spark": 2548,
      "spars": 2549,
      "spatial": 2550,
      "spawn": 2551,
      "speak": 2552,
      "speci": 2553,
      "special": 2554,
      "specializ": 2555,
      "specif": 2556,
      "spect": 2557,
      "spectr": 2558,
      "speculat": 2559,
      "speech": 2560,
      "speed": 2561,
      "spend": 2562,
      "spher": 2563,
      "spider": 2564,
      "spill": 2565,
      "spirit": 2566,
      "splash": 2567,
      "splay": 2568,
      "splend": 2569,
      "splic": 2570,
      "splin": 2571,
      "split": 2572,
      "spoil": 2573,
      "spoke": 2574,
      "spond": 2575,
      "sponsor": 2576,
      "spontane": 2577,
      "spoof": 2578,
      "spool": 2579,
      "spoon": 2580,
      "sporad": 2581,
      "sport": 2582,
      "sprang": 2583,
      "spread": 2584,
      "spring": 2585,
      "sprinkl": 2586,
      "sprint": 2587,
      "spuri": 2588,
      "spurn": 2589,
      "spurt": 2590,
      "squar": 2591,
      "squeez": 2592,
      "stabil": 2593,
      "stabl": 2594,
      "stack": 2595,
      "staff": 2596,
      "stagnat": 2597,
      "stair": 2598,
      "stakeholder": 2599,
      "stale": 2600,
      "stall": 2601,
      "stamp": 2602,
      "stand": 2603,
      "standard": 2604,
      "standby": 2605,
      "stare": 2606,
      "start": 2607,
      "stash": 2608,
      "static": 2609,
      "station": 2610,
      "stationar": 2611,
      "statistic": 2612,
      "status": 2613,
      "stead": 2614,
      "steal": 2615,
      "steam": 2616,
      "steep": 2617,
      "steer": 2618,
      "stemm": 2619,
      "stencil": 2620,
      "stereo": 2621,
      "stick": 2622,
      "stiff": 2623,
      "still": 2624,
      "stimul": 2625,
      "stipulat": 2626,
      "stochast": 2627,
      "stock": 2628,
      "stood": 2629,
      "stoop": 2630,
      "storag": 2631,
      "storm": 2632,
      "story": 2633,
      "stout": 2634,
      "straggl": 2635,
      "straight": 2636,
      "strain": 2637,
      "strang": 2638,
      "strap": 2639,
      "strat": 2640,
      "strateg": 2641,
      "stratif": 2642,
      "stray": 2643,
      "stream": 2644,
      "street": 2645,
      "stren": 2646,
      "strength": 2647,
      "stress": 2648,
      "stretch": 2649,
      "strick": 2650,
      "strict": 2651,
      "strid": 2652,
      "strik": 2653,
      "string": 2654,
      "strip": 2655,
      "striv": 2656,
      "strok": 2657,
      "strong": 2658,
      "strov": 2659,
      "struct": 2660,
      "struggl": 2661,
      "stuck": 2662,
      "student": 2663,
      "studio": 2664,
      "stuff": 2665,
      "stumbl": 2666,
      "stump": 2667,
      "stupid": 2668,
      "subdu": 2669,
      "subject": 2670,
      "submiss": 2671,
      "submit": 2672,
      "subscrib": 2673,
      "subsid": 2674,
      "subsist": 2675,
      "substan": 2676,
      "substantiat": 2677,
      "substitut": 2678,
      "subtl": 2679,
      "subtract": 2680,
      "succe": 2681,
      "succinct": 2682,
      "sudden": 2683,
      "suffer": 2684,
      "suffic": 2685,
      "suffix": 2686,
      "suggest": 2687,
      "sullen": 2688,
      "summa": 2689,
      "summar": 2690,
      "summer": 2691,
      "summit": 2692,
      "summon": 2693,
      "super": 2694,
      "supper": 2695,
      "suppl": 2696,
      "support": 2697,
      "suppos": 2698,
      "suppress": 2699,
      "suprem": 2700,
      "surfac": 2701,
      "surmis": 2702,
      "surpass": 2703,
      "surpris": 2704,
      "surrender": 2705,
      "surrogate": 2706,
      "surround": 2707,
      "surve": 2708,
      "surviv": 2709,
      "suspect": 2710,
      "suspend": 2711,
      "suspens": 2712,
      "suspic": 2713,
      "sustain": 2714,
      "swear": 2715,
      "sweep": 2716,
      "sweet": 2717,
      "swell": 2718,
      "swift": 2719,
      "swish": 2720,
      "switch": 2721,
      "swoop": 2722,
      "swung": 2723,
      "syllabl": 2724,
      "symbian": 2725,
      "symbol": 2726,
      "symmetr": 2727,
      "sympath": 2728,
      "synonym": 2729,
      "syntax": 2730,
      "synth": 2731,
      "synthes": 2732,
      "synthet": 2733,
      "system": 2734,
      "tabul": 2735,
      "tackl": 2736,
      "tactic": 2737,
      "tailor": 2738,
      "talent": 2739,
      "tamper": 2740,
      "tangent": 2741,
      "tangl": 2742,
      "target": 2743,
      "taught": 2744,
      "teach": 2745,
      "techni": 2746,
      "technolog": 2747,
      "tedious": 2748,
      "temper": 2749,
      "temperatur": 2750,
      "templat": 2751,
      "tempor": 2752,
      "tempt": 2753,
      "tenabl": 2754,
      "tenacious": 2755,
      "tendenc": 2756,
      "tender": 2757,
      "tensor": 2758,
      "tentat": 2759,
      "termin": 2760,
      "terminal": 2761,
      "terminat": 2762,
      "terrain": 2763,
      "terribl": 2764,
      "terrif": 2765,
      "tessellat": 2766,
      "testimon": 2767,
      "tether": 2768,
      "thank": 2769,
      "theft": 2770,
      "their": 2771,
      "theor": 2772,
      "theorem": 2773,
      "ambit": 2774,
      "thereby": 2775,
      "therm": 2776,
      "thesa": 2777,
      "thesis": 2778,
      "thest": 2779,
      "theta": 2780,
      "thick": 2781,
      "thing": 2782,
      "think": 2783,
      "third": 2784,
      "thirt": 2785,
      "thither": 2786,
      "thorough": 2787,
      "those": 2788,
      "though": 2789,
      "thought": 2790,
      "thous": 2791,
      "thousand": 2792,
      "thread": 2793,
      "threat": 2794,
      "three": 2795,
      "thres": 2796,
      "threw": 2797,
      "thrift": 2798,
      "thrill": 2799,
      "thriv": 2800,
      "throttl": 2801,
      "through": 2802,
      "throw": 2803,
      "thumb": 2804,
      "thunder": 2805,
      "thunk": 2806,
      "thwart": 2807,
      "ticket": 2808,
      "tight": 2809,
      "timid": 2810,
      "tinker": 2811,
      "toggl": 2812,
      "token": 2813,
      "tolera": 2814,
      "tolerat": 2815,
      "tomorrow": 2816,
      "tongue": 2817,
      "tonight": 2818,
      "tooth": 2819,
      "topic": 2820,
      "topolog": 2821,
      "torch": 2822,
      "torrent": 2823,
      "total": 2824,
      "totter": 2825,
      "touch": 2826,
      "tough": 2827,
      "tournament": 2828,
      "track": 2829,
      "tract": 2830,
      "tradition": 2831,
      "traff": 2832,
      "trail": 2833,
      "train": 2834,
      "trait": 2835,
      "trajector": 2836,
      "tranquil": 2837,
      "trans": 2838,
      "transact": 2839,
      "transceiv": 2840,
      "transcend": 2841,
      "transclud": 2842,
      "transcrib": 2843,
      "transcript": 2844,
      "transduc": 2845,
      "transduct": 2846,
      "transfer": 2847,
      "transform": 2848,
      "transgress": 2849,
      "transient": 2850,
      "transist": 2851,
      "transit": 2852,
      "translat": 2853,
      "transliterat": 2854,
      "transmiss": 2855,
      "transmit": 2856,
      "transparen": 2857,
      "transpil": 2858,
      "transplant": 2859,
      "transport": 2860,
      "transpos": 2861,
      "trash": 2862,
      "travel": 2863,
      "travers": 2864,
      "tread": 2865,
      "treasur": 2866,
      "treat": 2867,
      "trembl": 2868,
      "tremend": 2869,
      "trend": 2870,
      "trial": 2871,
      "triang": 2872,
      "triangul": 2873,
      "trick": 2874,
      "trifl": 2875,
      "trigger": 2876,
      "tripl": 2877,
      "triumph": 2878,
      "trivial": 2879,
      "troubl": 2880,
      "truncat": 2881,
      "trunk": 2882,
      "trust": 2883,
      "truth": 2884,
      "tunel": 2885,
      "tunnel": 2886,
      "turbo": 2887,
      "tutor": 2888,
      "tweak": 2889,
      "tweet": 2890,
      "twelve": 2891,
      "twent": 2892,
      "twice": 2893,
      "twiddl": 2894,
      "twink": 2895,
      "twist": 2896,
      "twitch": 2897,
      "twitter": 2898,
      "typic": 2899,
      "ubiquit": 2900,
      "ubuntu": 2901,
      "ultimat": 2902,
      "ultra": 2903,
      "under": 2904,
      "understand": 2905,
      "understood": 2906,
      "underwent": 2907,
      "unfurl": 2908,
      "unicode": 2909,
      "unicorn": 2910,
      "unifi": 2911,
      "uniform": 2912,
      "uninstall": 2913,
      "union": 2914,
      "unique": 2915,
      "unison": 2916,
      "unity": 2917,
      "univers": 2918,
      "unleash": 2919,
      "untaint": 2920,
      "until": 2921,
      "unveil": 2922,
      "upbraid": 2923,
      "updat": 2924,
      "upgrad": 2925,
      "upped": 2926,
      "upper": 2927,
      "upset": 2928,
      "urban": 2929,
      "alternat": 2930,
      "utmost": 2931,
      "utter": 2932,
      "vacan": 2933,
      "vacat": 2934,
      "vagar": 2935,
      "vague": 2936,
      "valen": 2937,
      "valenc": 2938,
      "valent": 2939,
      "valid": 2940,
      "valley": 2941,
      "vanish": 2942,
      "vanit": 2943,
      "variab": 2944,
      "variabl": 2945,
      "variad": 2946,
      "varianc": 2947,
      "variant": 2948,
      "variat": 2949,
      "varie": 2950,
      "various": 2951,
      "vaunt": 2952,
      "vector": 2953,
      "vehicl": 2954,
      "vendor": 2955,
      "ventilat": 2956,
      "ventur": 2957,
      "venue": 2958,
      "verbos": 2959,
      "verdict": 2960,
      "verif": 2961,
      "verity": 2962,
      "versa": 2963,
      "version": 2964,
      "versus": 2965,
      "vertex": 2966,
      "vertic": 2967,
      "vexat": 2968,
      "video": 2969,
      "vigorous": 2970,
      "vigour": 2971,
      "village": 2972,
      "vindic": 2973,
      "violat": 2974,
      "violen": 2975,
      "viral": 2976,
      "virtual": 2977,
      "virtue": 2978,
      "virus": 2979,
      "visib": 2980,
      "vision": 2981,
      "visit": 2982,
      "visual": 2983,
      "vital": 2984,
      "vocabular": 2985,
      "vocal": 2986,
      "vocat": 2987,
      "volatil": 2988,
      "volub": 2989,
      "volum": 2990,
      "volunt": 2991,
      "vouch": 2992,
      "vulgar": 2993,
      "vulner": 2994,
      "wander": 2995,
      "warrant": 2996,
      "watch": 2997,
      "water": 2998,
      "weather": 2999,
      "webinar": 3000,
      "weigh": 3001,
      "weight": 3002,
      "weird": 3003,
      "welcom": 3004,
      "whelm": 3005,
      "whence": 3006,
      "where": 3007,
      "which": 3008,
      "while": 3009,
      "whilst": 3010,
      "whirl": 3011,
      "whisp": 3012,
      "white": 3013,
      "whither": 3014,
      "whole": 3015,
      "widget": 3016,
      "widow": 3017,
      "width": 3018,
      "wield": 3019,
      "willing": 3020,
      "window": 3021,
      "winter": 3022,
      "within": 3023,
      "without": 3024,
      "witness": 3025,
      "wizard": 3026,
      "woman": 3027,
      "women": 3028,
      "wonder": 3029,
      "world": 3030,
      "worship": 3031,
      "worth": 3032,
      "would": 3033,
      "wound": 3034,
      "wreak": 3035,
      "wretch": 3036,
      "wright": 3037,
      "wrong": 3038,
      "wrote": 3039,
      "yellow": 3040,
      "yesterday": 3041,
      "yield": 3042,
      "young": 3043,
      "youth": 3044,
      "youtub": 3045,
      "##atic": 3046,
      "##aliz": 3047,
      "##tion": 3048,
      "##ble": 3049,
      "breakfast": 3050,
      "bustl": 3051,
      "##fram": 3052,
      "##pad": 3053,
      "##point": 3054,
      "##down": 3055,
      "##gen": 3056,
      "##er": 3057,
      "##ability": 3058,
      "ini": 3059,
      "lib": 3060,
      "net": 3061,
      "##net": 3062,
      "dot": 3063,
      "##ies": 3064,
      "##acy": 3065,
      "##ied": 3066,
      "##ily": 3067,
      "##ify": 3068,
      "##al": 3069,
      "##ial": 3070,
      "##lib": 3071,
      "back": 3072,
      "badg": 3073,
      "ball": 3074,
      "band": 3075,
      "base": 3076,
      "bash": 3077,
      "beam": 3078,
      "bean": 3079,
      "bear": 3080,
      "beat": 3081,
      "been": 3082,
      "bell": 3083,
      "bend": 3084,
      "bent": 3085,
      "bert": 3086,
      "best": 3087,
      "beta": 3088,
      "bias": 3089,
      "bill": 3090,
      "bind": 3091,
      "bing": 3092,
      "bion": 3093,
      "bios": 3094,
      "bird": 3095,
      "blam": 3096,
      "blew": 3097,
      "blob": 3098,
      "blog": 3099,
      "blow": 3100,
      "blue": 3101,
      "blur": 3102,
      "body": 3103,
      "boil": 3104,
      "bold": 3105,
      "bond": 3106,
      "bone": 3107,
      "book": 3108,
      "bool": 3109,
      "boom": 3110,
      "boot": 3111,
      "born": 3112,
      "boss": 3113,
      "both": 3114,
      "bowl": 3115,
      "brac": 3116,
      "brag": 3117,
      "brak": 3118,
      "bred": 3119,
      "buch": 3120,
      "buil": 3121,
      "bulk": 3122,
      "bump": 3123,
      "burn": 3124,
      "byte": 3125,
      "cach": 3126,
      "call": 3127,
      "calm": 3128,
      "came": 3129,
      "camp": 3130,
      "caps": 3131,
      "capt": 3132,
      "card": 3133,
      "care": 3134,
      "carr": 3135,
      "cart": 3136,
      "carv": 3137,
      "case": 3138,
      "cast": 3139,
      "caus": 3140,
      "cbow": 3141,
      "ceas": 3142,
      "ceil": 3143,
      "cell": 3144,
      "cent": 3145,
      "chao": 3146,
      "char": 3147,
      "chat": 3148,
      "chin": 3149,
      "chip": 3150,
      "chop": 3151,
      "clip": 3152,
      "clog": 3153,
      "clon": 3154,
      "clos": 3155,
      "club": 3156,
      "clud": 3157,
      "clue": 3158,
      "clus": 3159,
      "cmos": 3160,
      "code": 3161,
      "coin": 3162,
      "cold": 3163,
      "librar": 3164,
      "cone": 3165,
      "conv": 3166,
      "cook": 3167,
      "cool": 3168,
      "copi": 3169,
      "copy": 3170,
      "core": 3171,
      "cost": 3172,
      "crav": 3173,
      "crim": 3174,
      "cris": 3175,
      "cron": 3176,
      "crop": 3177,
      "crux": 3178,
      "cuda": 3179,
      "cull": 3180,
      "cult": 3181,
      "curl": 3182,
      "curv": 3183,
      "cycl": 3184,
      "damp": 3185,
      "danc": 3186,
      "dang": 3187,
      "dark": 3188,
      "darl": 3189,
      "dart": 3190,
      "dash": 3191,
      "data": 3192,
      "date": 3193,
      "dbms": 3194,
      "dead": 3195,
      "deal": 3196,
      "dear": 3197,
      "deed": 3198,
      "deem": 3199,
      "deep": 3200,
      "defi": 3201,
      "deft": 3202,
      "defy": 3203,
      "delv": 3204,
      "demn": 3205,
      "demo": 3206,
      "deni": 3207,
      "dens": 3208,
      "deny": 3209,
      "desk": 3210,
      "dial": 3211,
      "dict": 3212,
      "diff": 3213,
      "diod": 3214,
      "dire": 3215,
      "dirt": 3216,
      "dish": 3217,
      "disk": 3218,
      "doat": 3219,
      "dock": 3220,
      "does": 3221,
      "dole": 3222,
      "done": 3223,
      "doom": 3224,
      "door": 3225,
      "doth": 3226,
      "##izing": 3227,
      "drag": 3228,
      "dram": 3229,
      "draw": 3230,
      "drew": 3231,
      "driv": 3232,
      "dron": 3233,
      "drop": 3234,
      "dual": 3235,
      "duck": 3236,
      "dull": 3237,
      "dump": 3238,
      "dupl": 3239,
      "dusk": 3240,
      "dust": 3241,
      "dwel": 3242,
      "##ium": 3243,
      "earl": 3244,
      "earn": 3245,
      "east": 3246,
      "echo": 3247,
      "ecma": 3248,
      "edge": 3249,
      "edit": 3250,
      "elde": 3251,
      "else": 3252,
      "elud": 3253,
      "emit": 3254,
      "empt": 3255,
      "ence": 3256,
      "ency": 3257,
      "enem": 3258,
      "ensu": 3259,
      "entr": 3260,
      "enum": 3261,
      "envi": 3262,
      "epic": 3263,
      "equi": 3264,
      "eras": 3265,
      "euro": 3266,
      "evad": 3267,
      "evas": 3268,
      "even": 3269,
      "##ent": 3270,
      "evit": 3271,
      "evok": 3272,
      "exam": 3273,
      "exec": 3274,
      "exit": 3275,
      "fabl": 3276,
      "face": 3277,
      "fact": 3278,
      "fail": 3279,
      "fair": 3280,
      "fake": 3281,
      "fall": 3282,
      "fame": 3283,
      "fanc": 3284,
      "fare": 3285,
      "fast": 3286,
      "favo": 3287,
      "fear": 3288,
      "feed": 3289,
      "feel": 3290,
      "fees": 3291,
      "feet": 3292,
      "fell": 3293,
      "felt": 3294,
      "fenc": 3295,
      "fend": 3296,
      "fide": 3297,
      "fift": 3298,
      "file": 3299,
      "fill": 3300,
      "filt": 3301,
      "find": 3302,
      "fine": 3303,
      "fire": 3304,
      "firm": 3305,
      "fish": 3306,
      "five": 3307,
      "flag": 3308,
      "flam": 3309,
      "flat": 3310,
      "flaw": 3311,
      "fled": 3312,
      "flee": 3313,
      "flew": 3314,
      "flex": 3315,
      "flip": 3316,
      "flow": 3317,
      "flux": 3318,
      "fold": 3319,
      "foll": 3320,
      "fond": 3321,
      "font": 3322,
      "food": 3323,
      "fool": 3324,
      "foot": 3325,
      "fopp": 3326,
      "forb": 3327,
      "forc": 3328,
      "fore": 3329,
      "fork": 3330,
      "form": 3331,
      "fort": 3332,
      "four": 3333,
      "fram": 3334,
      "free": 3335,
      "##tic": 3336,
      "froz": 3337,
      "fuck": 3338,
      "fuel": 3339,
      "full": 3340,
      "func": 3341,
      "fund": 3342,
      "fuzz": 3343,
      "gain": 3344,
      "game": 3345,
      "gaug": 3346,
      "gave": 3347,
      "geek": 3348,
      "geni": 3349,
      "gift": 3350,
      "giga": 3351,
      "girl": 3352,
      "gist": 3353,
      "glad": 3354,
      "glar": 3355,
      "glee": 3356,
      "glob": 3357,
      "glor": 3358,
      "glow": 3359,
      "glue": 3360,
      "goal": 3361,
      "goes": 3362,
      "gold": 3363,
      "gone": 3364,
      "good": 3365,
      "goto": 3366,
      "grab": 3367,
      "grad": 3368,
      "gram": 3369,
      "grat": 3370,
      "grav": 3371,
      "gray": 3372,
      "grep": 3373,
      "grew": 3374,
      "grid": 3375,
      "grip": 3376,
      "grow": 3377,
      "grpc": 3378,
      "guid": 3379,
      "hack": 3380,
      "hail": 3381,
      "half": 3382,
      "halt": 3383,
      "hand": 3384,
      "hang": 3385,
      "happ": 3386,
      "hapt": 3387,
      "hard": 3388,
      "harm": 3389,
      "hash": 3390,
      "hast": 3391,
      "haul": 3392,
      "hdmi": 3393,
      "##byte": 3394,
      "heal": 3395,
      "heap": 3396,
      "hear": 3397,
      "heat": 3398,
      "heav": 3399,
      "heir": 3400,
      "held": 3401,
      "help": 3402,
      "here": 3403,
      "high": 3404,
      "hint": 3405,
      "hist": 3406,
      "hold": 3407,
      "holi": 3408,
      "holo": 3409,
      "home": 3410,
      "homo": 3411,
      "hood": 3412,
      "hook": 3413,
      "host": 3414,
      "hour": 3415,
      "html": 3416,
      "http": 3417,
      "huge": 3418,
      "hung": 3419,
      "hunt": 3420,
      "hurr": 3421,
      "hurt": 3422,
      "hush": 3423,
      "hype": 3424,
      "ible": 3425,
      "ibly": 3426,
      "icon": 3427,
      "icul": 3428,
      "idea": 3429,
      "idol": 3430,
      "ight": 3431,
      "ilit": 3432,
      "imag": 3433,
      "impl": 3434,
      "inch": 3435,
      "info": 3436,
      "init": 3437,
      "inno": 3438,
      "inso": 3439,
      "inst": 3440,
      "##fully": 3441,
      "inur": 3442,
      "ious": 3443,
      "iron": 3444,
      "ison": 3445,
      "issu": 3446,
      "item": 3447,
      "java": 3448,
      "jest": 3449,
      "jira": 3450,
      "joic": 3451,
      "join": 3452,
      "jott": 3453,
      "jpeg": 3454,
      "json": 3455,
      "judg": 3456,
      "july": 3457,
      "jump": 3458,
      "june": 3459,
      "junk": 3460,
      "just": 3461,
      "keen": 3462,
      "keep": 3463,
      "kept": 3464,
      "kick": 3465,
      "kill": 3466,
      "kilo": 3467,
      "kind": 3468,
      "king": 3469,
      "kivy": 3470,
      "knew": 3471,
      "know": 3472,
      "labo": 3473,
      "lace": 3474,
      "lack": 3475,
      "laid": 3476,
      "lanc": 3477,
      "land": 3478,
      "lang": 3479,
      "laps": 3480,
      "lash": 3481,
      "last": 3482,
      "late": 3483,
      "lead": 3484,
      "leaf": 3485,
      "leak": 3486,
      "lean": 3487,
      "leap": 3488,
      "leas": 3489,
      "leav": 3490,
      "lect": 3491,
      "left": 3492,
      "lend": 3493,
      "lens": 3494,
      "lent": 3495,
      "less": 3496,
      "liab": 3497,
      "libr": 3498,
      "life": 3499,
      "lift": 3500,
      "line": 3501,
      "link": 3502,
      "list": 3503,
      "llvm": 3504,
      "load": 3505,
      "lock": 3506,
      "lodg": 3507,
      "long": 3508,
      "##ful": 3509,
      "loom": 3510,
      "loop": 3511,
      "loud": 3512,
      "lstm": 3513,
      "luck": 3514,
      "lurk": 3515,
      "made": 3516,
      "mail": 3517,
      "main": 3518,
      "male": 3519,
      "mama": 3520,
      "many": 3521,
      "mark": 3522,
      "marr": 3523,
      "mash": 3524,
      "mask": 3525,
      "mass": 3526,
      "math": 3527,
      "meal": 3528,
      "mean": 3529,
      "meet": 3530,
      "mega": 3531,
      "meld": 3532,
      "ment": 3533,
      "menu": 3534,
      "mere": 3535,
      "merg": 3536,
      "merr": 3537,
      "mesh": 3538,
      "mess": 3539,
      "meta": 3540,
      "metr": 3541,
      "mild": 3542,
      "mile": 3543,
      "mind": 3544,
      "mini": 3545,
      "miss": 3546,
      "mock": 3547,
      "mono": 3548,
      "moon": 3549,
      "moor": 3550,
      "more": 3551,
      "most": 3552,
      "much": 3553,
      "mull": 3554,
      "must": 3555,
      "nail": 3556,
      "nano": 3557,
      "nant": 3558,
      "navi": 3559,
      "near": 3560,
      "neat": 3561,
      "neck": 3562,
      "need": 3563,
      "nerv": 3564,
      "ness": 3565,
      "nest": 3566,
      "neur": 3567,
      "next": 3568,
      "nice": 3569,
      "nine": 3570,
      "nltk": 3571,
      "node": 3572,
      "nois": 3573,
      "nomi": 3574,
      "##ism": 3575,
      "norm": 3576,
      "noun": 3577,
      "null": 3578,
      "numb": 3579,
      "nurs": 3580,
      "obey": 3581,
      "octa": 3582,
      "ocul": 3583,
      "olic": 3584,
      "olog": 3585,
      "omit": 3586,
      "once": 3587,
      "##ous": 3588,
      "open": 3589,
      "oper": 3590,
      "oust": 3591,
      "over": 3592,
      "pack": 3593,
      "paid": 3594,
      "pain": 3595,
      "pair": 3596,
      "para": 3597,
      "park": 3598,
      "pars": 3599,
      "part": 3600,
      "pass": 3601,
      "past": 3602,
      "path": 3603,
      "paus": 3604,
      "peac": 3605,
      "peak": 3606,
      "peek": 3607,
      "peep": 3608,
      "peer": 3609,
      "pend": 3610,
      "pens": 3611,
      "pent": 3612,
      "perl": 3613,
      "peta": 3614,
      "phob": 3615,
      "phon": 3616,
      "pick": 3617,
      "pict": 3618,
      "ping": 3619,
      "pipe": 3620,
      "plac": 3621,
      "plan": 3622,
      "##process": 3623,
      "plex": 3624,
      "plot": 3625,
      "plug": 3626,
      "plus": 3627,
      "poem": 3628,
      "poll": 3629,
      "poly": 3630,
      "pool": 3631,
      "poor": 3632,
      "port": 3633,
      "post": 3634,
      "pour": 3635,
      "pray": 3636,
      "pric": 3637,
      "prim": 3638,
      "prob": 3639,
      "prod": 3640,
      "pros": 3641,
      "prov": 3642,
      "prox": 3643,
      "prun": 3644,
      "publ": 3645,
      "puff": 3646,
      "pull": 3647,
      "puls": 3648,
      "pump": 3649,
      "punk": 3650,
      "purg": 3651,
      "push": 3652,
      "quad": 3653,
      "quer": 3654,
      "queu": 3655,
      "quir": 3656,
      "quis": 3657,
      "quit": 3658,
      "quiv": 3659,
      "quiz": 3660,
      "quot": 3661,
      "raid": 3662,
      "rail": 3663,
      "rain": 3664,
      "rais": 3665,
      "rall": 3666,
      "ramp": 3667,
      "rand": 3668,
      "rang": 3669,
      "rank": 3670,
      "read": 3671,
      "real": 3672,
      "rear": 3673,
      "rely": 3674,
      "rent": 3675,
      "repl": 3676,
      "rest": 3677,
      "rich": 3678,
      "ridd": 3679,
      "rimm": 3680,
      "risk": 3681,
      "road": 3682,
      "roam": 3683,
      "robo": 3684,
      "rock": 3685,
      "roll": 3686,
      "room": 3687,
      "root": 3688,
      "rose": 3689,
      "rous": 3690,
      "rout": 3691,
      "rtti": 3692,
      "ruby": 3693,
      "rude": 3694,
      "ruin": 3695,
      "rush": 3696,
      "rust": 3697,
      "saas": 3698,
      "said": 3699,
      "sail": 3700,
      "same": 3701,
      "sang": 3702,
      "sank": 3703,
      "sauc": 3704,
      "sawn": 3705,
      "scal": 3706,
      "scan": 3707,
      "scap": 3708,
      "scar": 3709,
      "scen": 3710,
      "scop": 3711,
      "scor": 3712,
      "seal": 3713,
      "seam": 3714,
      "seat": 3715,
      "sect": 3716,
      "seed": 3717,
      "seek": 3718,
      "seem": 3719,
      "seen": 3720,
      "sees": 3721,
      "seiz": 3722,
      "self": 3723,
      "sell": 3724,
      "selv": 3725,
      "semi": 3726,
      "send": 3727,
      "sens": 3728,
      "sent": 3729,
      "serv": 3730,
      "shad": 3731,
      "shak": 3732,
      "sham": 3733,
      "shap": 3734,
      "shar": 3735,
      "shed": 3736,
      "shin": 3737,
      "ship": 3738,
      "shoe": 3739,
      "shop": 3740,
      "shot": 3741,
      "show": 3742,
      "shut": 3743,
      "sick": 3744,
      "side": 3745,
      "sigh": 3746,
      "sigm": 3747,
      "sign": 3748,
      "sill": 3749,
      "sing": 3750,
      "sink": 3751,
      "sion": 3752,
      "site": 3753,
      "size": 3754,
      "skew": 3755,
      "skip": 3756,
      "slam": 3757,
      "slav": 3758,
      "slay": 3759,
      "slew": 3760,
      "slic": 3761,
      "slid": 3762,
      "slim": 3763,
      "slip": 3764,
      "slop": 3765,
      "slot": 3766,
      "slow": 3767,
      "smil": 3768,
      "smit": 3769,
      "smok": 3770,
      "snap": 3771,
      "snip": 3772,
      "snow": 3773,
      "soap": 3774,
      "soar": 3775,
      "sock": 3776,
      "soft": 3777,
      "sold": 3778,
      "solv": 3779,
      "##uous": 3780,
      "song": 3781,
      "soon": 3782,
      "sort": 3783,
      "soul": 3784,
      "soup": 3785,
      "spac": 3786,
      "spam": 3787,
      "span": 3788,
      "spar": 3789,
      "spec": 3790,
      "spel": 3791,
      "spen": 3792,
      "spin": 3793,
      "spit": 3794,
      "spot": 3795,
      "stab": 3796,
      "stag": 3797,
      "stak": 3798,
      "star": 3799,
      "stat": 3800,
      "stay": 3801,
      "step": 3802,
      "stir": 3803,
      "stok": 3804,
      "stol": 3805,
      "ston": 3806,
      "stop": 3807,
      "stor": 3808,
      "stub": 3809,
      "stud": 3810,
      "stun": 3811,
      "styl": 3812,
      "such": 3813,
      "suit": 3814,
      "sull": 3815,
      "summ": 3816,
      "sung": 3817,
      "sunk": 3818,
      "sure": 3819,
      "surf": 3820,
      "surg": 3821,
      "swap": 3822,
      "sway": 3823,
      "swin": 3824,
      "swip": 3825,
      "sync": 3826,
      "synt": 3827,
      "tabl": 3828,
      "tact": 3829,
      "tail": 3830,
      "take": 3831,
      "talk": 3832,
      "tall": 3833,
      "tang": 3834,
      "task": 3835,
      "tast": 3836,
      "team": 3837,
      "tear": 3838,
      "teas": 3839,
      "tech": 3840,
      "tele": 3841,
      "tell": 3842,
      "temp": 3843,
      "tend": 3844,
      "tens": 3845,
      "tera": 3846,
      "term": 3847,
      "ters": 3848,
      "test": 3849,
      "text": 3850,
      "##js": 3851,
      "##locat": 3852,
      "thaw": 3853,
      "them": 3854,
      "##map": 3855,
      "ther": 3856,
      "thes": 3857,
      "they": 3858,
      "thin": 3859,
      "thir": 3860,
      "##lock": 3861,
      "thus": 3862,
      "tick": 3863,
      "tier": 3864,
      "till": 3865,
      "tilt": 3866,
      "time": 3867,
      "tiny": 3868,
      "tion": 3869,
      "titl": 3870,
      "told": 3871,
      "tong": 3872,
      "took": 3873,
      "tool": 3874,
      "tour": 3875,
      "tout": 3876,
      "town": 3877,
      "trac": 3878,
      "trad": 3879,
      "trap": 3880,
      "tray": 3881,
      "tree": 3882,
      "tril": 3883,
      "trim": 3884,
      "trop": 3885,
      "true": 3886,
      "tues": 3887,
      "tupl": 3888,
      "turn": 3889,
      "twin": 3890,
      "type": 3891,
      "typo": 3892,
      "uint": 3893,
      "unar": 3894,
      "unif": 3895,
      "unit": 3896,
      "unix": 3897,
      "uous": 3898,
      "upon": 3899,
      "usab": 3900,
      "usag": 3901,
      "user": 3902,
      "util": 3903,
      "vain": 3904,
      "valu": 3905,
      "vary": 3906,
      "vast": 3907,
      "verb": 3908,
      "verg": 3909,
      "veri": 3910,
      "vers": 3911,
      "very": 3912,
      "viab": 3913,
      "vibr": 3914,
      "vici": 3915,
      "vict": 3916,
      "view": 3917,
      "voic": 3918,
      "void": 3919,
      "volt": 3920,
      "wait": 3921,
      "waiv": 3922,
      "walk": 3923,
      "wall": 3924,
      "want": 3925,
      "ward": 3926,
      "ware": 3927,
      "warm": 3928,
      "warn": 3929,
      "warp": 3930,
      "wash": 3931,
      "wasm": 3932,
      "wast": 3933,
      "weak": 3934,
      "wear": 3935,
      "wedg": 3936,
      "week": 3937,
      "weld": 3938,
      "well": 3939,
      "##sheet": 3940,
      "were": 3941,
      "west": 3942,
      "what": 3943,
      "when": 3944,
      "whim": 3945,
      "whip": 3946,
      "whop": 3947,
      "wick": 3948,
      "wide": 3949,
      "wife": 3950,
      "wifi": 3951,
      "wiki": 3952,
      "wild": 3953,
      "success": 3954,
      "wind": 3955,
      "wire": 3956,
      "wise": 3957,
      "wish": 3958,
      "with": 3959,
      "woke": 3960,
      "wolf": 3961,
      "wont": 3962,
      "wood": 3963,
      "word": 3964,
      "work": 3965,
      "worn": 3966,
      "worr": 3967,
      "wors": 3968,
      "wrap": 3969,
      "writ": 3970,
      "yaml": 3971,
      "yeah": 3972,
      "year": 3973,
      "ying": 3974,
      "your": 3975,
      "zero": 3976,
      "zoom": 3977,
      "succeed": 3978
    }
  }
}